{
  "version": "1.0",
  "truncation": null,
  "padding": null,
  "added_tokens": [],
  "normalizer": null,
  "pre_tokenizer": {
    "type": "ByteLevel",
    "add_prefix_space": false,
    "trim_offsets": true,
    "use_regex": true
  },
  "post_processor": {
    "type": "ByteLevel",
    "add_prefix_space": true,
    "trim_offsets": false,
    "use_regex": true
  },
  "decoder": {
    "type": "ByteLevel",
    "add_prefix_space": true,
    "trim_offsets": true,
    "use_regex": true
  },
  "model": {
    "type": "BPE",
    "dropout": null,
    "unk_token": null,
    "continuing_subword_prefix": null,
    "end_of_word_suffix": null,
    "fuse_unk": false,
    "byte_fallback": false,
    "ignore_merges": false,
    "vocab": {
      "!": 0,
      "\"": 1,
      "#": 2,
      "$": 3,
      "%": 4,
      "&": 5,
      "'": 6,
      "(": 7,
      ")": 8,
      "*": 9,
      "+": 10,
      ",": 11,
      "-": 12,
      ".": 13,
      "/": 14,
      "0": 15,
      "1": 16,
      "2": 17,
      "3": 18,
      "4": 19,
      "5": 20,
      "6": 21,
      "7": 22,
      "8": 23,
      "9": 24,
      ":": 25,
      ";": 26,
      "<": 27,
      "=": 28,
      ">": 29,
      "?": 30,
      "@": 31,
      "A": 32,
      "B": 33,
      "C": 34,
      "D": 35,
      "E": 36,
      "F": 37,
      "G": 38,
      "H": 39,
      "I": 40,
      "J": 41,
      "K": 42,
      "L": 43,
      "M": 44,
      "N": 45,
      "O": 46,
      "P": 47,
      "Q": 48,
      "R": 49,
      "S": 50,
      "T": 51,
      "U": 52,
      "V": 53,
      "W": 54,
      "X": 55,
      "Y": 56,
      "Z": 57,
      "[": 58,
      "\\": 59,
      "]": 60,
      "^": 61,
      "_": 62,
      "`": 63,
      "a": 64,
      "b": 65,
      "c": 66,
      "d": 67,
      "e": 68,
      "f": 69,
      "g": 70,
      "h": 71,
      "i": 72,
      "j": 73,
      "k": 74,
      "l": 75,
      "m": 76,
      "n": 77,
      "o": 78,
      "p": 79,
      "q": 80,
      "r": 81,
      "s": 82,
      "t": 83,
      "u": 84,
      "v": 85,
      "w": 86,
      "x": 87,
      "y": 88,
      "z": 89,
      "{": 90,
      "|": 91,
      "}": 92,
      "~": 93,
      "¡": 94,
      "¢": 95,
      "£": 96,
      "¤": 97,
      "¥": 98,
      "¦": 99,
      "§": 100,
      "¨": 101,
      "©": 102,
      "ª": 103,
      "«": 104,
      "¬": 105,
      "®": 106,
      "¯": 107,
      "°": 108,
      "±": 109,
      "²": 110,
      "³": 111,
      "´": 112,
      "µ": 113,
      "¶": 114,
      "·": 115,
      "¸": 116,
      "¹": 117,
      "º": 118,
      "»": 119,
      "¼": 120,
      "½": 121,
      "¾": 122,
      "¿": 123,
      "À": 124,
      "Á": 125,
      "Â": 126,
      "Ã": 127,
      "Ä": 128,
      "Å": 129,
      "Æ": 130,
      "Ç": 131,
      "È": 132,
      "É": 133,
      "Ê": 134,
      "Ë": 135,
      "Ì": 136,
      "Í": 137,
      "Î": 138,
      "Ï": 139,
      "Ð": 140,
      "Ñ": 141,
      "Ò": 142,
      "Ó": 143,
      "Ô": 144,
      "Õ": 145,
      "Ö": 146,
      "×": 147,
      "Ø": 148,
      "Ù": 149,
      "Ú": 150,
      "Û": 151,
      "Ü": 152,
      "Ý": 153,
      "Þ": 154,
      "ß": 155,
      "à": 156,
      "á": 157,
      "â": 158,
      "ã": 159,
      "ä": 160,
      "å": 161,
      "æ": 162,
      "ç": 163,
      "è": 164,
      "é": 165,
      "ê": 166,
      "ë": 167,
      "ì": 168,
      "í": 169,
      "î": 170,
      "ï": 171,
      "ð": 172,
      "ñ": 173,
      "ò": 174,
      "ó": 175,
      "ô": 176,
      "õ": 177,
      "ö": 178,
      "÷": 179,
      "ø": 180,
      "ù": 181,
      "ú": 182,
      "û": 183,
      "ü": 184,
      "ý": 185,
      "þ": 186,
      "ÿ": 187,
      "Ā": 188,
      "ā": 189,
      "Ă": 190,
      "ă": 191,
      "Ą": 192,
      "ą": 193,
      "Ć": 194,
      "ć": 195,
      "Ĉ": 196,
      "ĉ": 197,
      "Ċ": 198,
      "ċ": 199,
      "Č": 200,
      "č": 201,
      "Ď": 202,
      "ď": 203,
      "Đ": 204,
      "đ": 205,
      "Ē": 206,
      "ē": 207,
      "Ĕ": 208,
      "ĕ": 209,
      "Ė": 210,
      "ė": 211,
      "Ę": 212,
      "ę": 213,
      "Ě": 214,
      "ě": 215,
      "Ĝ": 216,
      "ĝ": 217,
      "Ğ": 218,
      "ğ": 219,
      "Ġ": 220,
      "ġ": 221,
      "Ģ": 222,
      "ģ": 223,
      "Ĥ": 224,
      "ĥ": 225,
      "Ħ": 226,
      "ħ": 227,
      "Ĩ": 228,
      "ĩ": 229,
      "Ī": 230,
      "ī": 231,
      "Ĭ": 232,
      "ĭ": 233,
      "Į": 234,
      "į": 235,
      "İ": 236,
      "ı": 237,
      "Ĳ": 238,
      "ĳ": 239,
      "Ĵ": 240,
      "ĵ": 241,
      "Ķ": 242,
      "ķ": 243,
      "ĸ": 244,
      "Ĺ": 245,
      "ĺ": 246,
      "Ļ": 247,
      "ļ": 248,
      "Ľ": 249,
      "ľ": 250,
      "Ŀ": 251,
      "ŀ": 252,
      "Ł": 253,
      "ł": 254,
      "Ń": 255,
      "Å¢": 256,
      "Å¢Å¢": 257,
      "Å¢Å¢Å¢Å¢": 258,
      "Å¢Å¢Å¢Å¢Å¢Å¢Å¢Å¢": 259,
      "Å¢Å¢Å¢Å¢Å¢Å¢Å¢Å¢Å¢Å¢Å¢Å¢Å¢Å¢Å¢Å¢": 260,
      "Å¢Å¢Å¢Å¢Å¢Å¢Å¢Å¢Å¢Å¢Å¢Å¢Å¢Å¢Å¢Å¢Å¢Å¢Å¢Å¢Å¢Å¢Å¢Å¢Å¢Å¢Å¢Å¢Å¢Å¢Å¢Å¢": 261,
      "Å¢Å¢Å¢Å¢Å¢Å¢Å¢Å¢Å¢Å¢Å¢Å¢Å¢Å¢Å¢Å¢Å¢Å¢Å¢Å¢Å¢Å¢Å¢Å¢Å¢Å¢Å¢Å¢Å¢Å¢Å¢Å¢Å¢Å¢Å¢Å¢Å¢Å¢Å¢Å¢Å¢Å¢Å¢Å¢Å¢Å¢Å¢Å¢Å¢Å¢Å¢Å¢Å¢Å¢Å¢Å¢Å¢Å¢Å¢Å¢Å¢Å¢Å¢Å¢": 262,
      "Å¢Å": 263,
      "Å¢Å¢Å¢Å¢Å¢Å¢Å¢Å¢Å¢Å¢Å¢Å¢Å¢Å¢Å¢Å¢Å¢Å¢Å¢Å¢Å¢Å¢Å¢Å¢Å¢Å¢Å¢Å¢Å¢Å¢Å¢Å¢Å¢Å¢Å¢Å¢Å¢Å¢Å¢Å¢Å¢Å¢Å¢Å¢Å¢Å¢Å¢Å¢Å¢Å¢Å¢Å¢Å¢Å¢Å¢Å¢Å¢Å¢Å¢Å¢Å¢Å¢Å¢Å¢Å¢Å¢Å¢Å¢Å¢Å¢Å¢Å¢Å¢Å¢Å¢Å¢Å¢Å¢Å¢Å¢Å¢Å¢Å¢Å¢Å¢Å¢Å¢Å¢Å¢Å¢Å¢Å¢Å¢Å¢Å¢Å¢Å¢Å¢Å¢Å¢Å¢Å¢Å¢Å¢Å¢Å¢Å¢Å¢Å¢Å¢Å¢Å¢Å¢Å¢Å¢Å¢Å¢Å¢Å¢Å¢Å¢Å¢Å¢Å¢Å¢Å¢Å¢Å¢": 264,
      "Å£": 265,
      "Å¡": 266,
      "Å¢Å¢Å¢Å¢Å¢Å¢Å¢Å¢Å¢Å¢Å¢Å¢Å¢Å¢Å¢Å¢Å¢Å¢Å¢Å¢Å¢Å¢Å¢Å¢": 267,
      "Å¢Å¢Å¢Å": 268,
      "Å¢Å¢Å¢Å¢Å¢Å¢Å¢Å¢Å¢Å¢Å¢Å¢Å¢Å¢Å¢Å¢Å¢Å¢Å¢Å¢Å¢Å¢Å¢Å¢Å¢Å¢Å¢Å¢": 269,
      "Å¢Å¢Å¢Å¢Å¢Å¢Å¢Å¢Å¢Å¢Å¢Å¢Å¢Å¢Å¢Å¢Å¢Å¢Å¢Å¢Å¢Å¢Å¢Å¢Å¢Å¢Å¢Å¢Å¢Å¢Å¢Å¢Å¢Å¢Å¢Å¢Å¢Å¢Å¢Å¢Å¢Å¢Å¢Å¢Å¢Å¢Å¢Å¢Å¢Å¢Å¢Å¢Å¢Å¢Å¢Å¢Å¢Å¢Å¢Å¢Å¢Å¢Å¢Å¢Å¢Å¢Å¢Å¢Å¢Å¢Å¢Å¢Å¢Å¢Å¢Å¢Å¢Å¢Å¢Å¢Å¢Å¢Å¢Å¢Å¢Å¢Å¢Å¢Å¢Å¢Å¢Å¢Å¢Å¢Å¢Å¢Å¢Å¢Å¢Å¢Å¢Å¢Å¢Å¢Å¢Å¢Å¢Å¢Å¢Å¢Å¢Å¢Å¢Å¢Å¢Å¢Å¢Å¢Å¢Å¢Å¢Å¢Å¢Å¢Å¢Å¢Å¢Å¢Å¢Å¢Å¢Å¢Å¢Å¢Å¢Å¢Å¢Å¢Å¢Å¢Å¢Å¢Å¢Å¢Å¢Å¢Å¢Å¢Å¢Å¢Å¢Å¢Å¢Å¢Å¢Å¢Å¢Å¢Å¢Å¢Å¢Å¢Å¢Å¢Å¢Å¢Å¢Å¢Å¢Å¢Å¢Å¢Å¢Å¢Å¢Å¢Å¢Å¢Å¢Å¢Å¢Å¢Å¢Å¢Å¢Å¢Å¢Å¢Å¢Å¢Å¢Å¢Å¢Å¢Å¢Å¢Å¢Å¢Å¢Å¢Å¢Å¢Å¢Å¢Å¢Å¢Å¢Å¢Å¢Å¢Å¢Å¢Å¢Å¢Å¢Å¢Å¢Å¢Å¢Å¢Å¢Å¢Å¢Å¢Å¢Å¢Å¢Å¢Å¢Å¢Å¢Å¢Å¢Å¢Å¢Å¢Å¢Å¢Å¢Å¢Å¢Å¢Å¢Å¢Å¢Å¢Å¢Å¢Å¢Å¢Å¢Å¢Å¢Å¢Å¢Å¢": 270,
      "Å¤": 271,
      "Åł": 272,
      "Å¢Å£": 273,
      "Å¢Å¡": 274,
      "Å¢Å¢Å¢Å¢Å¢Å¢Å¢Å¢Å¢Å¢Å¢Å¢Å¢Å¢Å¢Å¢Å¢Å¢Å¢Å¢Å¢Å¢Å¢Å¢Å¢Å¢Å¢Å¢Å¢Å¢Å¢Å": 275,
      "Å¢Å¢Å¢Å¢Å¢Å¢Å¢Å¢Å¢Å¢Å¢Å¢Å¢Å¢Å¢Å¢Å¢Å¢Å¢Å¢": 276,
      "Å¥": 277,
      "Å¢Å¢Å£": 278,
      "Å¢Å¢Å¡": 279,
      "ÅŁ": 280,
      "Å¢Å¢Å¢Å¢Å¢Å¢Å¢Å¢Å¢Å¢Å¢Å¢Å¢Å¢Å¢Å¢Å¢Å¢Å¢Å¢Å¢Å¢Å¢Å¢Å¢Å¢Å¢Å¢Å¢Å¢Å¢Å¢Å¢Å¢Å¢Å¢Å¢Å¢Å¢Å¢Å¢Å¢Å¢Å¢Å¢Å¢Å¢Å¢Å¢Å¢Å¢Å¢Å¢Å¢Å¢Å¢Å¢Å¢Å¢Å¢Å¢Å¢Å¢Å¢Å¢Å¢Å¢Å¢Å¢Å¢Å¢Å¢Å¢Å¢Å¢Å¢Å¢Å¢Å¢Å¢Å¢Å¢Å¢Å¢Å¢Å¢Å¢Å¢Å¢Å¢Å¢Å¢Å¢Å¢Å¢Å¢Å¢Å¢Å¢Å¢Å¢Å¢Å¢Å¢Å¢Å¢Å¢Å¢Å¢Å¢Å¢Å¢Å¢Å¢Å¢Å¢Å¢Å¢Å¢Å¢Å¢Å¢Å¢Å¢Å¢Å¢Å¢Å¢Å¢Å¢Å¢Å¢Å¢Å¢Å¢Å¢Å¢Å¢Å¢Å¢Å¢Å¢Å¢Å¢Å¢Å¢Å¢Å¢Å¢Å¢Å¢Å¢Å¢Å¢Å¢Å¢Å¢Å¢Å¢Å¢Å¢Å¢Å¢Å¢Å¢Å¢Å¢Å¢Å¢Å¢Å¢Å¢Å¢Å¢Å¢Å¢Å¢Å¢Å¢Å¢Å¢Å¢Å¢Å¢Å¢Å¢Å¢Å¢Å¢Å¢Å¢Å¢Å¢Å¢Å¢Å¢Å¢Å¢Å¢Å¢Å¢Å¢Å¢Å¢Å¢Å¢Å¢Å¢Å¢Å¢Å¢Å¢Å¢Å¢Å¢Å¢Å¢Å¢Å¢Å¢Å¢Å¢Å¢Å¢Å¢Å¢Å¢Å¢Å¢Å¢Å¢Å¢Å¢Å¢Å¢Å¢Å¢Å¢Å¢Å¢Å¢Å¢Å¢Å¢Å¢Å¢Å¢Å¢Å¢Å¢Å¢Å¢Å¢Å¢Å¢Å¢Å¢Å¢Å¢Å¢Å¢Å¢Å¢Å¢Å¢Å¢Å¢Å¢Å¢Å¢Å¢Å¢Å¢Å¢Å¢Å¢Å¢Å¢Å¢Å¢Å¢Å¢Å¢Å¢Å¢Å¢Å¢Å¢Å¢Å¢Å¢Å¢Å¢Å¢Å¢Å¢Å¢Å¢Å¢Å¢Å¢Å¢Å¢Å¢Å¢Å¢Å¢Å¢Å¢Å¢Å¢Å¢Å¢Å¢Å¢Å¢Å¢Å¢Å¢Å¢Å¢Å¢Å¢Å¢Å¢Å¢Å¢Å¢Å¢Å¢Å¢Å¢Å¢Å¢Å¢Å¢Å¢Å¢Å¢Å¢Å¢Å¢Å¢Å¢Å¢Å¢Å¢Å¢Å¢Å¢Å¢Å¢Å¢Å¢Å¢Å¢Å¢Å¢Å¢Å¢Å¢Å¢Å¢Å¢Å¢Å¢Å¢Å¢Å¢Å¢Å¢Å¢Å¢Å¢Å¢Å¢Å¢Å¢Å¢Å¢Å¢Å¢Å¢Å¢Å¢Å¢Å¢Å¢Å¢Å¢Å¢Å¢Å¢Å¢Å¢Å¢Å¢Å¢Å¢Å¢Å¢Å¢Å¢Å¢Å¢Å¢Å¢Å¢Å¢Å¢Å¢Å¢Å¢Å¢Å¢Å¢Å¢Å¢Å¢Å¢Å¢Å¢Å¢Å¢Å¢Å¢Å¢Å¢Å¢Å¢Å¢Å¢Å¢Å¢Å¢Å¢Å¢Å¢Å¢Å¢Å¢Å¢Å¢Å¢Å¢Å¢Å¢Å¢Å¢Å¢Å¢Å¢Å¢Å¢Å¢Å¢Å¢Å¢Å¢Å¢Å¢Å¢Å¢Å¢Å¢Å¢Å¢Å¢Å¢Å¢Å¢Å¢Å¢Å¢Å¢Å¢Å¢Å¢Å¢Å¢Å¢Å¢Å¢Å¢Å¢Å¢Å¢Å¢Å¢Å¢Å¢Å¢Å¢Å¢Å¢Å¢Å¢Å¢Å¢Å¢Å¢Å¢Å¢Å¢Å¢Å¢Å¢Å¢Å¢Å¢Å¢Å¢": 281,
      "Å¦": 282,
      "Åŀ": 283,
      "Å¢Å¢Å¢Å¢Å¢Å¢Å¢Å¢Å¢Å¢Å¢Å¢Å¢Å¢Å¢Å¢Å¢Å¢Å¢Å¢Å¢Å¢Å¢Å¢Å¢Å¢Å¢Å¢Å¢Å¢Å¢Å£": 284,
      "Å¢Å¢Å¢Å¢Å¢Å¢Å¢Å¢Å¢Å¢Å¢Å¢Å¢Å¢Å¢Å¢Å¢Å¢Å¢Å¢Å¢Å¢Å¢Å¢Å¢Å¢Å¢Å¢Å¢Å¢Å¢Å¡": 285,
      "Å¢Å¢Å¢Å£": 286,
      "Å¢Å¢Å¢Å¡": 287,
      "Å¢Å¢Å¢Å¢Å¢Å¢Å¢Å¢Å¢Å¢Å¢Å¢": 288,
      "Å§": 289,
      "Å¡Å£": 290,
      "ÅĿ": 291,
      "Å¢Å¤": 292,
      "Å¢Åł": 293,
      "Å¨": 294,
      "Åľ": 295,
      "Å£Å£": 296,
      "Å¡Å¡": 297,
      "Å©": 298,
      "ÅĽ": 299,
      "Åļ": 300,
      "Å£Å¡": 301,
      "Åª": 302,
      "Å«": 303,
      "ÅĻ": 304,
      "Å¢Å¢Å¢Å¢Å¢Å¢Å¢Å¢Å¢Å¢Å¢Å¢Å¢Å¢Å¢Å¢Å¢Å¢Å¢Å¢Å¢Å¢": 305,
      "Å¢Å¢Å¢Å¢Å¢Å¢Å¢Å¢Å¢Å¢Å¢Å¢Å¢Å¢Å¢Å¢Å¢Å¢Å¢Å¢Å¢Å¢Å¢Å¢Å¢Å¢Å¢Å¢Å¢Å¢Å¢Å¢Å¢Å¢Å¢Å¢Å¢Å¢Å¢Å¢Å¢Å¢Å¢Å¢Å¢Å¢Å¢Å¢Å¢Å¢Å¢Å¢Å¢Å¢Å¢Å¢Å¢Å¢Å¢Å¢Å¢Å¢Å¢Å¢Å¢Å¢Å¢Å¢Å¢Å¢Å¢Å¢Å¢Å¢Å¢Å¢Å¢Å¢Å¢Å¢Å¢Å¢Å¢Å¢Å¢Å¢Å¢Å¢Å¢Å¢Å¢Å¢Å¢Å¢Å¢Å¢Å¢Å¢Å¢Å¢Å¢Å¢Å¢Å¢Å¢Å¢Å¢Å¢Å¢Å¢Å¢Å¢Å¢Å¢Å¢Å¢Å¢Å¢Å¢Å¢Å¢Å¢Å¢Å¢Å¢Å¢Å¢Å¢Å¢Å¢Å¢Å¢Å¢Å¢Å¢Å¢Å¢Å¢Å¢Å¢Å¢Å¢Å¢Å¢Å¢Å¢Å¢Å¢Å¢Å¢Å¢Å¢Å¢Å¢Å¢Å¢Å¢Å¢Å¢Å¢Å¢Å¢Å¢Å¢Å¢Å¢Å¢Å¢Å¢Å¢Å¢Å¢Å¢Å¢Å¢Å¢Å¢Å¢Å¢Å¢Å¢Å¢Å¢Å¢Å¢Å¢Å¢Å¢Å¢Å¢Å¢Å¢Å¢Å¢Å¢Å¢Å¢Å¢Å¢Å¢Å¢Å¢Å¢Å¢Å¢Å¢Å¢Å¢Å¢Å¢Å¢Å¢Å¢Å¢Å¢Å¢Å¢Å¢Å¢Å¢Å¢Å¢Å¢Å¢Å¢Å¢Å¢Å¢Å¢Å¢Å¢Å¢Å¢Å¢Å¢Å¢Å¢Å¢Å¢Å¢Å¢Å¢Å¢Å¢Å¢Å¢Å¢Å¢Å¢Å¢Å¢Å¢Å¢Å¢Å¢Å¢Å¢Å¢Å¢Å¢Å¢Å¢Å¢Å¢Å¢Å¢Å¢Å¢Å¢Å¢Å¢Å¢Å¢Å¢Å¢Å¢Å¢Å¢Å¢Å¢Å¢Å¢Å¢Å¢Å¢Å¢Å¢Å¢Å¢Å¢Å¢Å¢Å¢Å¢Å¢Å¢Å¢Å¢Å¢Å¢Å¢Å¢Å¢Å¢Å¢Å¢Å¢Å¢Å¢Å¢Å¢Å¢Å¢Å¢Å¢Å¢Å¢Å¢Å¢Å¢Å¢Å¢Å¢Å¢Å¢Å¢Å¢Å¢Å¢Å¢Å¢Å¢Å¢Å¢Å¢Å¢Å¢Å¢Å¢Å¢Å¢Å¢Å¢Å¢Å¢Å¢Å¢Å¢Å¢Å¢Å¢Å¢Å¢Å¢Å¢Å¢Å¢Å¢Å¢Å¢Å¢Å¢Å¢Å¢Å¢Å¢Å¢Å¢Å¢Å¢Å¢Å¢Å¢Å¢Å¢Å¢Å¢Å¢Å¢Å¢Å¢Å¢Å¢Å¢Å¢Å¢Å¢Å¢Å¢Å¢Å¢Å¢Å¢Å¢Å¢Å¢Å¢Å¢Å¢Å¢Å¢Å¢Å¢Å¢Å¢Å¢Å¢Å¢Å¢Å¢Å¢Å¢Å¢Å¢Å¢Å¢Å¢Å¢Å¢Å¢Å¢Å¢Å¢Å¢Å¢Å¢Å¢Å¢Å¢Å¢Å¢Å¢Å¢Å¢Å¢Å¢Å¢Å¢Å¢Å¢Å¢Å¢Å¢Å¢Å¢Å¢Å¢Å¢Å¢Å¢Å¢Å¢Å¢Å¢Å¢Å¢Å¢Å¢Å¢Å¢Å¢Å¢Å¢Å¢Å¢Å¢Å¢Å¢Å¢Å¢Å¢Å¢Å¢Å¢Å¢Å¢Å¢Å¢Å¢Å¢Å¢Å¢Å¢Å¢Å¢Å¢Å¢Å¢Å¢Å¢Å¢Å¢Å¢Å¢Å¢Å¢Å¢Å¢Å¢Å¢Å¢Å¢Å¢Å¢Å¢Å¢Å¢Å¢Å¢Å¢Å¢Å¢Å¢Å¢Å¢Å¢Å¢Å¢Å¢Å¢Å¢Å¢Å¢Å¢Å¢Å¢Å¢Å¢Å¢Å¢Å¢Å¢Å¢Å¢Å¢Å¢Å¢Å¢Å¢Å¢Å¢Å¢Å¢Å¢Å¢Å¢Å¢Å¢Å¢Å¢Å¢Å¢Å¢Å¢Å¢Å¢Å¢Å¢Å¢Å¢Å¢Å¢Å¢Å¢Å¢Å¢Å¢Å¢Å¢Å¢Å¢Å¢Å¢Å¢Å¢Å¢Å¢Å¢Å¢Å¢Å¢Å¢Å¢Å¢Å¢Å¢Å¢Å¢Å¢Å¢Å¢Å¢Å¢Å¢Å¢Å¢Å¢Å¢Å¢Å¢Å¢Å¢Å¢Å¢Å¢Å¢Å¢Å¢Å¢Å¢Å¢Å¢Å¢Å¢Å¢Å¢Å¢Å¢Å¢Å¢Å¢Å¢Å¢Å¢Å¢Å¢Å¢Å¢Å¢Å¢Å¢Å¢Å¢Å¢Å¢Å¢Å¢Å¢Å¢Å¢Å¢Å¢Å¢Å¢Å¢Å¢Å¢Å¢Å¢Å¢Å¢Å¢Å¢Å¢Å¢Å¢Å¢Å¢Å¢Å¢Å¢Å¢Å¢Å¢Å¢Å¢Å¢Å¢Å¢Å¢Å¢Å¢Å¢Å¢Å¢Å¢Å¢Å¢Å¢Å¢Å¢Å¢Å¢Å¢Å¢Å¢Å¢Å¢Å¢Å¢Å¢Å¢Å¢Å¢Å¢Å¢Å¢Å¢Å¢Å¢Å¢Å¢Å¢Å¢Å¢Å¢Å¢Å¢Å¢Å¢Å¢Å¢Å¢Å¢Å¢Å¢Å¢Å¢Å¢Å¢Å¢Å¢Å¢Å¢Å¢Å¢Å¢Å¢Å¢Å¢Å¢Å¢Å¢Å¢Å¢Å¢Å¢Å¢Å¢Å¢Å¢Å¢Å¢Å¢Å¢Å¢Å¢Å¢Å¢Å¢Å¢Å¢Å¢Å¢Å¢Å¢Å¢Å¢Å¢Å¢Å¢Å¢Å¢Å¢Å¢Å¢Å¢Å¢Å¢Å¢Å¢Å¢Å¢Å¢Å¢Å¢Å¢Å¢Å¢Å¢Å¢Å¢Å¢Å¢Å¢Å¢Å¢Å¢Å¢Å¢Å¢Å¢Å¢Å¢Å¢Å¢Å¢Å¢Å¢Å¢Å¢Å¢Å¢Å¢Å¢Å¢Å¢Å¢Å¢Å¢Å¢Å¢Å¢Å¢Å¢Å¢Å¢Å¢Å¢Å¢Å¢Å¢Å¢Å¢Å¢Å¢Å¢Å¢Å¢Å¢Å¢Å¢Å¢Å¢Å¢Å¢Å¢Å¢Å¢Å¢Å¢Å¢Å¢Å¢Å¢Å¢Å¢Å¢Å¢Å¢Å¢Å¢Å¢Å¢Å¢Å¢Å¢Å¢Å¢Å¢Å¢Å¢Å¢Å¢Å¢Å¢Å¢Å¢Å¢Å¢Å¢Å¢Å¢Å¢Å¢Å¢Å¢Å¢Å¢Å¢Å¢Å¢Å¢Å¢Å¢Å¢Å¢Å¢Å¢Å¢Å¢Å¢Å¢Å¢Å¢Å¢Å¢Å¢Å¢Å¢Å¢Å¢Å¢Å¢Å¢Å¢Å¢Å¢Å¢Å¢Å¢Å¢Å¢Å¢Å¢Å¢Å¢Å¢Å¢Å¢Å¢Å¢Å¢Å¢Å¢Å¢Å¢Å¢Å¢Å¢Å¢Å¢Å¢Å¢Å¢Å¢Å¢Å¢Å¢Å¢Å¢Å¢Å¢Å¢Å¢Å¢Å¢Å¢Å¢Å¢Å¢Å¢Å¢Å¢Å¢Å¢Å¢Å¢Å¢Å¢Å¢Å¢Å¢Å¢Å¢Å¢Å¢Å¢Å¢Å¢Å¢Å¢Å¢Å¢Å¢Å¢Å¢Å¢Å¢Å¢Å¢Å¢Å¢Å¢Å¢Å¢Å¢Å¢Å¢Å¢Å¢Å¢Å¢Å¢Å¢Å¢Å¢Å¢Å¢Å¢Å¢Å¢Å¢Å¢Å¢Å¢Å¢Å¢Å¢Å¢Å¢Å¢Å¢Å¢Å¢Å¢Å¢Å¢Å¢Å¢Å¢Å¢Å¢Å¢": 306,
      "Å¢Å¢Å¢Å¢Å¢Å¢Å¢Å¢Å¢Å¢Å¢Å¢Å¢Å¢Å¢Å¢Å¢Å¢Å¢Å¢Å¢Å¢Å¢Å¢Å¢Å¢": 307,
      "Å¬": 308,
      "Åĺ": 309,
      "Å¢Å¥": 310,
      "Å¢ÅŁ": 311,
      "Å¢Å¢Å¢Å¢Å¢Å¢Å¢Å¢Å¢Å¢Å¢Å¢Å¢Å¢Å¢Å¢Å¢Å¢Å¢Å¢Å¢Å¢Å¢Å¢Å¢Å¢Å¢Å¢Å¢Å¢Å¢Å¢Å¢Å¢Å¢Å¢Å¢Å¢Å¢Å¢Å¢Å¢Å¢Å¢Å¢Å¢Å¢Å¢Å¢Å¢Å¢Å¢Å¢Å¢Å¢Å¢Å¢Å¢Å¢Å¢Å¢Å¢Å¢Å¢Å¢Å¢Å¢Å¢Å¢Å¢Å¢Å¢Å¢Å¢Å¢Å¢Å¢Å¢Å¢Å¢Å¢Å¢Å¢Å¢Å¢Å¢Å¢Å¢Å¢Å¢Å¢Å¢Å¢Å¢Å¢Å¢": 312,
      "Å¢Å¡Å£": 313,
      "ÅŃ": 314,
      "Å¢Å¢Å¢Å¢Å¢Å¢Å¢Å¢Å¢Å¢Å¢Å¢Å¢Å¢Å¢Å¢Å¢Å¢": 315,
      "Å¢Å£Å¡": 316,
      "ÅĹ": 317,
      "Å¢Å¢Å¢Å¢Å¢Å¢Å¢Å¢Å¢Å¢Å¢Å¢Å¢Å¢Å¢Å¢Å¢Å¢Å¢Å¢Å¢Å¢Å¢Å¢Å¢Å¢Å¡": 318,
      "Å®": 319,
      "Å¢Å¢Å¢Å¢Å¢Å¢Å¢Å¢Å¢Å¢Å¢Å¢Å¢Å¢Å¢Å¢Å¢Å¢Å¢Å¢Å¢Å¢Å¢Å¢Å¢Å¢Å£": 320,
      "Åĸ": 321,
      "Åķ": 322,
      "Å¢Å¢Å¢Å¢Å¢Å¢Å¢Å¢Å¢Å¢Å¢Å¢Å¢Å¢Å¢Å¢Å¢Å¢Å¢Å¢Å¢Å¢Å¢Å¢Å¢Å£": 323,
      "ÅłÅ£": 324,
      "Å¢Å¢Å¢Å¢Å¢Å¢Å¢Å¢Å¢Å¢Å¢Å¢Å¢Å¢Å¢Å¢Å¢Å¢Å¢Å¢Å¢Å¢Å¢Å¢Å¢Å¡": 325,
      "Å¤Å£": 326,
      "Å¤Å¡": 327,
      "Å¯": 328,
      "Å¢Å¢Å¢Å¢Å¢Å¢Å¢Å¢Å¢Å¢Å¢Å¢Å¢Å¢Å¢Å¢Å¢Å¢Å¢Å¢Å¢Å¢Å¢Å¢Å¢Å¢Å¢Å¢Å¢Å¢Å¡": 329,
      "Å¢Å¢Å¢Å¢Å¢Å¢Å¢Å¢Å¢Å¢Å¢Å¢Å¢Å¢Å¢Å¢Å¢Å¢Å¢Å¢Å¢Å¢Å¢Å¢Å¢Å¢Å¢Å¢Å¢Å¢Å£": 330,
      "Å¢Å¢Å¢Å¢Å¢Å¢Å¢Å¢Å¢Å¢Å¢Å¢Å¢Å¢Å¢Å¢Å¢Å¢Å¢Å¢Å¢Å¢Å¢Å¢Å¢Å¢Å¢Å¢Å¢Å£": 331,
      "Å¢Å¢Å¢Å¢Å¢Å¢Å¢Å¢Å¢Å¢Å¢Å¢Å¢Å¢Å¢Å¢Å¢Å¢Å¢Å¢Å¢Å¢Å¢Å¢Å¢Å¢Å¢Å¢Å¢Å¡": 332,
      "ÅłÅ¡": 333,
      "Å°": 334,
      "ÅĶ": 335,
      "Å¢Å¢Å¢Å¢Å¢Å¢Å¢Å¢Å¢Å¢Å¢Å¢Å¢Å¢Å¢Å¢Å¢Å¢Å¢Å¢Å¢Å¢Å¢Å¢Å¢Å": 336,
      "Å¢Å¢Å¢Å¢Å¢Å¢Å¢Å¢Å¢Å¢Å¢Å¢Å¢Å¢Å¢Å¢Å¢Å¢Å¢Å¢Å¢Å¢Å¢Å¢Å¢Å¢Å¢Å¢Å¢Å¢Å¢Å¢Å¢Å¢Å¢Å¢Å¢Å¢Å¢Å¢Å¢Å¢Å¢Å¢Å¢Å¢Å¢Å¢Å¢Å¢Å¢Å¢Å¢Å¢Å¢Å¢Å¢Å¢Å¢Å¢Å¢Å¢Å¢Å¡": 337,
      "Å¢Å¢Å¢Å¢Å¢Å¢Å¢Å¢Å¢Å¢Å¢Å¢Å¢Å¢Å¢Å¢Å¢Å¢Å¢Å¢Å¢Å¢Å¢Å¢Å¢Å¢Å¢Å¢Å¢Å¢Å¢Å¢Å¢Å¢Å¢Å¢Å¢Å¢Å¢Å¢Å¢Å¢Å¢Å¢Å¢Å¢Å¢Å¢Å¢Å¢Å¢Å¢Å¢Å¢Å¢Å¢Å¢Å¢Å¢Å¢Å¢Å¢Å¢Å£": 338,
      "Å±": 339,
      "Å¢Å£Å£": 340,
      "Åĵ": 341,
      "Å¢Å¢Å¢Å¢Å¢Å¢Å¢Å¢Å¢Å¢Å¢Å¢Å¢Å¢Å¢Å¢Å¢Å¢Å¢Å¢Å¢Å¢Å¢Å¢Å¢Å¢Å¢Å£": 342,
      "Å¢Å¢Å¢Å¢Å¢Å¢Å¢Å¢Å¢Å¢Å¢Å¢Å¢Å¢Å¢Å¢Å¢Å¢Å¢Å¢Å¢Å¢Å¢Å¢Å¢Å¢Å¢Å¡": 343,
      "Å²": 344,
      "Å¢Å¡Å¡": 345,
      "Å¢Å¢Å¢Å¢Å¢Å¢Å¢Å¢Å¢Å¢Å¢Å¢Å¢Å¢Å¢Å¢Å¢Å¢Å¢Å¢Å¢Å¢Å¡": 346,
      "Å¢Å¢Å¢Å¢Å¢Å¢Å¢Å¢Å¢Å¢Å¢Å¢Å¢Å¢Å¢Å¢Å¢Å¢Å¢Å¢Å¢Å¢Å£": 347,
      "ÅĴ": 348,
      "Å¢Å¢Å¢Å¢Å¢Å¢Å¢Å¢Å¢Å¢Å¢Å¢Å¢Å¢Å¢Å¢Å¢Å¢Å¢Å¢Å¢Å¢Å¢Å¡": 349,
      "Å¢Å¢Å¢Å¢Å¢Å¢Å¢Å¢Å¢Å¢Å¢Å¢Å¢Å¢Å¢Å¢Å¢Å¢Å¢Å¢Å¢Å¢Å¢Å£": 350,
      "Å³": 351,
      "Å¢Å¢Å¢Å¢Å¢Å¢Å¢Å¢Å¢Å¢Å¢Å¢Å¢Å¢Å¢Å¢Å¢Å¢Å¢Å": 352,
      "Å¢Å¢Å¤": 353,
      "ÅłÅ¤": 354,
      "Å¢Å¢Å¢Å¢Å£": 355,
      "Å¢Å¦": 356,
      "Å´": 357,
      "Å¢Åŀ": 358,
      "Åĳ": 359,
      "Å¢Å¢Å¢Å¢Å¡": 360,
      "Å¢Å¢Å¢Å¢Å¢Å¢Å¢Å¢Å¢Å¢Å¢Å¢Å¢Å¢Å¢Å¢Å¢Å¢Å¢Å¢Å¢Å¢Å¢Å¢Å¢Å¢Å¢Å¢Å¢Å¢Å¢Å£Å¢Å¢Å¢Å¢Å¢Å¢Å¢Å¢Å¢Å¢Å¢Å¢Å¢Å¢Å¢Å¢Å¢Å¢Å¢Å¢Å¢Å¢Å¢Å¢Å¢Å¢Å¢Å¢Å¢Å¢Å¢Å£": 361,
      "Å¢Å¢Åł": 362,
      "Åµ": 363,
      "ÅĲ": 364,
      "Å¢Å¢Å¢Å¢Å¢Å¢Å¢Å¢Å¢Å¢Å¢Å¢Å¢Å¢Å¢Å¢Å¢Å¢Å¢Å¢Å¢Å¢Å¢Å¢Å£": 365,
      "Å¢Å¢Å¢Å¢Å¢Å¢Å¢Å¢Å¢Å¢Å¢Å¢Å¢Å¢Å¢Å¢Å¢Å¢Å¢Å¢Å¢Å¢Å¢Å¢Å¢Å¢Å¢Å¢Å¢Å¢Å¢Å¡Å¢Å¢Å¢Å¢Å¢Å¢Å¢Å¢Å¢Å¢Å¢Å¢Å¢Å¢Å¢Å¢Å¢Å¢Å¢Å¢Å¢Å¢Å¢Å¢Å¢Å¢Å¢Å¢Å¢Å¢Å¢Å¡": 366,
      "Å¢Å¢Å¢Å¢Å¢Å¢Å¢Å¢Å¢Å¢Å¢Å¢Å¢Å¢Å¢Å¢Å¢Å¢Å¢Å¢Å¢Å¢Å¢Å¢Å¡": 367,
      "Å¢Å¢Å¢Å¢Å¢Å¢Å¢Å¢Å¢Å¢Å¢Å¢Å¢Å¢Å¢Å¢Å¢Å¢Å¢Å¢Å¢Å¢Å¢Å": 368,
      "Å¶": 369,
      "Åı": 370,
      "Å·": 371,
      "Å¸": 372,
      "Åİ": 373,
      "Å¢Å¢Å¢Å¢Å¢Å¢Å¢Å¢Å¢Å¢Å¢Å¢Å¢Å¢Å¢Å¢Å¢Å¢Å¢Å¢Å¢Å¢Å¢Å¢Å¢Å¢Å¢Å¢Å¢Å¢Å¢Å¢Å¢Å¢Å¢Å¢Å¢Å¢Å¢Å¢Å¢Å¢Å¢Å¢Å¢Å¢Å¢Å¢Å¢Å¢Å¢Å¢Å¢Å¢Å¢Å¢Å¢Å¢Å¢Å¢Å¢Å¢Å¢Å¢Å¢Å¢Å¢Å¢Å¢Å¢Å¢Å¢Å¢Å¢Å¢Å¢Å¢Å¢Å¢Å¢Å¢Å¢Å¢Å¢Å¢Å¢Å¢Å¢Å¢Å¢Å¢Å¢Å¢Å¢Å¢Å¢Å¢Å¢Å¢Å¢Å¢Å¢Å¢Å¢Å¢Å¢Å¢Å¢Å¢Å¢Å¢Å¢Å¢Å¢Å¢Å¢Å¢Å¢Å¢Å¢Å¢Å¢Å¢Å¢Å¢Å¢Å¢Å¢Å¢Å¢Å¢Å¢Å¢Å¢Å¢Å¢Å¢Å¢Å¢Å¢Å¢Å¢Å¢Å¢Å¢Å¢Å¢Å¢Å¢Å¢Å¢Å¢Å¢Å¢Å¢Å¢Å¢Å¢Å¢Å¢Å¢Å¢Å¢Å¢Å¢Å¢Å¢Å¢Å¢Å¢Å¢Å¢Å¢Å¢Å¢Å¢Å¢Å¢Å¢Å¢Å¢Å¢Å¢Å¢Å¢Å¢Å¢Å¢Å¢Å¢Å¢Å¢Å¢Å¢Å¢Å¢Å¢Å¢Å¢Å¢Å¢Å¢Å¢Å¢Å¢Å¢Å¢Å¢Å¢Å¢Å¢Å¢Å¢Å¢Å¢Å¢Å¢Å¢Å¢Å¢Å¢Å¢Å¢Å¢Å¢Å¢Å¢Å¢Å¢Å¢Å¢Å¢Å¢Å¢Å¢Å¢Å¢Å¢Å¢Å¢Å¢Å¢Å¢Å¢Å¢Å¢Å¢Å¢Å¢Å¢Å¢Å¢Å¢Å¢Å¢Å¢Å¢Å¢Å¢Å¢Å¢Å¢Å¢Å¢Å¢Å¢Å¢Å¢Å¢Å¢Å¢Å¢Å¢Å¢Å¢Å¢Å¢Å¢Å¢Å¢Å¢Å¢Å¢Å¢Å¢Å¢Å¢Å¢Å¢Å¢Å¢Å¢Å¢Å¢Å¢Å¢Å¢Å¢Å¢Å¢Å¢Å¢Å¢Å¢Å¢Å¢Å¢Å¢Å¢Å¢Å¢Å¢Å¢Å¢Å¢Å¢Å¢Å¢Å¢Å¢Å¢Å¢Å¢Å¢Å¢Å¢Å¢Å¢Å¢Å¢Å¢Å¢Å¢Å¢Å¢Å¢Å¢Å¢Å¢Å¢Å¢Å¢Å¢Å¢Å¢Å¢Å¢Å¢Å¢Å¢Å¢Å¢Å¢Å¢Å¢Å¢Å¢Å¢Å¢Å¢Å¢Å¢Å¢Å¢Å¢Å¢Å¢Å¢Å¢Å¢Å¢Å¢Å¢Å¢Å¢Å¢Å¢Å¢Å¢Å¢Å¢Å¢Å¢Å¢": 374,
      "Å¤Åł": 375,
      "Å»": 376,
      "Åº": 377,
      "Å¹": 378,
      "Å¢Å¢Å¢Å¢Å¢Å¢Å¢Å¢Å¢Å¢Å¢Å¢Å¢Å¢Å¢Å¢Å¢Å¢Å¢Å¢Å¢Å¢Å¢Å¢Å¢Å¢Å¢Å¢Å£": 379,
      "Å¢Å¢Å¡Å£": 380,
      "Å¢Å¢Å¢Å¢Å¢Å¢Å¢Å¢Å¢Å¢Å¢Å¢Å¢Å¢Å¢Å¢Å¢Å¢Å¢Å¡": 381,
      "ÅŁÅ£": 382,
      "Å¢Å¢Å¢Å¢Å¢Å¢Å¢Å¢Å¢Å¢Å¢Å¢Å¢Å¢Å¢Å¢Å¢Å¢Å¢Å£": 383,
      "Åį": 384,
      "Å¢Å¢Å¢Å¢Å¢Å¢Å¢Å¢Å¢Å¢Å¢Å¢Å¢Å¢Å¢Å¢Å¢Å¢Å¢Å¢Å¢Å¢Å¢Å¢Å¢Å¢Å¢Å¢Å¢Å¢Å¢Å¢Å¢Å¢Å¢Å¢Å¢Å¢Å¢Å¢Å¢Å¢Å¢Å¢Å¢Å¢Å¢Å¢Å¢Å¢Å¢Å¢Å¢Å¢Å¢Å¢Å¢Å¢Å¢Å¢Å¢Å¢Å¢Å¢Å¢Å¢Å¢Å¢Å¢Å¢Å¢Å¢Å¢Å¢Å¢Å¢Å¢Å¢Å¢Å¢Å¢Å¢Å¢Å¢Å¢Å¢Å¢Å¢Å¢Å¢Å¢Å¢Å¢Å¢Å¢Å¢Å¢Å¢Å¢Å¢Å¢Å¢Å¢Å¢Å¢Å¢Å¢Å¢Å¢Å¢Å¢Å¢Å¢Å¢Å¢Å¢Å¢Å¢Å¢Å¢Å¢Å¢Å¢Å¢Å¢Å¢Å¢Å¢Å¢Å¢Å¢Å¢Å¢Å¢Å¢Å¢Å¢Å¢Å¢Å¢Å¢Å¢Å¢Å¢Å¢Å¢Å¢Å¢Å¢Å¢Å¢Å¢Å¢Å¢Å¢Å¢Å¢Å¢Å¢Å¢Å¢Å¢Å¢Å¢Å¢Å¢Å¢Å¢Å¢Å¢Å¢Å¢Å¢Å¢Å¢Å¢Å¢Å¢Å¢Å¢Å¢Å¢Å¢Å¢Å¢Å¢Å¢Å¢Å¢Å¢Å¢Å¢Å¢Å¢Å¢Å¢Å¢Å¢Å¢Å¢Å¢Å¢Å¢Å¢Å¢Å¢Å¢Å¢Å¢Å¢Å¢Å¢Å¢Å¢Å¢Å¢Å¢Å¢Å¢Å¢Å¢Å¢Å¢Å¢Å¢Å¢Å¢Å¢Å¢Å¢Å¢Å¢Å¢Å¢Å¢Å¢Å¢Å¢Å¢Å¢Å¢Å¢Å¢Å¢Å¢Å¢Å¢Å¢Å¢Å¢Å¢Å¢Å¢Å¢Å¢Å¢Å¢Å¢Å¢Å¢Å¢Å¢Å¢Å¢Å¢Å¢Å¢Å¢Å¢Å¢Å¢Å¢Å¢Å¢Å¢Å¢Å¢Å¢Å¢Å¢Å¢Å¢Å¢Å¢Å¢Å¢Å¢Å¢Å¢Å¢Å¢Å¢Å¢Å¢Å¢Å¢Å¢Å¢Å¢Å¢Å¢Å¢Å¢Å¢Å¢Å¢Å¢Å¢Å¢Å¢Å¢Å¢Å¢Å¢Å¢Å¢Å¢Å¢Å¢Å¢Å¢Å¢Å¢Å¢Å¢Å¢Å¢Å¢Å¢Å¢Å¢Å¢Å¢Å¢Å¢Å¢Å¢Å¢Å¢Å¢Å¢Å¢Å¢Å¢Å¢Å¢Å¢Å¢Å¢Å¢Å¢Å¢Å¢Å¢Å¢Å¢Å¢Å¢Å¢Å¢Å¢Å¢Å¢Å¢Å¢Å¢Å¢Å¢Å¢Å¢Å¢Å¢Å¢Å¢Å¢Å¢Å¢Å¢Å¢Å¢Å¢Å¢Å¢Å¢Å¢Å¢Å¢Å¢Å¢Å¢Å¢Å¢Å¢Å¢Å¢Å¢Å¢Å¢Å¢Å¢Å¢Å¢Å¢Å¢Å¢Å¢Å¢Å¢Å¢Å¢Å¢Å¢Å¢Å¢Å¢Å¢Å¢Å¢Å¢Å¢Å¢Å¢Å¢Å¢Å¢Å¢Å¢Å¢Å¢Å¢Å¢Å¢Å¢Å¢Å¢Å¢Å¢Å¢Å¢Å¢Å¢Å¢Å¢Å¢Å¢Å¢Å¢Å¢Å¢Å¢Å¢Å¢Å¢Å¢Å¢Å¢Å¢Å¢Å¢Å¢Å¢Å¢Å¢Å¢Å¢Å¢Å¢Å¢Å¢Å¢Å¢Å¢Å¢Å¢Å¢Å¢Å¢Å¢Å¢Å¢Å¢Å¢Å¢Å¢Å¢Å¢Å¢Å¢Å¢Å¢Å¢Å¢Å¢Å¢Å¢Å¢Å¢Å¢Å¢Å¢Å¢Å¢Å¢Å¢Å¢Å¢Å¢Å¢Å¢Å¢Å¢Å¢Å¢Å¢Å¢Å¢Å¢Å¢Å¢Å¢Å¢Å¢Å¢Å¢Å¢Å¢Å¢Å¢Å¢Å¢Å¢Å¢Å¢Å¢Å¢Å¢Å¢Å¢Å¢Å¢Å¢Å¢Å¢Å¢Å¢Å¢Å¢Å¢Å¢Å¢Å¢Å¢Å¢Å¢Å¢Å¢Å¢Å¢Å¢Å¢Å¢Å¢Å¢Å¢Å¢Å¢Å¢Å¢Å¢Å¢Å¢Å¢Å¢Å¢Å¢Å¢Å¢Å¢Å¢Å¢Å¢Å¢Å¢Å¢Å¢Å¢Å¢Å¢Å¢Å¢Å¢Å¢Å¢Å¢Å¢Å¢Å¢Å¢Å¢Å¢Å¢Å¢Å¢Å¢Å¢Å¢Å¢Å¢Å¢Å¢Å¢Å¢Å¢Å¢Å¢Å¢Å¢Å¢Å¢Å¢Å¢Å¢Å¢Å¢Å¢Å¢Å¢Å¢Å¢Å¢Å¢Å¢Å¢Å¢Å¢Å¢Å¢Å¢Å¢Å¢Å¢Å¢Å¢Å¢Å¢Å¢Å¢Å¢Å¢Å¢Å¢Å¢Å¢Å¢Å¢Å¢Å¢Å¢Å¢Å¢Å¢Å¢Å¢Å¢Å¢Å¢Å¢Å¢Å¢Å¢Å¢Å¢Å¢Å¢Å¢Å¢Å¢Å¢Å¢Å¢Å¢Å¢Å¢Å¢Å¢Å¢Å¢Å¢Å¢Å¢Å¢Å¢Å¢Å¢Å¢Å¢Å¢Å¢Å¢Å¢Å¢Å¢Å¢Å¢Å¢Å¢Å¢Å¢Å¢Å¢Å¢Å¢Å¢Å¢Å¢Å¢Å¢Å¢Å¢Å¢Å¢Å¢Å¢Å¢Å¢Å¢Å¢Å¢Å¢Å¢Å¢Å¢Å¢Å¢Å¢Å¢Å¢Å¢Å¢Å¢Å¢Å¢Å¢Å¢Å¢Å¢Å¢Å¢Å¢Å¢Å¢Å¢Å¢Å¢Å¢Å¢Å¢Å¢Å¢Å¢Å¢Å¢Å¢Å¢Å¢Å¢Å¢Å¢Å¢Å¢Å¢Å¢Å¢Å¢Å¢Å¢Å¢Å¢Å¢Å¢Å¢Å¢Å¢Å¢Å¢Å¢Å¢Å¢Å¢Å¢Å¢Å¢Å¢Å¢Å¢Å¢Å¢Å¢Å¢Å¢Å¢Å¢Å¢Å¢Å¢Å¢Å¢Å¢Å¢Å¢Å¢Å¢Å¢Å¢Å¢Å¢Å¢Å¢Å¢Å¢Å¢Å¢Å¢Å¢Å¢Å¢Å¢Å¢Å¢Å¢Å¢Å¢Å¢Å¢Å¢Å¢Å¢Å¢Å¢Å¢Å¢Å¢Å¢Å¢Å¢Å¢Å¢Å¢Å¢Å¢Å¢Å¢Å¢Å¢Å¢Å¢Å¢Å¢Å¢Å¢Å¢Å¢Å¢Å¢Å¢Å¢Å¢Å¢Å¢Å¢Å¢Å¢Å¢Å¢Å¢Å¢Å¢Å¢Å¢Å¢Å¢Å¢Å¢Å¢Å¢Å¢Å¢Å¢Å¢Å¢Å¢Å¢Å¢Å¢Å¢Å¢Å¢Å¢Å¢Å¢Å¢Å¢Å¢Å¢Å¢Å¢Å¢Å¢Å¢Å¢Å¢Å¢Å¢Å¢Å¢Å¢Å¢Å¢Å¢Å¢Å¢Å¢Å¢Å¢Å¢Å¢Å¢Å¢Å¢Å¢Å¢Å¢Å¢Å¢Å¢Å¢Å¢Å¢Å¢Å¢Å¢Å¢Å¢Å¢Å¢Å¢Å¢Å¢Å¢Å¢Å¢Å¢Å¢Å¢Å¢Å¢Å¢Å¢Å¢Å¢Å¢Å¢Å¢Å¢Å¢Å¢Å¢Å¢Å¢Å¢Å¢Å¢Å¢Å¢Å¢Å¢Å¢Å¢Å¢Å¢Å¢Å¢Å¢Å¢Å¢Å¢Å¢Å¢Å¢Å¢Å¢Å¢Å¢Å¢Å¢Å¢Å¢Å¢Å¢Å¢Å¢Å¢Å¢Å¢Å¢Å¢Å¢Å¢Å¢Å¢Å¢Å¢Å¢Å¢Å¢Å¢Å¢Å¢Å¢Å¢Å¢Å¢Å¢Å¢Å¢Å¢Å¢Å¢Å¢Å¢Å¢Å¢Å¢Å¢Å¢Å¢Å¢Å¢Å¢Å¢Å¢Å¢Å¢Å¢Å¢Å¢Å¢Å¢Å¢Å¢Å¢Å¢Å¢Å¢Å¢Å¢Å¢Å¢Å¢Å¢Å¢Å¢Å¢Å¢Å¢Å¢Å¢Å¢Å¢Å¢Å¢Å¢Å¢Å¢Å¢Å¢Å¢Å¢Å¢Å¢Å¢Å¢Å¢Å¢Å¢Å¢Å¢Å¢Å¢Å¢Å¢Å¢Å¢Å¢Å¢Å¢Å¢Å¢Å¢Å¢Å¢Å¢Å¢Å¢Å¢Å¢Å¢Å¢Å¢Å¢Å¢Å¢Å¢Å¢Å¢Å¢Å¢Å¢Å¢Å¢Å¢Å¢Å¢Å¢Å¢Å¢Å¢Å¢Å¢Å¢Å¢Å¢Å¢Å¢Å¢Å¢Å¢Å¢Å¢Å¢Å¢Å¢Å¢Å¢Å¢Å¢Å¢Å¢Å¢Å¢Å¢Å¢": 385,
      "Å¢Å¢Å£Å¡": 386,
      "Å¢Å¢Å¢Å¢Å¢Å¢Å¢Å¢Å¢Å¢Å¢Å¢Å¢Å¢Å¢Å¢Å¢Å¢Å¢Å¢Å¢Å¢Å¢Å¢Å¢Å¢Å¢Å¢Å¡": 387,
      "Å¢Å¢Å¢Å¢Å¢Å¢Å¢Å¢Å¢Å¢Å¢Å¢Å¢Å¢Å¢Å¢Å¢Å¢Å¢Å¢Å¢Å¢Å¢Å¢Å¢Å¢Å¢Å¢Å¢Å¢Å¢Å£Å¢Å¢Å¢Å¢Å¢Å¢Å¢Å¢Å¢Å¢Å¢Å¢Å¢Å¢Å¢Å¢Å¢Å¢Å¢Å¢Å¢Å¢Å¢Å¢Å¢Å¢Å¢Å¢Å¢Å¢Å¢Å¡": 388,
      "Å½": 389,
      "Å¥Å£": 390,
      "Å¼": 391,
      "Å¢Å¢Å¢Å¢Å¢Å£": 392,
      "ÅĮ": 393,
      "Å¥Å¡": 394,
      "Å¢Å¢Å¢Å¢Å¢Å¡": 395,
      "Å¢Å¢Å¢Å¢Å¢Å¢Å¢Å¢Å¢Å¢Å¢Å¢Å¢Å¢Å¢Å¢Å¢Å¢Å¢Å¢Å¢Å¢Å¢Å¢Å¢": 396,
      "Å¤Å¤": 397,
      "Å¾": 398,
      "ÅŁÅ¡": 399,
      "Åĭ": 400,
      "ÅłÅł": 401,
      "Å¢Å§": 402,
      "Å¢ÅĿ": 403,
      "ÅĬ": 404,
      "Å¿": 405,
      "Å¢Å¢Å¢Å¢Å¢Å¢Å¢Å¢Å¢Å¢Å¢Å¢Å¢Å¢Å¢Å¢Å¢Å¢Å¢Å¢Å¢Å¢Å¢Å¢Å¢Å¢Å¢Å¢Å¢Å¢Å¢Å¤": 406,
      "Å¢Å¢Å¢Å¤": 407,
      "Å¢Å¢Å¢Åł": 408,
      "ÆĢ": 409,
      "Å¢Å¢Å¢Å¢Å¢Å¢Å¢Å¢Å¢Å¢Å¢Å¢Å¢Å¢Å¢Å¢Å¢Å¢Å¢Å¢Å¢Å¢Å¢Å¢Å¢Å¢Å¢Å¢Å¢Å¢Å¢Åł": 410,
      "Åī": 411,
      "ÅĪ": 412,
      "Å¢Å¢Å¢Å¢Å¢Å¢Å£": 413,
      "Æģ": 414,
      "Å¢Å¢Å¢Å¢Å¢Å¢Å¢Å¢Å¢Å¢Å¢Å¢Å¢Å¢Å¢Å¢Å¢Å¢Å¢Å¢Å¢Å¢Å¢Å¢Å¢Å¢Å¢Å¢Å¢Å¢": 415,
      "Å¢Å¢Å¢Å¢Å¢Å¢Å¡": 416,
      "Å¡Å£Å£": 417,
      "Åĩ": 418,
      "Å¥Å¤": 419,
      "Å¡Å£Å¡": 420,
      "ÆĤ": 421,
      "ÅĨ": 422,
      "Åħ": 423,
      "Æĥ": 424,
      "Å¢Å¢Å£Å£": 425,
      "Å¢Å¢Å¢Å¢Å¢Å¢Å¢Å¢Å¢Å¢Å¢Å¢Å¢Å¢Å¢Å¢Å¢Å¢Å¢Å¢Å¢Å£": 426,
      "ÆĦ": 427,
      "Å¢Å¢Å¢Å¢Å¢Å¢Å¢Å¢Å¢Å¢": 428,
      "ÅĦ": 429,
      "Å¡Å¤": 430,
      "ÅŁÅ¤": 431,
      "Å¢Å¢Å¢Å¢Å¢Å¢Å¢Å¢Å¢Å¢Å¢Å¢Å¢Å¢Å¢Å¢Å¢Å¢Å¢Å¢Å¢Å¡": 432,
      "Å¢Å¢Å¢Å¢Å¢Å¢Å¢Å¢Å¢Å¢Å¢Å¢Å¢Å¢Å¢Å¢Å¢Å¢Å¡": 433,
      "Åĥ": 434,
      "Å¥Åł": 435,
      "Å¢Å¢Å¢Å¢Å¢Å¢Å¢Å¢Å¢Å¢Å¢Å¢Å¢Å¢Å¢Å¢Å¢Å¢Å¢Å¢Å¢Å¢Å¢Å¢Å¢Å¢Å¢Å¢Å¢Å¢Å¢Å¢Å¢Å¢Å¢Å¢Å¢Å¢Å¢Å¢Å¢Å¢Å¢Å¢Å¢Å¢Å¢Å¢Å¢Å¢Å¢Å¢Å¢Å¢Å¢Å¢Å¢Å¢Å¢Å¢Å¢Å¢Å¢Å¢Å¢Å¢Å¢Å¢Å¢Å¢Å¢Å¢Å¢Å¢Å¢Å¢Å¢Å¢Å¢Å¢Å¢Å¢Å¢Å¢Å¢Å¢Å¢Å¢Å¢Å¢Å¢Å¢Å¢Å¢Å¢Å¢Å¢Å¢Å¢Å¢Å¢Å¢Å¢Å¢Å¢Å¢Å¢Å¢Å¢Å¢Å¢Å¢Å¢Å¢Å¢Å¢Å¢Å¢Å¢Å¢Å¢Å¢Å¢Å¢Å¢Å¢Å¢Å¢Å¢Å¢Å¢Å¢Å¢Å¢Å¢Å¢Å¢Å¢Å¢Å¢Å¢Å¢Å¢Å¢Å¢Å¢Å¢Å¢Å¢Å¢Å¢Å¢Å¢Å¢Å¢Å¢Å¢Å¢Å¢Å¢Å¢Å¢Å¢Å¢Å¢Å¢Å¢Å¢Å¢Å¢Å¢Å¢Å¢Å¢Å¢Å¢Å¢Å¢Å¢Å¢Å¢Å¢Å¢Å¢Å¢Å¢Å¢Å¢Å¢Å¢Å¢Å¢Å¢Å¢Å¢Å¢Å¢Å¢Å¢Å¢Å¢Å¢Å¢Å¢Å¢Å¢Å¢Å¢Å¢Å¢Å¢Å¢Å¢Å¢Å¢Å¢Å¢Å¢Å¢Å¢Å¢Å¢Å¢Å¢Å¢Å¢Å¢Å¢Å¢Å¢Å¢Å¢Å¢Å¢Å¢Å¢Å¢Å¢Å¢Å¢Å¢Å¢Å¢Å¢Å¢Å¢Å¢Å¢Å¢Å¢Å¢Å¢Å¢Å¢Å¢Å¢Å¢Å¢Å¢Å¢Å¢Å¢Å¢Å¢Å¢Å¢Å¢Å¢Å¢Å¢Å¢Å¢Å¢Å¢Å¢Å¢Å¢Å¢Å¢Å¢Å¢Å¢Å¢Å¢Å¢Å¢Å¢Å¢Å¢Å¢Å¢Å¢Å¢Å¢Å¢Å¢Å¢Å¢Å¢Å¢Å¢Å¢Å¢Å¢Å¢Å¢Å¢Å¢Å¢Å¢Å¢Å¢Å¢Å¢Å¢Å¢Å¢Å¢Å¢Å¢Å¢Å¢Å¢Å¢Å¢Å¢Å¢Å¢Å¢Å¢Å¢Å¢Å¢Å¢Å¢Å¢Å¢Å¢Å¢Å¢Å¢Å¢Å¢Å¢Å¢Å¢Å¢Å¢Å¢Å¢Å¢Å¢Å¢Å¢Å¢Å¢Å¢Å¢Å¢Å¢Å¢Å¢Å¢Å¢Å¢Å¢Å¢Å¢Å¢Å¢Å¢Å¢Å¢Å¢Å¢Å¢Å¢Å¢Å¢Å¢Å¢Å¢Å¢Å¢Å¢Å¢Å¢Å¢Å¢Å¢Å¢Å¢Å¢Å¢Å¢Å¢Å¢Å¢Å¢Å¢Å¢Å¢Å¢Å¢Å¢Å¢Å¢Å¢Å¢Å¢Å¢Å¢Å¢Å¢Å¢Å¢Å¢Å¢Å¢Å¢Å¢Å¢Å¢Å¢Å¢Å¢Å¢Å¢Å¢Å¢Å¢Å¢Å¢Å¢Å¢Å¢Å¢Å¢Å¢Å¢Å¢Å¢Å¢Å¢Å¢Å¢Å¢Å¢Å¢Å¢Å¢Å¢Å¢Å¢Å¢Å¢Å¢Å¢Å¢Å¢Å¢Å¢Å¢Å¢Å¢Å¢Å¢Å¢Å¢Å¢Å¢Å¢Å¢Å¢Å¢Å¢Å¢Å¢Å¢Å¢Å¢Å¢Å¢Å¢Å¢Å¢Å¢Å¢Å¢Å¢Å¢Å¢Å¢Å¢Å¢Å¢Å¢Å¢Å¢Å¢Å¢Å¢Å¢Å¢Å¢Å¢Å¢Å¢Å¢Å¢Å¢Å¢Å¢Å¢Å¢Å¢Å¢Å¢Å¢Å¢Å¢Å¢Å¢Å¢Å¢Å¢Å¢Å¢Å¢Å¢Å¢Å¢Å¢Å¢Å¢Å¢Å¢Å¢Å¢Å¢Å¢Å¢Å¢Å¢Å¢Å¢Å¢Å¢Å¢Å¢Å¢Å¢Å¢Å¢Å¢Å¢Å¢Å¢Å¢Å¢Å¢Å¢Å¢Å¢Å¢Å¢Å¢Å¢Å¢Å¢Å¢Å¢Å¢Å¢Å¢Å¢Å¢Å¢Å¢Å¢Å¢Å¢Å¢Å¢Å¢Å¢Å¢Å¢Å¢Å¢Å¢Å¢Å¢Å¢Å¢Å¢Å¢Å¢Å¢Å¢Å¢Å¢Å¢Å¢Å¢Å¢Å¢Å¢Å¢Å¢Å¢Å¢Å¢Å¢Å¢Å¢Å¢Å¢Å¢Å¢Å¢Å¢Å¢Å¢Å¢Å¢Å¢Å¢Å¢Å¢Å¢Å¢Å¢Å¢Å¢Å¢Å¢Å¢Å¢Å¢Å¢Å¢Å¢Å¢Å¢Å¢Å¢Å¢Å¢Å¢Å¢Å¢Å¢Å¢Å¢Å¢Å¢Å¢Å¢Å¢Å¢Å¢Å¢Å¢Å¢Å¢Å¢Å¢Å¢Å¢Å¢Å¢Å¢Å¢Å¢Å¢Å¢Å¢Å¢Å¢Å¢Å¢Å¢Å¢Å¢Å¢Å¢Å¢Å¢Å¢Å¢Å¢Å¢Å¢Å¢Å¢Å¢Å¢Å¢Å¢Å¢Å¢Å¢Å¢Å¢Å¢Å¢Å¢Å¢Å¢Å¢Å¢Å¢Å¢Å¢Å¢Å¢Å¢Å¢Å¢Å¢Å¢Å¢Å¢Å¢Å¢Å¢Å¢Å¢Å¢Å¢Å¢Å¢Å¢Å¢Å¢Å¢Å¢Å¢Å¢Å¢Å¢Å¢Å¢Å¢Å¢Å¢Å¢Å¢Å¢Å¢Å¢Å¢Å¢Å¢Å¢Å¢Å¢Å¢Å¢Å¢Å¢Å¢Å¢Å¢Å¢Å¢Å¢Å¢Å¢Å¢Å¢Å¢Å¢Å¢Å¢Å¢Å¢Å¢Å¢Å¢Å¢Å¢Å¢Å¢Å¢Å¢Å¢Å¢Å¢Å¢Å¢Å¢Å¢Å¢Å¢Å¢Å¢Å¢Å¢Å¢Å¢Å¢Å¢Å¢Å¢Å¢Å¢Å¢Å¢Å¢Å¢Å¢Å¢Å¢Å¢Å¢Å¢Å¢Å¢Å¢Å¢Å¢Å¢Å¢Å¢Å¢Å¢Å¢Å¢Å¢Å¢Å¢Å¢Å¢Å¢Å¢Å¢Å¢Å¢Å¢Å¢Å¢Å¢Å¢Å¢Å¢Å¢Å¢Å¢Å¢Å¢Å¢Å¢Å¢Å¢Å¢Å¢Å¢Å¢Å¢Å¢Å¢Å¢Å¢Å¢Å¢Å¢Å¢Å¢Å¢Å¢Å¢Å¢Å¢Å¢Å¢Å¢Å¢Å¢Å¢Å¢Å¢Å¢Å¢Å¢Å¢Å¢Å¢Å¢Å¢Å¢Å¢Å¢Å¢Å¢": 436,
      "Å¢Å¨": 437,
      "Å¢Åľ": 438,
      "ÅĤ": 439,
      "Å¡Åł": 440,
      "Å¢Å¢Å¢Å¢Å¢Å¢Å¢Å¢Å¢Å¢Å¢Å¢Å¢Å¢Å¢Å¢Å¢Å¢Å¢Å¢Å¢Å¢Å¢Å¢Å¢Å¢Å¢Å¢Å¢Å¢Å¢Å¢Å¢Å¢Å¢Å¢Å¢Å¢Å¢Å¢Å¢Å¢Å¢Å¢Å¢Å¢Å¢Å¢Å¢Å¢Å¢Å¢Å¢Å¢Å¢Å¢Å¢Å¢Å¢Å¢Å¢Å¢Å¢Å¢Å¢Å¢Å¢Å¢Å¢Å¢Å¢Å¢Å¢Å¢Å¢Å¢Å¢Å¢Å¢Å¢Å¢Å¢Å¢Å¢Å¢Å¢Å¢Å¢Å¢Å¢Å¢Å¢Å¢Å¢Å¢Å¡": 441,
      "Å£Åł": 442,
      "Æħ": 443,
      "Å£Å¤": 444,
      "Åģ": 445,
      "Å¢Å¢Å¢Å¢Å¢Å¢Å¢Å¢Å¢Å¢Å¢Å¢Å¢Å¢Å¢Å¢Å¢Å¢Å£": 446,
      "ÆĨ": 447,
      "Ä¿": 448,
      "Å¡Å¢Å£": 449,
      "ÅĢ": 450,
      "Å¡Å¢Å¡": 451,
      "Ä¾": 452,
      "Å¥ÅŁ": 453,
      "Å¢Å¢Å¢Å¢Å¢Å¢Å¢Å¢Å¢Å¢Å¢Å¢Å¢Å¢Å¢Å¢Å¢Å¢Å¢Å¢Å£": 454,
      "Æĩ": 455,
      "Å¢Å¢Å¢Å¢Å¢Å¢Å¢Å¢Å¢Å¢Å¢Å¢Å¢Å¡": 456,
      "Å¢Å£Å¢Å¡": 457,
      "ÅŀÅ£": 458,
      "Ä½": 459,
      "Å¦Å£": 460,
      "ÆĪ": 461,
      "Æĭ": 462,
      "Å¢Å¢Å¢Å¢Å¢Å¢Å¢Å¢Å¢Å¢Å¢Å¢Å¢Å¢Å¢Å¢Å¢Å¢Å¢Å¢Å¢Å¢Å¢Å¢Å¢Å¢Å¢Å¢Å¢Å¢Å¢Å¢Å¢Å¢Å¢Å¢Å¢Å¢Å¢Å¢Å¢Å¢Å¢Å¢Å¢Å¢Å¢Å¢Å¢Å¢Å¢Å¢Å¢Å¢Å¢Å¢Å¢Å¢Å¢Å¢Å¢Å¢Å¢Å¢Å¢Å¢Å¢Å¢Å¢Å¢Å¢Å¢Å¢Å¢Å¢Å¢Å¢Å¢Å¢Å¢Å¢Å¢Å¢Å¢Å¢Å¢Å¢Å¢Å¢Å¢Å¢Å¢Å¢Å¢Å¢Å¢Å¢Å¢Å¢Å¢Å¢Å¢Å¢Å¢Å¢Å¢Å¢Å¢Å¢Å¢Å¢Å¢Å¢Å¢Å¢Å¢Å¢Å¢Å¢Å¢Å¢Å¢Å¢Å¢Å¢Å¢Å¢Å¢Å¢Å¢Å¢Å¢Å¢Å¢Å¢Å¢Å¢Å¢Å¢Å¢Å¢Å¢Å¢Å¢Å¢Å¢Å¢Å¢Å¢Å¢Å¢Å¢Å¢Å¢Å¢Å¢Å¢Å¢Å¢Å¢Å¢Å¢Å¢Å¢Å¢Å¢Å¢Å¢Å¢Å¢Å¢Å¢Å¢Å¢Å¢Å¢Å¢Å¢Å¢Å¢Å¢Å¢Å¢Å¢Å¢Å¢Å¢Å¢Å¢Å¢Å¢Å¢Å¢Å¢Å¢Å¢Å¢Å¢Å¢Å¢Å¢Å¢Å¢Å¢Å¢Å¢Å¢Å¢Å¢Å¢Å¢Å¢Å¢Å¢Å¢Å¢Å¢Å¢Å¢Å¢Å¢Å¢Å¢Å¢Å¢Å¢Å¢Å¢Å¢Å¢Å¢Å¢Å¢Å¢Å¢Å¢Å¢Å¢Å¢Å¢Å¢Å¢Å¢Å¢Å¢Å¢Å¢Å¢Å¢Å¢Å¢Å¢Å¢Å¢Å¢Å¢Å¢Å¢Å¢Å¢Å¢Å¢Å¢Å¢Å¢Å¢Å¢Å¢Å¢Å¢Å¢Å¢Å¢Å¢Å¢Å¢Å¢Å¢Å¢Å¢Å¢Å¢Å¢Å¢Å¢Å¢Å¢Å¢Å¢Å¢Å¢Å¢Å¢Å¢Å¢Å¢Å¢Å¢Å¢Å¢Å¢Å¢Å¢Å¢Å¢Å¢Å¢Å¢Å¢Å¢Å¢Å¢Å¢Å¢Å¢Å¢Å¢Å¢Å¢Å¢Å¢Å¢Å¢Å¢Å¢Å¢Å¢Å¢Å¢Å¢Å¢Å¢Å¢Å¢Å¢Å¢Å¢Å¢Å¢Å¢Å¢Å¢Å¢Å¢Å¢Å¢Å¢Å¢Å¢Å¢Å¢Å¢Å¢Å¢Å¢Å¢Å¢Å¢Å¢Å¢Å¢Å¢Å¢Å¢Å¢Å¢Å¢Å¢Å¢Å¢Å¢Å¢Å¢Å¢Å¢Å¢Å¢Å¢Å¢Å¢Å¢Å¢Å¢Å¢Å¢Å¢Å¢Å¢Å¢Å¢Å¢Å¢Å¢Å¢Å¢Å¢Å¢Å¢Å¢Å¢Å¢Å¢Å¢Å¢Å¢Å¢Å¢Å¢Å¢Å¢Å¢Å¢Å¢Å¢Å¢Å¢Å¢Å¢Å¢Å¢Å¢Å¢Å¢Å¢Å¢Å¢Å¢Å¢Å¢Å¢Å¢Å¢Å¢Å¢Å¢Å¢Å¢Å¢Å¢Å¢Å¢Å¢Å¢Å¢Å¢Å¢Å¢Å¢Å¢Å¢Å¢Å¢Å¢Å¢Å¢Å¢Å¢Å¢Å¢Å¢Å¢Å¢Å¢Å¢Å¢Å¢Å¢Å¢Å¢Å¢Å¢Å¢Å¢Å¢Å¢Å¢Å¢Å¢Å¢Å¢Å¢Å¢Å¢Å¢Å¢Å¢Å¢Å¢Å¢Å¢Å¢Å¢Å¢Å¢Å¢Å¢Å¢Å¢Å¢Å¢Å¢Å¢Å¢Å¢Å¢Å¢Å¢Å¢Å¢Å¢Å¢Å¢Å¢Å¢Å¢Å¢Å¢Å¢Å¢Å¢Å¢Å¢Å¢Å¢Å¢Å¢Å¢Å¢Å¢Å¢Å¢Å¢Å¢Å¢Å¢Å¢Å¢Å¢Å¢Å¢Å¢Å¢Å¢Å¢Å¢Å¢Å¢Å¢Å¢Å¢Å¢Å¢Å¢Å¢Å¢Å¢Å¢Å¢Å¢Å¢Å¢Å¢Å¢Å¢Å¢Å¢Å¢Å¢Å¢Å¢Å¢Å¢Å¢Å¢Å¢Å¢Å¢Å¢Å¢Å¢Å¢Å¢Å¢Å¢Å¢Å¢Å¢Å¢Å¢Å¢Å¢Å¢Å¢Å¢Å¢Å¢Å¢Å¢Å¢Å¢Å¢Å¢Å¢Å¢Å¢Å¢Å¢Å¢Å¢Å¢Å¢Å¢Å¢Å¢Å¢Å¢Å¢Å¢Å¢Å¢Å¢Å¢Å¢Å¢Å¢Å¢Å¢Å¢Å¢Å¢Å¢Å¢Å¢Å¢Å¢Å¢Å¢Å¢Å¢Å¢Å¢Å¢Å¢Å¢Å¢Å¢Å¢Å¢Å¢Å¢Å¢Å¢Å¢Å¢Å¢Å¢Å¢Å¢Å¢Å¢Å¢Å¢Å¢Å¢Å¢Å¢Å¢Å¢Å¢Å¢Å¢Å¢Å¢Å¢Å¢Å¢Å¢Å¢Å¢Å¢Å¢Å¢Å¢Å¢Å¢Å¢Å¢Å¢Å¢Å¢Å¢Å¢Å¢Å¢Å¢Å¢Å¢Å¢Å¢Å¢Å¢Å¢Å¢Å¢Å¢Å¢Å¢Å¢Å¢Å¢Å¢Å¢Å¢Å¢Å¢Å¢Å¢Å¢Å¢Å¢Å¢Å¢Å¢Å¢Å¢Å¢Å¢Å¢Å¢Å¢Å¢Å¢Å¢Å¢Å¢Å¢Å¢Å¢Å¢Å¢Å¢Å¢Å¢Å¢Å¢Å¢Å¢Å¢Å¢Å¢Å¢Å¢Å¢Å¢Å¢Å¢Å¢Å¢Å¢Å¢Å¢Å¢Å¢Å¢Å¢Å¢Å¢Å¢Å¢Å¢Å¢Å¢Å¢Å¢Å¢Å¢Å¢Å¢Å¢Å¢Å¢Å¢Å¢Å¢Å¢Å¢Å¢Å¢Å¢Å¢Å¢Å¢Å¢Å¢Å¢Å¢Å¢Å¢Å¢Å¢Å¢Å¢Å¢Å¢Å¢Å¢Å¢Å¢Å¢Å¢Å¢Å¢Å¢Å¢Å¢Å¢Å¢Å¢Å¢Å¢Å¢Å¢Å¢Å¢Å¢Å¢Å¢Å¢Å¢Å¢Å¢Å¢Å¢Å¢Å¢Å¢Å¢Å¢Å¢Å¢Å¢Å¢Å¢Å¢Å¢Å¢Å¢Å¢Å¢Å¢Å¢Å¢Å¢Å¢Å¢Å¢Å¢Å¢Å¢Å¢Å¢Å¢Å¢Å¢Å¢Å¢Å¢Å¢Å¢Å¢Å¢Å¢Å¢Å¢Å¢Å¢Å¢Å¢Å¢Å¢Å¢Å¢Å¢Å¢Å¢Å¢Å¢Å¢Å¢Å¢Å¢Å¢Å¢Å¢Å¢Å¢Å¢Å¢Å¢Å¢Å¢Å¢Å¢Å¢Å¢Å¢Å¢Å¢Å¢Å¢Å¢Å¢Å¢Å¢Å¢Å¢Å¢Å¢Å¢Å¢Å¢Å¢Å¢Å¢Å¢Å¢Å¢Å¢Å¢Å¢Å¢Å¢Å¢Å¢Å¢Å¢Å¢Å¢Å¢Å¢Å¢Å¢Å¢Å¢Å¢Å¢Å¢Å¢Å¢Å¢Å¢Å¢Å¢Å¢Å¢Å¢Å¢Å¢Å¢Å¢Å¢Å¢Å¢Å¢Å¢Å¢Å¢Å¢Å¢Å¢Å¢Å¢Å¢Å¢Å¢Å¢Å¢Å¢Å¢Å¢Å¢Å¢Å¢Å¢Å¢Å¢Å¢Å¢Å¢Å¢Å¢Å¢Å¢Å¢Å¢Å¢Å¢Å¢Å¢Å¢Å¢Å¢Å¢Å¢Å¢Å¢Å¢Å¢Å¢Å¢Å¢Å¢Å¢Å¢Å¢Å¢Å¢Å¢Å¢Å¢Å¢Å¢Å¢Å¢Å¢Å¢Å¢Å¢Å¢Å¢Å¢Å¢Å¢Å¢Å¢Å¢Å¢Å¢Å¢Å¢Å¢Å¢Å¢Å¢Å¢Å¢Å¢Å¢Å¢Å¢Å¢Å¢Å¢Å¢Å¢Å¢Å¢Å¢Å¢Å¢Å¢Å¢Å¢Å¢Å¢Å¢Å¢Å¢Å¢Å¢Å¢Å¢Å¢Å¢Å¢Å¢Å¢Å¢Å¢Å¢Å¢Å¢Å¢Å¢Å¢Å¢Å¢Å¢Å¢Å¢Å¢Å¢Å¢Å¢Å¢Å¢Å¢Å¢Å¢Å¢Å¢Å¢Å¢Å¢Å¢Å¢Å¢Å¢Å¢Å¢Å¢Å¢Å¢Å¢Å¢Å¢Å¢Å¢Å¢Å¢Å¢Å¢Å¢Å¢Å¢Å¢Å¢Å¢Å¢Å¢Å¢Å¢Å¢Å¢Å¢Å¢Å¢Å¢Å¢Å¢Å¢Å¢Å¢Å¢Å¢Å¢Å¢Å¢Å¢Å¢Å¢Å¢Å¢Å¢Å¢Å¢Å¢Å¢Å¢Å¢Å¢Å¢Å¢Å¢Å¢Å¢Å¢Å¢Å¢Å¢Å¢Å¢Å¢Å¢Å¢Å¢Å¢Å¢Å¢Å¢Å¢Å¢Å¢Å¢Å¢Å¢Å¢Å¢Å¢Å¢Å¢Å¢Å¢Å¢Å¢Å¢Å¢Å¢Å¢Å¢Å¢Å¢Å¢Å¢Å¢Å¢Å¢Å¢Å¢Å¢Å¢Å¢Å¢Å¢Å¢Å¢Å¢Å¢Å¢Å¢Å¢Å¢Å¢Å¢Å¢Å¢Å¢Å¢Å¢Å¢Å¢Å¢Å¢Å¢Å¢Å¢Å¢Å¢Å¢Å¢Å¢Å¢Å¢Å¢Å¢Å¢Å¢Å¢Å¢Å¢Å¢Å¢Å¢Å¢Å¢Å¢Å¢Å¢Å¢Å¢Å¢Å¢Å¢Å¢Å¢Å¢Å¢Å¢Å¢Å¢Å¢Å¢Å¢Å¢Å¢Å¢Å¢Å¢Å¢Å¢": 463,
      "Æī": 464,
      "Å¢Å¢Å¢Å¢Å¢Å¢Å¢Å¢Å¢Å¢Å¢Å¢Å¢Å¢Å¢Å¢Å¢Å¢Å¢Å¢Å¢Å¢Å¢Å¢Å¢Å¤": 465,
      "ÅŁÅł": 466,
      "Å¢Å¢Å¢Å¢Å¢Å¢Å¢Å¢Å¢Å¢Å¢Å¢Å¢Å¢Å¢Å¢Å¢Å¢Å¢Å¢Å¢Å¢Å¢Å¢Å¢Åł": 467,
      "Ä¼": 468,
      "Äº": 469,
      "Å¢Å¢Å¢Å¢Å¢Å¢Å¢Å¢Å¢Å¢Å¢Å¢Å¢Å¢Å¢Å¢Å¢Å¢Å¢Å¢Å¢Å¢Å¢Å¢Å¢Å¢Å¢Å¢Å¢Å¢Å¢Å¢Å¢Å¢Å¢Å¢Å¢Å¢Å¢Å¢Å¢Å¢Å¢Å¢Å¢Å¢Å¢Å¢Å¢Å¢Å¢Å¢Å¢Å¢Å¢Å¢Å¢Å¢Å¢Å¢Å¢Å¢Å¢Å¢Å¢Å¢Å¢Å¢Å¢Å¢Å¢Å¢Å¢Å¢Å¢Å¢Å¢Å¢Å¢Å¢Å¢Å¢Å¢Å¢Å¢Å¢Å¢Å¢Å¢Å¢Å¢Å¢Å¢Å¢Å¢Å£": 470,
      "Å¢Å¢Å¢Å¢Å¢Å¢Å¢Å¢Å¢Å¢Å¢Å¢Å¢Å£": 471,
      "Ä»": 472,
      "ÆĬ": 473,
      "Ä¹": 474,
      "ÆĮ": 475,
      "Å¦Å¡": 476,
      "ÅŁÅ¥": 477,
      "Ä¸": 478,
      "Å¢Å¢Å¡Å¡": 479,
      "Å¢Å¢Å¢Å¡Å£": 480,
      "Å¢Å¢Å¢Å¢Å¢Å¢Å¢Å¢Å¢Å¢Å¢Å¢Å£": 481,
      "ÅŀÅ¡": 482,
      "Å¢Å¡Å¢Å¡": 483,
      "Å¢Å¢Å¢Å¢Å¢Å¢Å¢Å¢Å¢Å¢Å¢Å¢Å¢Å¢Å¢Å¢Å¢Å¢Å¢Å¢Å¢Å¢Å¢Å¢Å¢Å¢Å¢Å¢Å¢Å¢Å¢Å¢Å¢Å¢Å¢Å¢Å¢Å¢Å¢Å¢Å¢Å¢Å¢Å¢Å¢Å¢Å¢Å¢Å¢Å¢Å¢Å¢Å¢Å¢Å¢Å¢Å¢Å¢Å¢Å¢Å¢Å¢Å¢Å¢Å¢Å¢Å¢Å¢Å¢Å¢Å¢Å¢Å¢Å¢Å¢Å¢Å¢Å¢Å¢Å¢Å¢Å¢Å¢Å¢Å¢Å¢Å¢Å¢Å¢Å¢Å¢Å¢Å¢Å¢Å¢Å¢Å¢Å¢Å¢Å¢Å¢Å¢Å¢Å¢Å¢Å¢Å¢Å¢Å¢Å¢Å¢Å¢Å¢Å¢Å¢Å¢Å¢Å¢Å¢Å¢Å¢Å¢Å¢Å¢Å¢Å¢Å¢Å¢Å¢Å¢Å¢Å¢Å¢Å¢Å¢Å¢Å¢Å¢Å¢Å¢Å¢Å¢Å¢Å¢Å¢Å¢Å¢Å¢Å¢Å¢Å¢Å¢Å¢Å¢Å¢Å¢Å¢Å¢Å¢Å¢Å¢Å¢Å¢Å¢Å¢Å¢Å¢Å¢Å¢Å¢Å¢Å¢Å¢Å¢Å¢Å¢Å¢Å¢Å¢Å¢Å¢Å¢Å¢Å¢Å¢Å¢Å¢Å¢Å¢Å¢Å¢Å¢Å¢Å¢Å¢Å¢Å¢Å¢Å¢Å¢Å¢Å¢Å¢Å¢Å¢Å¢Å¢Å¢Å¢Å¢Å¢Å¢Å¢Å¢Å¢Å¢Å¢Å¢Å¢Å¢Å¢Å¢Å¢Å¢Å¢Å¢Å¢Å¢Å¢Å¢Å¢Å¢Å¢Å¢Å¢Å¢Å¢Å¢Å¢Å¢Å¢Å¢Å¢Å¢Å¢Å¢Å¢Å¢Å¢Å¢Å¢Å¢Å¢Å¢Å¢Å¢Å¢Å¢Å¢Å¢Å¢Å¢Å¢Å¢Å¢Å¢Å¢Å¢Å¢Å¢Å¢Å¢Å¢Å¢Å¢Å¢Å¢Å¢Å¢Å¢Å¢Å¢Å¢Å¢Å¢Å¢Å¢Å¢Å¢Å¢Å¢Å¢Å¢Å¢Å¢Å¢Å¢Å¢Å¢Å¢Å¢Å¢Å¢Å¢Å¢Å¢Å¢Å¢Å¢Å¢Å¢Å¢Å¢Å¢Å¢Å¢Å¢Å¢Å¢Å¢Å¢Å¢Å¢Å¢Å¢Å¢Å¢Å¢Å¢Å¢Å¢Å¢Å¢Å¢Å¢Å¢Å¢Å¢Å¢Å¢Å¢Å¢Å¢Å¢Å¢Å¢Å¢Å¢Å¢Å¢Å¢Å¢Å¢Å¢Å¢Å¢Å¢Å¢Å¢Å¢Å¢Å¢Å¢Å¢Å¢Å¢Å¢Å¢Å¢Å¢Å¢Å¢Å¢Å¢Å¢Å¢Å¢Å¢Å¢Å¢Å¢Å¢Å¢Å¢Å¢Å¢Å¢Å¢Å¢Å¢Å¢Å¢Å¢Å¢Å¢Å¢Å¢Å¢Å¢Å¢Å¢Å¢Å¢Å¢Å¢Å¢Å¢Å¢Å¢Å¢Å¢Å¢Å¢Å¢Å¢Å¢Å¢Å¢Å¢Å¢Å¢Å¢Å¢Å¢Å¢Å¢Å¢Å¢Å¢Å¢Å¢Å¢Å¢Å¢Å¢Å¢Å¢Å¢Å¢Å¢Å¢Å¢Å¢Å¢Å¢Å¢Å¢Å¢Å¢Å¢Å¢Å¢Å¢Å¢Å¢Å¢Å¢Å¢Å¢Å¢Å¢Å¢Å¢Å¢Å¢Å¢Å¢Å¢Å¢Å¢Å¢Å¢Å¢Å¢Å¢Å¢Å¢Å¢Å¢Å¢Å¢Å¢Å¢Å¢Å¢Å¢Å¢Å¢Å¢Å¢Å¢Å¢Å¢Å¢Å¢Å¢Å¢Å¢Å¢Å¢Å¢Å¢Å¢Å¢Å¢Å¢Å¢Å¢Å¢Å¢Å¢Å¢Å¢Å¢Å¢Å¢Å¢Å¢Å¢Å¢Å¢Å¢Å¢Å¢Å¢Å¢Å¢Å¢Å¢Å¢Å¢Å¢Å¢Å¢Å¢Å¢Å¢Å¢Å¢Å¢Å¢Å¢Å¢Å¢Å¢Å¢Å¢Å¢Å¢Å¢Å¢Å¢Å¢Å¢Å¢Å¢Å¢Å¢Å¢Å¢Å¢Å¢Å¢Å¢Å¢Å¢Å¢Å¢Å¢Å¢Å¢Å¢Å¢Å¢Å¢Å¢Å¢Å¢Å¢Å¢Å¢Å¢Å¢Å¢Å¢Å¢Å¢Å¢Å¢Å¢Å¢Å¢Å¢Å¢Å¢Å¢Å¢Å¢Å¢Å¢Å¢Å¢Å¢Å¢Å¢Å¢Å¢Å¢Å¢Å¢Å¢Å¢Å¢Å¢Å¢Å¢Å¢Å¢Å¢Å¢Å¢Å¢Å¢Å¢Å¢Å¢Å¢Å¢Å¢Å¢Å¢Å¢Å¢Å¢Å¢Å¢Å¢Å¢Å¢Å¢Å¢Å¢Å¢Å¢Å¢Å¢Å¢Å¢Å¢Å¢Å¢Å¢Å¢Å¢Å¢Å¢Å¢Å¢Å¢Å¢Å¢Å¢Å¢Å¢Å¢Å¢Å¢Å¢Å¢Å¢Å¢Å¢Å¢Å¢Å¢Å¢Å¢Å¢Å¢Å¢Å¢Å¢Å¢Å¢Å¢Å¢Å¢Å¢Å¢Å¢Å¢Å¢Å¢Å¢Å¢Å¢Å¢Å¢Å¢Å¢Å¢Å¢Å¢Å¢Å¢Å¢Å¢Å¢Å¢Å¢Å¢Å¢Å¢Å¢Å¢Å¢Å¢Å¢Å¢Å¢Å¢Å¢Å¢Å¢Å¢Å¢Å¢Å¢Å¢Å¢Å¢Å¢Å¢Å¢Å¢Å¢Å¢Å¢Å¢Å¢Å¢Å¢Å¢Å¢Å¢Å¢Å¢Å¢Å¢Å¢Å¢Å¢Å¢Å¢Å¢Å¢Å¢Å¢Å¢Å¢Å¢Å¢Å¢Å¢Å¢Å¢Å¢Å¢": 484,
      "Å¢Å©": 485,
      "Å¢ÅĽ": 486,
      "Ä¯": 487,
      "Å¢Å£Å¢Å£": 488,
      "Æį": 489,
      "Æı": 490,
      "Å¢Å¢Å¢Å¢Å¢Å¢Å¢Å¢Å¢Å¢Å¢Å¢Å¢Å¢Å¢Å¢Å¢Å¢Å¢Å¢Å¡": 491,
      "Å¢Å¢Å¢Å¢Å¢Å¢Å¢Å¢Å¢Å¢Å¢Å¢Å¢Å¢Å¢Å¢Å¢Å¢Å¢Å¢Å¢Å¢Å¢Å¢Å¢Å¢Å¢Å¢Å¢Å¢Å¢Å¢Å¢Å¢Å¢Å¢Å¢Å¢Å¢Å¢Å¢Å¢Å¢Å¢Å¢Å¢Å¢Å¢Å¢Å¢Å¢Å¢Å¢Å¢Å¢Å¢Å¢Å¢Å¢Å¢Å¢Å¢Å¢Å¢Å¢Å¢Å¢Å¢Å¢Å¢Å¢Å¢Å¢Å¢Å¢Å¢Å¢Å¢Å¢Å¢Å¢Å¢Å¢Å¢Å¢Å¢Å¢Å¢Å¢Å¢Å¢Å¢Å¢Å¢Å¢Å¢Å¢Å¢Å¢Å¢Å¢Å¢Å¢Å¢Å¢Å¢Å¢Å¢Å¢Å¢Å¢Å¢Å¢Å¢Å¢Å¢Å¢Å¢Å¢Å¢Å¢Å¢Å¢Å¢Å¢Å¢Å¢Å¢Å¢Å¢Å¢Å¢Å¢Å¢Å¢Å¢Å¢Å¢Å¢Å¢Å¢Å¢Å¢Å¢Å¢Å¢Å¢Å¢Å¢Å¢Å¢Å¢Å¢Å¢Å¢Å¢Å¢Å¢Å¢Å¢Å¢Å¢Å¢Å¢Å¢Å¢Å¢Å¢Å¢Å¢Å¢Å¢Å¢Å¢Å¢Å¢Å¢Å¢Å¢Å¢Å¢Å¢Å¢Å¢Å¢Å¢Å¢Å¢Å¢Å¢Å¢Å¢Å¢Å¢Å¢Å¢Å¢Å¢Å¢Å¢Å¢Å¢Å¢Å¢Å¢Å¢Å¢Å¢Å¢Å¢Å¢Å¢Å¢Å¢Å¢Å¢Å¢Å¢Å¢Å¢Å¢Å¢Å¢Å¢Å¢Å¢Å¢Å¢Å¢Å¢Å¢Å¢Å¢Å¢Å¢Å¢Å¢Å¢Å¢Å¢Å¢Å¢Å¢Å¢Å¢Å¢Å¢Å¢Å¢Å¢Å¢Å¢Å¢Å¢Å¢Å¢Å¢Å¢Å¢Å¢Å¢Å¢Å¢Å¢Å¢Å¢Å¢Å¢Å¢Å¢Å¢Å¢Å¢Å¢Å¢Å¢Å¢Å¢Å¢Å¢Å¢Å¢Å¢Å¢Å¢Å¢Å¢Å¢Å¢Å¢Å¢Å¢Å¢Å¢Å¢Å¢Å¢Å¢Å¢Å¢Å¢Å¢Å¢Å¢Å¢Å¢Å¢Å¢Å¢Å¢Å¢Å¢Å¢Å¢Å¢Å¢Å¢Å¢Å¢Å¢Å¢Å¢Å¢Å¢Å¢Å¢Å¢Å¢Å¢Å¢Å¢Å¢Å¢Å¢Å¢Å¢Å¢Å¢Å¢Å¢Å¢Å¢Å¢Å¢Å¢Å¢Å¢Å¢Å¢Å¢Å¢Å¢Å¢Å¢Å¢Å¢Å¢Å¢Å¢Å¢Å¢Å¢Å¢Å¢Å¢Å¢Å¢Å¢Å¢Å¢Å¢Å¢Å¢Å¢Å¢Å¢Å¢Å¢Å¢Å¢Å¢Å¢Å¢Å¢Å¢Å¢Å¢Å¢Å¢Å¢Å¢Å¢Å¢Å¢Å¢Å¢Å¢Å¢Å¢Å¢Å¢Å¢Å¢Å¢Å¢Å¢Å¢Å¢Å¢Å¢Å¢Å¢Å¢Å¢Å¢Å¢Å¢Å¢Å¢Å¢Å¢Å¢Å¢Å¢Å¢Å¢Å¢Å¢Å¢Å¢Å¢Å¢Å¢Å¢Å¢Å¢Å¢Å¢Å¢Å¢Å¢Å¢Å¢Å¢Å¢Å¢Å¢Å¢Å¢Å¢Å¢Å¢Å¢Å¢Å¢Å¢Å¢Å¢Å¢Å¢Å¢Å¢Å¢Å¢Å¢Å¢Å¢Å¢Å¢Å¢Å¢Å¢Å¢Å¢Å¢Å¢Å¢Å¢Å¢Å¢Å¢Å¢Å¢Å¢Å¢Å¢Å¢Å¢Å¢Å¢Å¢Å¢Å¢Å¢Å¢Å¢Å¢Å¢Å¢Å¢Å¢Å¢Å¢Å¢Å¢Å¢Å¢Å¢Å¢Å¢Å¢Å¢Å¢Å¢Å¢Å¢Å¢Å¢Å¢Å¢Å¢Å¢Å¢Å¢Å¢Å¢Å¢Å¢Å¢Å¢Å¢Å¢Å¢Å¢Å¢Å¢Å¢Å¢Å¢Å¢Å¢Å¢Å¢Å¢Å¢Å¢Å¢Å¢Å¢Å¢Å¢Å¢Å¢Å¢Å¢Å¢Å¢Å¢Å¢Å¢Å¢Å¢Å¢Å¢Å¢Å¢Å¢Å¢Å¢Å¢Å¢Å¢Å¢Å¢Å¢Å¢Å¢Å¢Å¢Å¢Å¢Å¢Å¢Å¢Å¢Å¢Å¢Å¢Å¢Å¢Å¢Å¢Å¢Å¢Å¢Å¢Å¢Å¢Å¢Å¢Å¢Å¢Å¢Å¢Å¢Å¢Å¢Å¢Å¢Å¢Å¢Å¢Å¢Å¢Å¢Å¢Å¢Å¢Å¢Å¢Å¢Å¢Å¢Å¢Å¢Å¢Å¢Å¢Å¢Å¢Å¢Å¢Å¢Å¢Å¢Å¢Å¢Å¢Å¢Å¢": 492,
      "Ä·": 493,
      "Ä°": 494,
      "ÆĲ": 495,
      "Ä¶": 496,
      "Æİ": 497,
      "Ä³": 498,
      "Å¢Å¢Å¢Å¢Å¢Å¢Å¢Å¢Å¢Å¢Å¢Å¢Å¢Å¢Å¢Å¢Å¢Å¢Å¢Å¢Å¢Å¢Å¢Å¢Å¢Å¢Å¢": 499,
      "Å¢Å¢Å¥": 500,
      "ÆĴ": 501,
      "Äµ": 502,
      "Ä±": 503,
      "Ä²": 504,
      "Å£Å£Å£": 505,
      "Å¢Å¢ÅŁ": 506,
      "Å¢Å¢Å¢Å¢Å¢Å¢Å¢Å¢Å¢Å¢Å¢Å¢Å¢Å¢Å¡": 507,
      "Å¢Å¢Å¢Å¢Å¢Å¢Å¢Å¢Å¢Å¢Å¢Å¢Å¢Å¢Å¢Å¢Å¢Å¢Å¢Å¢Å¢Å¢Å¢Å¢Å¢Å¢Å¢Å¢Å¢Å¢Å¡Å£": 508,
      "Ä´": 509,
      "Å¤ÅŁ": 510,
      "ÅłÅ¥": 511,
      "ÆĶ": 512,
      "Å¢ÅłÅ£": 513,
      "Ä®": 514,
      "Å¢Å¢Å¢Å¢Å¢Å¢Å¢Å£": 515,
      "Å¡Å¡Å¡": 516,
      "Å¢Å¢Å¢Å¢Å¢Å¢Å¢Å¢Å¢Å¢Å¢Å¢Å¢Å¢Å¢Å¢Å¢Å¢Å¢Å¢Å¢Å¢Å¢Å¢Å¢Å¢Å¢Å¢Å¢Å¢Å£Å¡": 517,
      "Æĳ": 518,
      "Å¢Å¢Å¢Å¢Å¢Å¢Å¢Å¢Å¢Å¢Å¢Å¢Å¢Å¢Å£": 519,
      "Ä¨": 520,
      "Å¢Å¡Å¢Å£": 521,
      "Å¤Å¥": 522,
      "Æĵ": 523,
      "Å£Å£Å¡": 524,
      "Å¢Å¤Å£": 525,
      "Äŀ": 526,
      "ÄŁ": 527,
      "ÅłÅŁ": 528,
      "Äļ": 529,
      "Å¢Å¢Å¢Å¢Å¢Å¢Å¢Å¡": 530,
      "Å¢Å¢Å¢Å¢Å¢Å¢Å¢Å¢Å¢Å¢Å¢Å¢Å¡": 531,
      "Æĸ": 532,
      "ÄŃ": 533,
      "Å¢Å¢Å¢Å¢Å¢Å¢Å¢Å¢Å¢Å¢Å¢Å£": 534,
      "Å¢Å¤Å¡": 535,
      "ÄĿ": 536,
      "Æķ": 537,
      "Å¢Å¢Å¢Å¢Å¢Å¢Å¢Å¢Å¢Å¢Å¢Å¢Å¢Å¢Å¢Å¢Å¢Å¢Å¢Å¢Å¢Å¢Å¢Å¢Å¢Å¢Å¢Å¢Å¢Å¢Å¢Å£Å¢Å¢Å¢Å¢Å¢Å¢Å¢Å¢Å¢Å¢Å¢Å¢Å¢Å¢Å¢Å¢Å¢Å¢Å¢Å¢Å¢Å¢Å¢Å¢Å¢Å¢Å¢Å¢Å¢Å¢Å¢Å¢Å¢Å¢Å¢Å¢Å¢Å¢Å¢Å¢Å¢Å¢Å¢Å¢Å¢Å¢Å¢Å¢Å¢Å¢Å¢Å¢Å¢Å¢Å¢Å¢Å¢Å¢Å¢Å¢Å¢Å¢Å¢Å¡": 538,
      "Å¢Å¢Å¢Å¢Å¢Å¢Å¢Å¢Å¢Å¢Å¢Å¢Å¢Å¢Å¢Å£": 539,
      "Æŀ": 540,
      "Ä¤": 541,
      "Ä¬": 542,
      "ÅŀÅ¤": 543,
      "Å¢Åļ": 544,
      "Å¢Åª": 545,
      "ÆĹ": 546,
      "Äł": 547,
      "Å§Å£": 548,
      "ÅĿÅ£": 549,
      "Å¢Å¢Å¢Å¢Å¢Å¢Å¢Å¢Å¢Å¢Å¢Å¢Å¢Å¢": 550,
      "Å¢Å¢Å¢Å¢Å¢Å¢Å¢Å¢Å¢Å¢Å¢Å¡": 551,
      "Å¢Å£Åł": 552,
      "Å¦Åł": 553,
      "Å¢Å¡Å¤": 554,
      "Å¦Å¤": 555,
      "Ä«": 556,
      "Æĺ": 557,
      "Å¢ÅłÅ¡": 558,
      "Ä¡": 559,
      "Ä¥": 560,
      "Å¢Å¢Å¢Å¢Å¢Å¢Å¢Å¢Å¢Å¢Å¢Å¢Å¢Å¢Å¢Å¢Å¢Å¢Å¢Å¢Å¢Å¢Å¢Å¢Å¢Å¢Å¢Å¢Å¢Å¢Å£Å£": 561,
      "Ä£": 562,
      "Å¥Å¥": 563,
      "ÆĻ": 564,
      "Å¢Å¢Å¢Å¢Å¢Å¢Å¢Å¢Å¢Å¢Å¢Å¢Å¢Å¢Å¢Å¢Å¢Å¢Å¢Å¢Å¢Å¢Å¢Å¢Å¢Å¢Å¢Å¢Å¢Å¢Å¡Å¡": 565,
      "Æļ": 566,
      "Å¢Å¢Å¢Å¢Å¢Å¢Å¢Å¢Å¢Å¢Å¢Å¢Å¢Å¢Å¢Å¡": 567,
      "Å¢ÅłÅ¤": 568,
      "Äª": 569,
      "Å¢Å¤Åł": 570,
      "Ä©": 571,
      "Ä¦": 572,
      "Å¢Å¢Å¢Å¢Å¢Å¢Å¢Å¢Å¢Å¡": 573,
      "ÅŀÅł": 574,
      "Å¢Å¢Å¢Å¢Å¢Å¢Å¢Å¢Å¢Å¢Å¢Å¢Å¢Å¢Å¢Å¢Å¢Å¢Å¢Å¢Å¢Å¢Å¢Å¢Å¢Å¢Å¡Å£": 575,
      "Å¢Å¢Å¢Å¢Å¢Å¢Å¢Å¢Å¢Å£": 576,
      "ÅŁÅŁ": 577,
      "ÆĽ": 578,
      "Å¢Å¢Å¢Å¢Å¢Å¢Å¢Å¢Å¢Å¢Å¢Å¢Å¢Å¢Å¢Å¢Å¢Å¢Å¢Å¢Å¢Å¢Å¢Å¢Å¢Å¢Å¢Å¢Å¢Å£Å¢Å¡": 579,
      "Å¢Å¢Å¢Å¢Å¢Å¢Å¢Å¢Å¢Å¢Å¢Å¢Å¢Å¢Å¢Å¢Å¢Å¢Å¢Å¢Å¢Å¢Å¢": 580,
      "Ä¢": 581,
      "Å¢Å¢Å¢Å£Å¡": 582,
      "ÅĿÅ¡": 583,
      "Ä§": 584,
      "Æľ": 585,
      "Å§Å¡": 586,
      "Å¢Å£Å¤": 587,
      "ÆĿ": 588,
      "Å¢Å¢Å¢Å¥": 589,
      "Å¢Å¢Å¢Å¢Å¢Å¢Å¢Å¢Å¢Å¢Å¢Å¢Å¢Å¢Å¢Å¢Å¢Å¢Å¢Å¢Å¢Å¢Å¢Å¢Å¢Å¢Å¢Å¢Å¢Å¡Å¢Å£": 590,
      "Å¢Å¢Å¢Å¢Å¢Å¢Å¢Å¢Å¢Å¢Å¢Å¢Å¢Å¢Å¢Å¢Å¢Å¢Å¢Å¢Å¢Å¢Å¢Å¢Å¢Å¢Å¢Å¢Å¢Å¢Å¢Å¢Å£": 591,
      "Å¢Å¢Å¢Å¢Å¢Å¢Å¢Å¢Å¢Å¢Å¢Å¢Å¢Å¢Å¢Å¢Å¢Å¢Å¢Å¢Å¢Å¢Å¢Å¢Å¢Å¢Å¢Å¢Å¢Å¢Å¢Å¢Å¢Å¢Å¢Å¢Å¢Å¢Å¢Å¢Å¢Å¢Å¢Å¢Å¢Å¢Å¢Å¢Å¢Å¢Å¢Å¢Å¢Å¢Å¢Å¢Å¢Å¢Å¢Å¢Å¢Å¢Å¢Å¢Å¢Å¢Å¢Å¢Å¢Å¢Å¢Å¢Å¢Å¢Å¢Å¢Å¢Å¢Å¢Å¢Å¢Å¢Å¢Å¢Å¢Å¢Å¢Å¢Å¢Å¢Å¢Å¢Å¢Å¢Å¢Å¢Å¢Å¢Å¢Å¢Å¢Å¢Å¢Å¢Å¢Å¢Å¢Å¢Å¢Å¢Å¢Å¢Å¢Å¢Å¢Å¢Å¢Å¢Å¢Å¢Å¢Å¢Å¢Å¢Å¢Å¢Å¢Å¡": 592,
      "Å¢Å¢Å¢ÅŁ": 593,
      "Å¢Å¢Å¢Å¢Å¢Å¢Å¢Å¢Å¢Å¢Å¡": 594,
      "Æ·": 595,
      "Å¦Åŀ": 596,
      "Å¢Å¢Å¢Å¢Å¢Å¢Å¢Å¢Å¢Å¢Å¢Å¢Å¢Å¢Å¢Å¢Å¢Å¢Å¢Å¢Å¢Å¢Å¢Å¢Å¢Å¢Å¢Å¢Å¢Å¢Å¢Å¢Å¡": 597,
      "Å¢Å¢Å¢Å¢Å¢Å¢Å¢Å¢Å¢Å¢Å£": 598,
      "Å¦ÅŁ": 599,
      "ÆŁ": 600,
      "Å¢Å¢Å¢Å¢Å¢Å¢Å¢Å¢Å£": 601,
      "Å¢Å¡Åł": 602,
      "Äĳ": 603,
      "Äľ": 604,
      "Æ¢": 605,
      "Æł": 606,
      "Æ¡": 607,
      "Å¢Å¢Å¢Å¢Å¢Å¢Å¢Å¢Å¢Å¢Å¢Å¢Å¢Å¢Å¢Å¢Å¢Å¢Å¢Å¢Å¢Å¢Å¢Å¢Å¢Å¢Å¢Å¢Å¢Å¢Å¢Å¡Å¢Å¢Å¢Å¢Å¢Å¢Å¢Å¢Å¢Å¢Å¢Å¢Å¢Å¢Å¢Å¢Å¢Å¢Å¢Å¢Å¢Å¢Å¢Å¢Å¢Å¢Å¢Å¢Å¢Å¢Å¢Å¢Å¢Å¢Å¢Å¢Å¢Å¢Å¢Å¢Å¢Å¢Å¢Å¢Å¢Å¢Å¢Å¢Å¢Å¢Å¢Å¢Å¢Å¢Å¢Å¢Å¢Å¢Å¢Å¢Å¢Å¢Å¢Å£": 608,
      "ÅŀÅ¥": 609,
      "Å¢ÅĻ": 610,
      "Å¢Å«": 611,
      "Æ£": 612,
      "Äĸ": 613,
      "ÄĲ": 614,
      "Å¢Å¢Å¢Å¢Å¢Å¢Å¢Å¢Å¢Å¢Å¢Å¢Å¢Å¢Å¢Å¢Å¢Å¢Å¢Å¢Å¢Å¢Å¢Å¢Å¢Å¢Å¢Å¢Å¢Å¢Å¢Å¢Å¢Å¢Å¢Å¢Å¢Å¢Å¢Å¢Å¢Å¢Å¢Å¢Å¢Å¢Å¢Å¢Å¢Å¢Å¢Å¢Å¢Å¢Å¢Å¢Å¢Å¢Å¢Å¢Å¢Å¢Å¢Å¢Å¢Å¢Å¢Å¢Å¢Å¢Å¢Å¢Å¢Å¢Å¢Å¢Å¢Å¢Å¢Å¢Å¢Å¢Å¢Å¢Å¢Å¢Å¢Å¢Å¢Å¢Å¢Å¢Å¢Å¢Å¢Å¢Å¢Å¢Å¢Å¢Å¢Å¢Å¢Å¢Å¢Å¢Å¢Å¢Å¢Å¢Å¢Å¢Å¢Å¢Å¢Å¢Å¢Å¢Å¢Å¢Å¢Å¢Å¢Å¢Å¢Å¢Å¢Å¢Å¢Å¢Å¢Å¢Å¢Å¢Å¢Å¢Å¢Å¢Å¢Å¢Å¢Å¢Å¢Å¢Å¢Å¢Å¢Å¢Å¢Å¢Å¢Å¢Å¢Å¢Å¢Å¢Å¢Å¢Å¢Å¢Å¢Å¢Å¢Å¢Å¢Å¢Å¢Å¢Å¢Å¢Å¢Å¢Å¢Å¢Å¢Å¢Å¢Å¢Å¢Å¢Å¢Å¢Å¢Å¢Å¢Å¢Å¢Å¢Å¢Å¢Å¢Å¢Å¢Å¢Å¢Å¢Å¢Å¢Å¢Å¢Å¢Å¢Å¢Å¢Å¢Å¢Å¢Å¢Å¢Å¢Å¢Å¢Å¢Å¢Å¢Å¢Å¢Å¢Å¢Å¢Å¢Å¢Å¢Å¢Å¢Å¢Å¢Å¢Å¢Å¢Å¢Å¢Å¢Å¢Å¢Å¢Å¢Å¢Å¢Å¢Å¢Å¢Å¢Å¢Å¢Å¢Å¢Å¢Å¢Å¢Å¢Å¢Å¢Å¢Å¢Å¢Å¢Å¢Å¢Å¢Å¢Å¢Å¢Å¢Å¢Å¢Å¢Å¢Å¢Å¢Å¢Å¢Å¢Å¢Å¢Å¢Å¢Å¢Å¢Å¢Å¢Å¢Å¢Å¢Å¢Å¢Å¢Å¢Å¢Å¢Å¢Å¢Å¢Å¢Å¢Å¢Å¢Å¢Å¢Å¢Å¢Å¢Å¢Å¢Å¢Å¢Å¢Å¢Å¢Å¢Å¢Å¢Å¢Å¢Å¢Å¢Å¢Å¢Å¢Å¢Å¢Å¢Å¢Å¢Å¢Å¢Å¢Å¢Å¢Å¢Å¢Å¢Å¢Å¢Å¢Å¢Å¢Å¢Å¢Å¢Å¢Å¢Å¢Å¢Å¢Å¢Å¢Å¢Å¢Å¢Å¢Å¢Å¢Å¢Å¢Å¢Å¢Å¢Å¢Å¢Å¢Å¢Å¢Å¢Å¢Å¢Å¢Å¢Å¢Å¢Å¢Å¢Å¢Å¢Å¢Å¢Å¢Å¢Å¢Å¢Å¢Å¢Å¢Å¢Å¢Å¢Å¢Å¢Å¢Å¢Å¢Å¢Å¢Å¢Å¢Å¢Å¢Å¢Å¢Å¢Å¢Å¢Å¢Å¢Å¢Å¢Å¢Å¢Å¢Å¢Å¢Å¢Å¢Å¢Å¢Å¢Å¢Å¢Å¢Å¢Å¢Å¢Å¢Å¢Å¢Å¢Å¢Å¢Å¢Å¢Å¢Å¢Å¢Å¢Å¢Å¢Å¢Å¢Å¢Å¢Å¢Å¢Å¢Å¢Å¢Å¢Å¢Å¢Å¢Å¢Å¢Å¢Å¢Å¢Å¢Å¢Å¢Å¢Å¢Å¢Å¢Å¢Å¢Å¢Å¢Å¢Å¢Å¢Å¢Å¢Å¢Å¢Å¢Å¢Å¢Å¢Å¢Å¢Å¢Å¢Å¢Å¢Å¢Å¢Å¢Å¢Å¢Å¢Å¢Å¢Å¢Å¢Å¢Å¢Å¢Å¢Å¢Å¢Å¢Å¢Å¢Å¢Å¢Å¢Å¢Å¢Å¢Å¢Å¢Å¢Å¢Å¢Å¢Å¢Å¢Å¢Å¢Å¢Å¢Å¢Å¢Å¢Å¢Å¢Å¢Å¢Å¢Å¢Å¢Å¢Å¢Å¢Å¢Å¢Å¢Å¢Å¢Å¢Å¢Å¢Å¢Å¢Å¢Å¢Å¢Å¢Å¢Å¢Å¢Å¢Å¢Å¢Å¢Å¢Å¢Å¢Å¢Å¢Å¢Å¢Å¢Å¢Å¢Å¢Å¢Å¢Å¢Å¢Å¢Å¢Å¢Å¢Å¢Å¢Å¢Å¢Å¢Å¢Å¢Å¢Å¢Å¢Å¢Å¢Å¢Å¢Å¢Å¢Å¢Å¢Å¢Å¢Å¢Å¢Å¢Å¢Å¢Å¢Å¢Å¢Å¢Å¢Å¢Å¢Å¢Å¢Å¢Å¢Å¢Å¢Å¢Å¢Å¢Å¢Å¢Å¢Å¢Å¢Å¢Å¢Å¢Å¢Å¢Å¢Å¢Å¢Å¢Å¢Å¢Å¢Å¢Å¢Å¢Å¢Å¢Å¢Å¢Å¢Å¢Å¢Å¢Å¢Å¢Å¢Å¢Å¢Å¢Å¢Å¢Å¢Å¢Å¢Å¢Å¢Å¢Å¢Å¢Å¢Å¢Å¢Å¢Å¢Å¢Å¢Å¢Å¢Å¢Å¢Å¢Å¢Å¢Å¢Å¢Å¢Å¢Å¢Å¢Å¢Å¢Å¢Å¢Å¢Å¢Å¢Å¢Å¢Å¢Å¢Å¢Å¢Å¢Å¢Å¢Å¢Å¢Å¢Å¢Å¢Å¢Å¢Å¢Å¢Å¢Å¢Å¢Å¢Å¢Å¢Å¢Å¢Å¢Å¢Å¢Å¢Å¢Å¢Å¢Å¢Å¢Å¢Å¢Å¢Å¢Å¢Å¢Å¢Å¢Å¢Å¢Å¢Å¢Å¢Å¢Å¢Å¢Å¢Å¢Å¢Å¢Å¢Å¢Å¢Å¢Å¢Å¢Å¢Å¢Å¢Å¢Å¢Å¢Å¢Å¢Å¢Å¢Å¢Å¢Å¢Å¢Å¢Å¢Å¢Å¢Å¢Å¢Å¢Å¢Å¢Å¢Å¢Å¢Å¢Å¢Å¢Å¢Å¢Å¢Å¢Å¢Å¢Å¢Å¢Å¢Å¢Å¢Å¢Å¢Å¢Å¢Å¢Å¢Å¢Å¢Å¢Å¢Å¢Å¢Å¢Å¢Å¢Å¢Å¢Å¢Å¢Å¢Å¢Å¢Å¢Å¢Å¢Å¢Å¢Å¢Å¢Å¢Å¢Å¢Å¢Å¢Å¢Å¢Å¢Å¢Å¢Å¢Å¢Å¢Å¢Å¢Å¢Å¢Å¢Å¢Å¢Å¢Å¢Å¢Å¢Å¢Å¢Å¢Å¢Å¢Å¢Å¢Å¢Å¢Å¢Å¢Å¢Å¢Å¢Å¢Å¢Å¢Å¢Å¢Å¢Å¢Å¢Å¢Å¢Å¢Å¢Å¢Å¢Å¢Å¢Å¢Å¢Å¢Å¢Å¢Å¢Å¢Å¢Å¢Å¢Å¢Å¢Å¢Å¢Å¢Å¢Å¢Å¢Å¢Å¢Å¢Å¢Å¢Å¢Å¢Å¢Å¢Å¢Å¢Å¢Å¢Å¢Å¢Å¢Å¢Å¢Å¢Å¢Å¢Å¢Å¢Å¢Å¢Å¢Å¢Å¢Å¢Å¢Å¢Å¢Å¢Å¢Å¢Å¢Å¢Å¢Å¢Å¢Å¢Å¢Å¢Å¢Å¢Å¢Å¢Å¢Å¢Å¢Å¢Å¢Å¢Å¢Å¢Å¢Å¢Å¢Å¢Å¢Å¢Å¢Å¢Å¢Å¢Å¢Å¢Å¢Å¢Å¢Å¢Å¢Å¢Å¢Å¢Å¢Å¢Å¢Å¢Å¢Å¢Å¢Å¢Å¢Å¢Å¢Å¢Å¢Å¢Å¢Å¢Å¢Å¢Å¢Å¢Å¢Å¢Å¢Å¢Å¢Å¢Å¢Å¢Å¢Å¢Å¢Å¢Å¢Å¢Å¢Å¢Å¢Å¢Å¢Å¢Å¢Å¢Å¢Å¢Å¢Å¢Å¢Å¢Å¢Å¢Å¢Å¢Å¢Å¢Å¢Å¢Å¢Å¢Å¢Å¢Å¢Å¢Å¢Å¢Å¢Å¢Å¢Å¢Å¢Å¢Å¢Å¢Å¢Å¢Å¢Å¢Å¢Å¢Å¢Å¢Å¢Å¢Å¢Å¢Å¢Å¢Å¢Å¢Å¢Å¢Å¢Å¢Å¢Å¢Å¢Å¢Å¢Å¢Å¢Å¢Å¢Å¢Å¢Å¢Å¢Å¢Å¢Å¢Å¢Å¢Å¢Å¢Å¢Å¢Å¢Å¢Å¢Å¢Å¢Å¢Å¢Å¢Å¢Å¢Å¢Å¢Å¢Å¢Å¢Å¢Å¢Å¢Å¢Å¢Å¢Å¢Å¢Å¢Å¢Å¢Å¢Å¢Å¢Å¢Å¢Å¢Å¢Å¢Å¢Å¢Å¢Å¢Å¢Å¢Å¢Å¢Å¢Å¢Å¢Å¢Å¢Å¢Å¢Å¢Å¢Å¢Å¢Å¢Å¢Å¢Å¢Å¢Å¢Å¢Å¢Å¢Å¢Å¢Å¢Å¢Å¢Å¢Å¢Å¢Å¢Å¢Å¢Å¢Å¢Å¢Å¢Å¢Å¢Å¢Å¢Å¢Å¢Å¢Å¢Å¢Å¢Å¢Å¢Å¢Å¢Å¢Å¢Å¢Å¢Å¢Å¢Å¢Å¢Å¢Å¢Å¢Å¢Å¢Å¢Å¢Å¢Å¢Å¢": 615,
      "Æ¤": 616,
      "Å¢Å¢Å¢Å¢Å¢Å¢Å¢Å¢Å¢Å¢Å¢Å¢Å¢Å¢Å¢Å¢Å¢Å¢Å¢Å¢Å¢Å¢Å¢Å¢Å¢Å¢Å¢Å¢Å¢Å¢Å¢Å¢Å¢Å¢Å¢Å¢Å¢Å¢Å¢Å¢Å¢Å¢Å¢Å¢Å¢Å¢Å¢Å¢Å¢Å¢Å¢Å¢Å¢Å¢Å¢Å¢Å¢Å¢Å¢Å¢Å¢Å¢Å¢Å¢Å¢Å¢Å¢Å¢Å¢Å¢Å¢Å¢Å¢Å¢Å¢Å¢Å¢Å¢Å¢Å¢Å¢Å¢Å¢Å¢Å¢Å¢Å¢Å¢Å¢Å¢Å¢Å¢Å¢Å¢Å¢Å¢Å¢Å¢Å¢Å¢Å¢Å¢Å¢Å¢Å¢Å¢Å¢Å¢Å¢Å¢Å¢Å¢Å¢Å¢Å¢Å¢Å¢Å¢Å¢Å¢Å¢Å¢Å¢Å¢Å¢Å¢Å¢Å¢Å¢Å¢Å¢Å¢Å¢Å¢Å¢Å¢Å¢Å¢Å¢Å¢Å¢Å¢Å¢Å¢Å¢Å¢Å¢Å¢Å¢Å¢Å¢Å¢Å¢Å¢Å¢Å¢Å¢Å¢Å¢Å¢Å¢Å¢Å¢Å¢Å¢Å¢Å¢Å¢Å¢Å¢Å¢Å¢Å¢Å¢Å¢Å¢Å¢Å¢Å¢Å¢Å¢Å¢Å¢Å¢Å¢Å¢Å¢Å¢Å¢Å¢Å¢Å¢Å¢Å¢Å¢Å¢Å¢Å¢Å¢Å¢Å¢Å¢Å¢Å¢Å¢Å¢Å¢Å¢Å¢Å¢Å¢Å¢Å¢Å¢Å¢Å¢Å¢Å¢Å¢Å¢Å¢Å¢Å¢Å¢Å¢Å¢Å¢Å¢Å¢Å¢Å¢Å¢Å¢Å¢Å¢Å¢Å¢Å¢Å¢Å¢Å¢Å¢Å¢Å¢Å¢Å¢Å¢Å¢Å¢Å¢Å¢Å¢Å¢Å¢Å¢Å¢Å¢Å¢Å¢Å¢Å¢Å¢Å¢Å¢Å¢Å¢Å¢Å¢Å¢Å¢Å¢Å¢Å¢Å¢Å¢Å¢Å¢Å¢Å¢Å¢Å¢Å¢Å¢Å¢Å¢Å¢Å¢Å¢Å¢Å¢Å¢Å¢Å¢Å¢Å¢Å¢Å¢Å¢Å¢Å¢Å¢Å¢Å¢Å¢Å¢Å¢Å¢Å¢Å¢Å¢Å¢Å¢Å¢Å¢Å¢Å¢Å¢Å¢Å¢Å¢Å¢Å¢Å¢Å¢Å¢Å¢Å¢Å¢Å¢Å¢Å¢Å¢Å¢Å¢Å¢Å¢Å¢Å¢Å¢Å¢Å¢Å¢Å¢Å¢Å¢Å¢Å¢Å¢Å¢Å¢Å¢Å¢Å¢Å¢Å¢Å¢Å¢Å¢Å¢Å¢Å¢Å¢Å¢Å¢Å¢Å¢Å¢Å¢Å¢Å¢Å¢Å¢Å¢Å¢Å¢Å¢Å¢Å¢Å¢Å¢Å¢Å¢Å¢Å¢Å¢Å¢Å¢Å¢Å¢Å¢Å¢Å¢Å¢Å¢Å¢Å¢Å¢Å¢Å¢Å¢Å¢Å¢Å¢Å¢Å¢Å¢Å¢Å¢Å¢Å¢Å¢Å¢Å¢Å¢Å¢Å¢Å¢Å¢Å¢Å¢Å¢Å¢Å¢Å¢Å¢Å¢Å¢Å¢Å¢Å¢Å¢Å¢Å¢Å¢Å¢Å¢Å¢Å¢Å¢Å¢Å¢Å¢Å¢Å¢Å¢Å¢Å¢Å¢Å¢Å¢Å¢Å¢Å¢Å¢Å¢Å¢Å¢Å¢Å¢Å¢Å¢Å¢Å¢Å¢Å¢Å¢Å¢Å¢Å¢Å¢Å¢Å¢Å¢Å¢Å¢Å¢Å¢Å¢Å¢Å¢Å¢Å¢Å¢Å¢Å¢Å¢Å¢Å¢Å¢Å¢Å¢Å¢Å¢Å¢Å¢Å¢Å¢Å¢Å¢Å¢Å¢Å¢Å¢Å¢Å¢Å¢Å¢Å¢Å¢Å¢Å¢Å¢Å¢Å¢Å¢Å¢Å¢Å¢Å¢Å¢Å¢Å¢Å¢Å¢Å¢Å¢Å¢Å¢Å¢Å¢Å¢Å¢Å¢Å¢Å¢Å¢Å¢Å¢Å¢Å¢Å¢Å¢Å¢Å¢Å¢Å¢Å¢Å¢Å¢Å¢Å¢Å¢Å¢Å¢Å¢Å¢Å¢Å¢Å¢Å¢Å¢Å¢Å¢Å¢Å¢Å¢Å¢Å¢Å¢Å¢Å¢Å¢Å¢Å¢Å¢Å¢Å¢Å¢Å¢Å¢Å¢Å¢Å¢Å¢Å¢Å¢Å¢Å¢Å¢Å¢Å¢Å¢Å¢Å¢Å¢Å¢Å¢Å¢Å¢Å¢Å¢Å¢Å¢Å¢Å¢Å¢Å¢Å¢Å¢Å¢Å¢Å¢Å¢Å¢Å¢Å¢Å¢Å¢Å¢Å¢Å¢Å¢Å¢Å¢Å¢Å¢Å¢Å¢Å¢Å¢Å¢Å¢Å¢Å¢Å¢Å¢Å¢Å¢Å¢Å¢Å¢Å¢Å¢Å¢Å¢Å¢Å¢Å¢Å¢Å¢Å¢Å¢Å¢Å¢Å¢Å¢Å¢Å¢Å¢Å¢Å¢Å¢Å¢Å¢Å¢Å¢Å¢Å¢Å¢Å¢Å¢Å¢Å¢Å¢Å¢Å¢Å¢Å¢Å¢Å¢Å¢Å¢Å¢Å¢Å¢Å¢Å¢Å¢Å¢Å¢Å¢Å¢Å¢Å¢Å¢Å¢Å¢Å¢Å¢Å¢Å¢Å¢Å¢Å¢Å¢Å¢Å¢Å¢Å¢Å¢Å¢Å¢Å¢Å¢Å¢Å¢Å¢Å¢Å¢Å¢Å¢Å¢Å¢Å¢Å¢Å¢Å¢Å¢Å¢Å¢Å¢Å¢Å¢Å¢Å¢Å¢Å¢Å¢Å¢Å¢Å¢Å¢Å¢Å¢Å¢Å¢Å¢Å¢Å¢Å¢Å¢Å¢Å¢Å¢Å¢Å¢Å¢Å¢Å¢Å¢Å¢Å¢Å¢Å¢Å¢Å¢Å¢Å¢Å¢Å¢Å¢Å¢Å¢Å¢Å¢Å¢Å¢Å¢Å¢Å¢Å¢Å¢Å¢Å¢Å¢Å¢Å¢Å¢Å¢Å¢Å¢Å¢Å¢Å¢Å¢Å¢Å¢Å¢Å¢Å¢Å¢Å¢Å¢Å¢Å¢Å¢Å¢Å¢Å¢Å¢Å¢Å¢Å¢Å¢Å¢Å¢Å¢Å¢Å¢Å¢Å¢Å¢Å¢Å¢Å¢Å¢Å¢Å¢Å¢Å¢Å¢Å¢Å¢Å¢Å¢Å¢Å¢Å¢Å¢Å¢Å¢Å¢Å¢Å¢Å¢Å¢Å¢Å¢Å¢Å¢Å¢Å¢Å¢Å¢Å¢Å¢Å¢Å¢Å¢Å¢Å¢Å¢Å¢Å¢Å¢Å¢Å¢Å¢Å¢Å¢Å¢Å¢Å¢Å¢Å¢Å¢Å¢Å¢Å¢Å¢Å¢Å¢Å¢Å¢Å¢Å¢Å¢Å¢Å¢Å¢Å¢Å¢Å¢Å¢Å¢Å¢Å¢Å¢Å¢Å¢Å¢Å¢Å¢Å¢Å¢Å¢Å¢Å¢Å¢Å¢Å¢Å¢Å¢Å¢Å¢Å¢Å¢Å¢Å¢Å¢Å¢Å¢Å¢Å¢Å¢Å¢Å¢Å¢Å¢Å¢Å¢Å¢Å¢Å¢Å¢Å¢Å¢Å¢Å¢Å¢Å¢Å¢Å¢Å¢Å¢Å¢Å¢Å¢Å¢Å¢Å¢Å¢Å¢Å¢Å¢Å¢Å¢Å¢Å¢Å¢Å¢Å¢Å¢Å¢Å¢Å¢Å¢Å¢Å¢Å¢Å¢Å¢Å¢Å¢Å¢Å¢Å¢Å¢Å¢Å¢Å¢Å¢Å¢Å¢Å¢Å¢Å¢Å¢Å¢Å¢Å¢Å¢Å¢Å¢Å¢Å¢Å¢Å¢Å¢Å¢Å¢Å¢Å¢Å¢Å¢Å¢Å¢Å¢Å¢Å¢Å¢Å¢Å¢Å¢Å¢Å¢Å¢Å¢Å¢Å¢Å¢Å¢Å¢Å¢Å¢Å¢Å¢Å¢Å¢Å¢Å¢Å¢Å¢Å¢Å¢Å¢Å¢Å¢Å¢Å¢Å¢Å¢Å¢Å¢Å¢Å¢Å¢Å¢Å¢Å¢Å¢Å¢Å¢Å¢Å¢Å¢Å¢Å¢Å¢Å¢Å¢Å¢Å¢Å¢Å¢Å¢Å¢Å¢Å¢Å¢Å¢Å¢Å¢Å¢Å¢Å¢Å¢Å¢Å¢Å¢Å¢Å¢Å¢Å¢Å¢Å¢Å¢Å¢Å¢Å¢Å¢Å¢Å¢Å¢Å¢Å¢Å¢Å¢Å¢Å¢Å¢Å¢Å¢Å¢Å¢Å¢Å¢Å¢Å¢Å¢Å¢Å¢Å¢Å¢Å¢Å¢Å¢Å¢Å¢Å¢": 617,
      "ÅŀÅ¦": 618,
      "Å¢Å¢Å¢Å¢Å¢Å¢Å¢Å¢Å¡": 619,
      "Å¢Å¢Å¢Å¢Å¢Å¢Å¢Å¢Å¢Å¢Å¢Å¢Å¢Å¢Å¢Å¢Å¢Å¢Å¢Å¢Å¢Å¢Å¢Åł": 620,
      "Å¢Å¢Å¢Å¢Å¢Å¢Å¢Å¢Å¢Å¢Å¢Å¢Å¢Å¢Å¢Å¢Å¢Å¢Å¢Å¢Å¢Å¢Å¢Å¤": 621,
      "Å¢Å¢Å¢Å¢Å¢Å¢Å¢Å¢Å¢Å¢Å¢Å¢Å¢Å¢Å¢Å¢Å£": 622,
      "Å¢Å¢Å¢Å¢Å¢Å¢Å¢Å¢Å¢Å¢Å¢Å¢Å¢Å¢Å¢Å¢Å¢Å¢Å¢Å¢Å¢Å¢Å¢Å¢Å¢Å¢Å¢Å¢Å¢Å£Å¢Å£": 623,
      "Æ¨": 624,
      "Æ¥": 625,
      "ÄĶ": 626,
      "Å¢Å¢Å¢Å¢Å¢Å¢Å¢Å¢Å¢Å¢Å¢Å¢Å¢Å¢Å¢Å¢Å¢Å¢Å¢Å¢Å¢Å¢Å¢Å¢Å¢ÅŁ": 627,
      "Æ§": 628,
      "Æ¦": 629,
      "Å¢Å¢Å¢Å¢Å¢Å¢Å¢Å¢Å¢Å¢Å¢Å¢Å¢Å¢Å¢Å¢Å¢Å¢Å¢Å¢Å¢Å¢Å¢Å¢Å¢Å¥": 630,
      "Å¢Å¢Å¢Å¢Å¢Å¢Å¢Å¢Å¢Å¢Å¢Å¢Å¢Å¢Å¢Å¢Å¢Å¢Å¢Å¢Å¢Å¢Å¢Å¢Å¢Å¢Å¢Å¢Å¢Å¢Å¢Å¢Å¢Å¢Å¢Å¢Å¢Å¢Å¢Å¢Å¢Å¢Å¢Å¢Å¢Å¢Å¢Å¢Å¢Å¢Å¢Å¢Å¢Å¢Å¢Å¢Å¢Å¢Å¢Å¢Å¢Å¢Å¢Å¢Å¢Å¢Å¢Å¢Å¢Å¢Å¢Å¢Å¢Å¢Å¢Å¢Å¢Å¢Å¢Å¢Å¢Å¢Å¢Å¢Å¢Å¢Å¢Å¢Å¢Å¢Å¢Å¢Å¢Å¢Å¢Å¢Å¢Å¢Å¢Å¢Å¢Å¢Å¢Å¢Å¢Å¢Å¢Å¢Å¢Å¢Å¢Å¢Å¢Å¢Å¢Å¢Å¢Å¢Å¢Å¢Å¢Å¢Å¢Å¢Å¢Å¢Å¢Å¢Å¢Å¢Å¢Å¢Å¢Å¢Å¢Å¢Å¢Å¢Å¢Å¢Å¢Å¢Å¢Å¢Å¢Å¢Å¢Å¢Å¢Å¢Å¢Å¢Å¢Å¢Å¢Å¢Å¢Å¢Å¢Å¢Å¢Å¢Å¢Å¢Å¢Å¢Å¢Å¢Å¢Å¢Å¢Å¢Å¢Å¢Å¢Å¢Å¢Å¢Å¢Å¢Å¢Å¢Å¢Å¢Å¢Å¢Å¢Å¢Å¢Å¢Å¢Å¢Å¢Å¢Å¢Å¢Å¢Å¢Å¢Å¢Å¢Å¢Å¢Å¢Å¢Å¢Å¢Å¢Å¢Å¢Å¢Å¢Å¢Å¢Å¢Å¢Å¢Å¢Å¢Å¢Å¢Å¢Å¢Å¢Å¢Å¢Å¢Å¢Å¢Å¢Å¢Å¢Å¢Å¢Å¢Å¢Å¢Å¢Å¢Å¢Å¢Å¢Å¢Å¢Å¢Å¢Å¢Å¢Å¢Å¢Å¢Å¢Å¢Å¢Å¢Å¢Å¢Å¢Å¢Å¢Å¢Å¢Å¢Å¢Å¢Å¢Å¢Å¢Å¢Å¢Å¢Å¢Å¢Å¢Å¢Å¢Å¢Å¢Å¢Å¢Å¢Å¢Å¢Å¢Å¢Å¢Å¢Å¢Å¢Å¢Å¢Å¢Å¢Å¢Å¢Å¢Å¢Å¢Å¢Å¢Å¢Å¢Å¢Å¢Å¢Å¢Å¢Å¢Å¢Å¢Å¢Å¢Å¢Å¢Å¢Å¢Å¢Å¢Å¢Å¢Å¢Å¢Å¢Å¢Å¢Å¢Å¢Å¢Å¢Å¢Å¢Å¢Å¢Å¢Å¢Å¢Å¢Å¢Å¢Å¢Å¢Å¢Å¢Å¢Å¢Å¢Å¢Å¢Å¢Å¢Å¢Å¢Å¢Å¢Å¢Å¢Å¢Å¢Å¢Å¢Å¢Å¢Å¢Å¢Å¢Å¢Å¢Å¢Å¢Å¢Å¢Å¢Å¢Å¢Å¢Å¢Å¢Å¢Å¢Å¢Å¢Å¢Å¢Å¢Å¢Å¢Å¢Å¢Å¢Å¢Å¢Å¢Å¢Å¢Å¢Å¢Å¢Å¢Å¢Å¢Å¢Å¢Å¢Å¢Å¢Å¢Å¢Å¢Å¢Å¢Å¢Å¢Å¢Å¢Å¢Å¢Å¢Å¢Å¢Å¢Å¢Å¢Å¢Å¢Å¢Å¢Å¢Å¢Å¢Å¢Å¢Å¢Å¢Å¢Å¢Å¢Å¢Å¢Å¢Å¢Å¢Å¢Å¢Å¢Å¢Å¢Å¢Å¢Å¢Å¢Å¢Å¢Å¢Å¢Å¢Å¢Å¢Å¢Å¢Å¢Å¢Å¢Å¢Å¢Å¢Å¢Å¢Å¢Å¢Å¢Å¢Å¢Å¢Å¢Å¢Å¢Å¢Å¢Å¢Å¢Å¢Å¢Å¢Å¢Å¢Å¢Å¢Å¢Å¢Å¢Å¢Å¢Å¢Å¢Å¢Å¢Å¢Å¢Å¢Å¢Å¢Å¢Å¢Å¢Å¢Å¢Å¢Å¢Å¢Å¢Å¢Å¢Å¢Å¢Å¢Å¢Å¢Å¢Å¢Å¢Å¢Å¢Å¢Å¢Å¢Å¢Å¢Å¢Å¢Å¢Å¢Å¢Å¢Å¢Å¢Å¢Å¢Å¢Å¢Å¢Å¢Å¢Å¢Å¢Å¢Å¢Å¢Å¢Å¢Å¢Å¢Å¢Å¢Å¢Å¢Å¢Å¢Å¢Å¢Å¢Å¢Å¢Å¢Å¢Å¢Å¢Å¢Å¢Å¢Å¢Å¢Å¢Å¢Å¢Å¢Å¢Å¢Å¢Å¢Å¢Å¢Å¢Å¢Å¢Å¢Å¢Å¢Å¢Å¢Å¢Å¢Å¢Å¢Å¢Å¢Å¢Å¢Å¢Å¢Å¢Å¢Å¢Å¢Å¢Å¢Å¢Å¢Å¢Å¢Å¢Å¢Å¢Å¢Å¢Å¢Å¢Å¢Å¢Å¢Å¢Å¢Å¢Å¢Å¢Å¢Å¢Å¢Å¢Å¢Å¢Å¢Å¢Å¢Å¢Å¢Å¢Å¢Å¢Å¢Å¢Å¢Å¢Å¢Å¢Å¢Å¢Å¢Å¢Å¢Å¢Å¢Å¢Å¢Å¢Å¢Å¢Å¢Å¢Å¢Å¢Å¢Å¢Å¢Å¢Å¢Å¢Å¢Å¢Å¢Å¢Å¢Å¢Å¢Å¢Å¢Å¢Å¢Å¢Å¢Å¢Å¢Å¢Å¢Å¢Å¢Å¢Å¢Å¢Å¢Å¢Å¢Å¢Å¢Å¢Å¢Å¢Å¢Å¢Å¢Å¢Å¢Å¢Å¢Å¢Å¢Å¢Å¢Å¢Å¢Å¢Å¢Å¢Å¢Å¢Å¢Å¢Å¢Å¢Å¢Å¢Å¢Å¢Å¢Å¢Å¢Å¢Å¢Å¢Å¢Å¢Å¢Å¢Å¢Å¢Å¢Å¢Å¢Å¢Å¢Å¢Å¢Å¢Å¢Å¢Å¢Å¢Å¢Å¢Å¢Å¢Å¢Å¢Å¢Å¢Å¢Å¢Å¢Å¢Å¢Å¢Å¢Å¢Å¢Å¢Å¢Å¢Å¢Å¢Å¢Å¢Å¢Å¢Å¢Å¢Å¢Å¢Å¢Å¢Å¢Å¢Å¢Å¢Å¢Å¢Å¢Å¢Å¢Å¢Å¢Å¢Å¢Å¢Å¢Å¢Å¢Å¢Å¢Å¢Å¢Å¢Å¢Å¢Å¢Å¢Å¢Å¢Å¢Å¢Å¢Å¢Å¢Å¢Å¢Å¢Å¢Å¢Å¢Å¢Å¢Å¢Å¢Å¢Å¢Å¢Å¢Å¢Å¢Å¢Å¢Å¢Å¢Å¢Å¢Å¢Å¢Å¢Å¢Å¢Å¢Å¢Å¢Å¢Å¢Å¢Å¢Å¢Å¢Å¢Å¢Å¢Å¢Å¢Å¢Å¢Å¢Å¢Å¢Å¢Å¢Å¢Å¢Å¢Å¢Å¢Å¢Å¢Å¢Å¢Å¢Å¢Å¢Å¢Å¢Å¢Å¢Å¢Å¢Å¢Å¢Å¢Å¢Å¢Å¢Å¢Å¢Å¢Å¢Å¢Å¢Å¢Å¢Å¢Å¢Å¢Å¢Å¢Å¢Å¢Å¢Å¢Å¢Å¢Å¢Å¢Å¢Å¢Å¢Å¢Å¢Å¢Å¢Å¢Å¢Å¢Å¢Å¢Å¢Å¢Å¢Å¢Å¢Å¢Å¢Å¢Å¢Å¢Å¢Å¢Å¢Å¢Å¢Å¢Å¢Å¢Å¢Å¢Å¢Å¢Å¢Å¢Å¢Å¢Å¢Å¢Å¢Å¢Å¢Å¢Å¢Å¢Å¢Å¢Å¢Å¢Å¢Å¢Å¢Å¢Å¢Å¢Å¢Å¢Å¢Å¢Å¢Å¢Å¢Å¢Å¢Å¢Å¢Å¢Å¢Å¢Å¢Å¢Å¢Å¢Å¢Å¢Å¢Å¢Å¢Å¢Å¢Å¢Å¢Å¢Å¢Å¢Å¢Å¢Å¢Å¢Å¢Å¢Å¢Å¢Å¢Å¢Å¢Å¢Å¢Å¢Å¢Å¢Å¢Å¢Å¢Å¢Å¢Å¢Å¢Å¢Å¢Å¢Å¢Å¢Å¢Å¢Å¢Å¢Å¢Å¢Å¢Å¢Å¢Å¢Å¢Å¢Å¢Å¢Å¢Å¢Å¢Å¢Å¢Å¢Å¢Å¢Å¢Å¢Å¢Å¢Å¢Å¢Å¢Å¢Å¢Å¢Å¢Å¢Å¢Å¢Å¢Å¢": 631,
      "Å¢Å¢Å¢Å¢Å¢Å¢Å¢Å¢Å¢Å¢Å¢Å¢Å¢Å¢Å¢Å¢Å¢Å¢Å¢Å¢Å¢Å¢Å¢Å¢Å¢Å¢Å¢Å¢Å¢Å¡Å¢Å¡": 632,
      "Å¢Å¢Å¢Å¢Å¢Å¢Å¢Å¢Å¢Å¢Å¢Å¢Å¢Å¢Å¢Å¢Å¢Å¢Å¢Å¢Å¢Å¢Å¢Å¢Å¢Å¢Åł": 633,
      "Å¢Å¢Å¢Å¢Å¢Å¢Å¢Å¢Å¢Å¢Å¢Å¢Å¢Å¢Å¢Å¢Å¢Å¢Å¢Å¢Å¢Å¢Å¢Å¢Å¢Å¢Å¢Å¢Å¢Å¢Å¢Å¢Å¢Å¢Å¢Å¢Å¢Å¢Å¢Å¢Å¢Å¢Å¢Å¢Å¢Å¢Å¢Å¢Å¢Å¢Å¢Å¢Å¢Å¢Å¢Å¢Å¢Å¢Å¢Å¢Å¢Å¢Å¢Å¢Å¢Å¢Å¢Å¢Å¢Å¢Å¢Å¢Å¢Å¢Å¢Å¢Å¢Å¢Å¢Å¢Å¢Å¢Å¢Å¢Å¢Å¢Å¢Å¢Å¢Å¢Å¢Å¢Å¢Å¢Å¢Å¢Å¢Å¢Å¢Å¢Å¢Å¢Å¢Å¢Å¢Å¢Å¢Å¢Å¢Å¢Å¢Å¢Å¢Å¢Å¢Å¢Å¢Å¢Å¢Å¢Å¢Å¢Å¢Å¢Å¢Å¢Å¢Å¢Å¢Å¢Å¢Å¢Å¢Å¢Å¢Å¢Å¢Å¢Å¢Å¢Å¢Å¢Å¢Å¢Å¢Å¢Å¢Å¢Å¢Å¢Å¢Å¢Å¢Å¢Å¢Å¢Å¢Å¢Å¢Å¢Å¢Å¢Å¢Å¢Å¢Å¢Å¢Å¢Å¢Å¢Å¢Å¢Å¢Å¢Å¢Å¢Å¢Å¢Å¢Å¢Å¢Å¢Å¢Å¢Å¢Å¢Å¢Å¢Å¢Å¢Å¢Å¢Å¢Å¢Å¢Å¢Å¢Å¢Å¢Å¢Å¢Å¢Å¢Å¢Å¢Å¢Å¢Å¢Å¢Å¢Å¢Å¢Å¢Å¢Å¢Å¢Å¢Å¢Å¢Å¢Å¢Å¢Å¢Å¢Å¢Å¢Å¢Å¢Å¢Å¢Å¢Å¢Å¢Å¢Å¢Å¢Å¢Å¢Å¢Å¢Å¢Å¢Å¢Å¢Å¢Å¢Å¢Å¢Å¢Å¢Å¢Å¢Å¢Å¢Å¢Å¢Å¢Å¢Å¢Å¢Å¢Å¢Å¢Å¢Å¢Å¢Å¢Å¢Å¢Å¢Å¢Å¢Å¢Å¢Å¢Å¢Å¢Å¢Å¢Å¢Å¢Å¢Å¢Å¢Å¢Å¢Å¢Å¢Å¢Å¢Å¢Å¢Å¢Å¢Å¢Å¢Å¢Å¢Å¢Å¢Å¢Å¢Å¢Å¢Å¢Å¢Å¢Å¢Å¢Å¢Å¢Å¢Å¢Å¢Å¢Å¢Å¢Å¢Å¢Å¢Å¢Å¢Å¢Å¢Å¢Å¢Å¢Å¢Å¢Å¢Å¢Å¢Å¢Å¢Å¢Å¢Å¢Å¢Å¢Å¢Å¢Å¢Å¢Å¢Å¢Å¢Å¢Å¢Å¢Å¢Å¢Å¢Å¢Å¢Å¢Å¢Å¢Å¢Å¢Å¢Å¢Å¢Å¢Å¢Å¢Å¢Å¢Å¢Å¢Å¢Å¢Å¢Å¢Å¢Å¢Å¢Å¢Å¢Å¢Å¢Å¢Å¢Å¢Å¢Å¢Å¢Å¢Å¢Å¢Å¢Å¢Å¢Å¢Å¢Å¢Å¢Å¢Å¢Å¢Å¢Å¢Å¢Å¢Å¢Å¢Å¢Å¢Å¢Å¢Å¢Å¢Å¢Å¢Å¢Å¢Å¢Å¢Å¢Å¢Å¢Å¢Å¢Å¢Å¢Å¢Å¢Å¢Å¢Å¢Å¢Å¢Å¢Å¢Å¢Å¢Å¢Å¢Å¢Å¢Å¢Å¢Å¢Å¢Å¢Å¢Å¢Å¢Å¢Å¢Å¢Å¢Å¢Å¢Å¢Å¢Å¢Å¢Å¢Å¢Å¢Å¢Å¢Å¢Å¢Å¢Å¢Å¢Å¢Å¢Å¢Å¢Å¢Å¢Å¢Å¢Å¢Å¢Å¢Å¢Å¢Å¢Å¢Å¢Å¢Å¢Å¢Å¢Å¢Å¢Å¢Å¢Å¢Å¢Å¢Å¢Å¢Å¢Å¢Å¢Å¢Å¢Å¢Å¢Å¢Å¢Å¢Å¢Å¢Å¢Å¢Å¢Å¢Å¢Å¢Å¢Å¢Å¢Å¢Å¢Å¢Å¢Å¢Å¢Å¢Å¢Å¢Å¢Å¢Å¢Å¢Å¢Å¢Å¢Å¢Å¢Å¢Å¢Å¢Å¢Å¢Å¢Å¢Å¢Å¢Å¢Å¢Å¢Å¢Å¢Å¢Å¢Å¢Å¢Å¢Å¢Å¢Å¢Å¢Å¢Å¢Å¢Å¢Å¢Å¢Å¢Å¢Å¢Å¢Å¢Å¢Å¢Å¢Å¢Å¢Å¢Å¢Å¢Å¢Å¢Å¢Å¢Å¢Å¢Å¢Å¢Å¢Å¢Å¢Å¢Å¢Å¢Å¢Å¢Å¢Å¢Å¢Å¢Å¢Å¢Å¢Å¢Å¢Å¢Å¢Å¢Å¢Å¢Å¢Å¢Å¢Å¢Å¢Å¢Å¢Å¢Å¢Å¢Å¢Å¢Å¢Å¢Å¢Å¢Å¢Å¢Å¢Å¢Å¢Å¢Å¢Å¢Å¢Å¢Å¢Å¢Å¢Å¢Å¢Å¢Å¢Å¢Å¢Å¢Å¢Å¢Å¢Å¢Å¢Å¢Å¢Å¢Å¢Å¢Å¢Å¢Å¢Å¢Å¢Å¢Å¢Å¢Å¢Å¢Å¢Å¢Å¢Å¢Å¢Å¢Å¢Å¢Å¢Å¢Å¢Å¢Å¢Å¢Å¢Å¢Å¢Å¢Å¢Å¢Å¢Å¢Å¢Å¢Å¢Å¢Å¢Å¢Å¢Å¢Å¢Å¢Å¢Å¢Å¢Å¢Å¢Å¢Å¢Å¢Å¢Å¢Å¢Å¢Å¢Å¢Å¢Å¢Å¢Å¢Å¢Å¢Å¢Å¢Å¢Å¢Å¢Å¢Å¢Å¢Å¢Å¢Å¢Å¢Å¢Å¢Å¢Å¢Å¢Å¢Å¢Å¢Å¢Å¢Å¢Å¢Å¢Å¢Å¢Å¢Å¢Å¢Å¢Å¢Å¢Å¢Å¢Å¢Å¢Å¢Å¢Å¢Å¢Å¢Å¢Å¢Å¢Å¢Å¢Å¢Å¢Å¢Å¢Å¢Å¢Å¢Å¢Å¢Å¢Å¢Å¢Å¢Å¢Å¢Å¢Å¢Å¢Å¢Å¢Å¢Å¢Å¢Å¢Å¢Å¢Å¢Å¢Å¢Å¢Å¢Å¢Å¢Å¢Å¢Å¢Å¢Å¢Å¢Å¢Å¢Å¢Å¢Å¢Å¢Å¢Å¢Å¢Å¢Å¢Å¢Å¢Å¢Å¢Å¢Å¢Å¢Å¢Å¢Å¢Å¢Å¢Å¢Å¢Å¢Å¢Å¢Å¢Å¢Å¢Å¢Å¢Å¢Å¢Å¢Å¢Å¢Å¢Å¢Å¢Å¢Å¢Å¢Å¢Å¢Å¢Å¢Å¢Å¢Å¢Å¢Å¢Å¢Å¢Å¢Å¢Å¢Å¢Å¢Å¢Å¢Å¢Å¢Å¢Å¢Å¢Å¢Å¢Å¢Å¢Å¢Å¢Å¢Å¢Å¢Å¢Å¢Å¢Å¢Å¢Å¢Å¢Å¢Å¢Å¢Å¢Å¢Å¢Å¢Å¢Å¢Å¢Å¢Å¢Å¢Å¢Å¢Å¢Å¢Å¢Å¢Å¢Å¢Å¢Å¢Å¢Å¢Å¢Å¢Å¢Å¢Å¢Å¢Å¢Å¢Å¢Å¢Å¢Å¢Å¢Å¢Å¢Å¢Å¢Å¢Å¢Å¢Å¢Å¢Å¢Å¢Å¢Å¢Å¢Å¢Å¢Å¢Å¢Å¢Å¢Å¢Å¢Å¢Å¢Å¢Å¢Å¢Å¢Å¢Å¢Å¢Å¢Å¢Å¢Å¢Å¢Å¢Å¢Å¢Å¢Å¢Å¢Å¢Å¢Å¢Å¢Å¢Å¢Å¢Å¢Å¢Å¢Å¢Å¢Å¢Å¢Å¢Å¢Å¢Å¢Å¢Å¢Å¢Å¢Å¢Å¢Å¢Å¢Å¢Å¢Å¢Å¢Å¢Å¢Å¢Å¢Å¢Å¢Å¢Å¢Å¢Å¢Å¢Å¢Å¢Å¢Å¢Å¢Å¢Å¢Å¢Å¢Å¢Å¢Å¢Å¢Å¢Å¢Å¢Å¢Å¢Å¢Å¢Å¢Å¢Å¢Å¢Å¢Å¢Å¢Å¢Å¢Å¢Å¢Å¢Å¢Å¢Å¢Å¢Å¢Å¢Å¢Å¢Å¢Å¢Å¢Å¢Å¢Å¢Å¢Å¢Å¢Å¢Å¢Å¢Å¢Å¢Å¢Å¢Å¢Å¢Å¢Å¢Å¢Å¢Å¢Å¢Å¢Å¢Å¢Å¢Å¢Å¢Å¢Å¢Å¢Å¢Å¢Å¢Å¢Å¢Å¢Å¢Å¢Å¢Å¢": 634,
      "Æ©": 635,
      "Å¢Å¢Å¢Å¢Å¡Å£": 636,
      "Å¨Å£": 637,
      "Å¢Å¢Å¢Å¢Å¢Å¢Å¢Å¢Å¢Å¢Å¢Å¢Å¢Å¢Å¢Å¢Å¢Å¢Å¢Åł": 638,
      "ÅĿÅ¤": 639,
      "Å¢Å¢Å¢Å¢Å¢Å¢Å¢Å¢Å¢Å¢Å¢Å¢Å¢Å¢Å¢Å¢Å¢Å¢Å¢Å¢Å¢Å¢Å¢Å¢Å¢Å¢Å¤": 640,
      "Å¦Å¥": 641,
      "ÅľÅ£": 642,
      "Å¢Å¢Å¢Å¢Å¢Å¢Å¢Å¢Å¢Å¢Å¢Å¢Å¢Å¢Å¢Å¢Å¢Å¢Å¢Å¢Å¢Å¢Å¢Å¢Å¢Å¢Å¢Å¢Å¢Å¢Å¢Å¢Å¢Å¢Å¢Å¢Å¢Å¢Å¢Å¢Å¢Å¢Å¢Å¢Å¢Å¢Å¢Å¢Å¢Å¢Å¢Å¢Å¢Å¢Å¢Å¢Å¢Å¢Å¢Å¢Å¢Å¢Å¢Å¢Å¢Å¢Å¢Å¢Å¢Å¢Å¢Å¢Å¢Å¢Å¢Å¢Å¢Å¢Å¢Å¢Å¢Å¢Å¢Å¢Å¢Å¢Å¢Å¢Å¢Å¢Å¢Å¢Å¢Å¢Å¢Å¢Å¢Å¢Å¢Å¢Å¢Å¢Å¢Å¢Å¢Å¢Å¢Å¢Å¢Å¢Å¢Å¢Å¢Å¢Å¢Å¢Å¢Å¢Å¢Å¢Å¢Å¢Å¢Å¢Å¢Å¢Å¢Å¢Å¢Å¢Å¢Å¢Å¢Å¢Å¢Å¢Å¢Å¢Å¢Å¢Å¢Å¢Å¢Å¢Å¢Å¢Å¢Å¢Å¢Å¢Å¢Å¢Å¢Å¢Å¢Å¢Å¢Å¢Å¢Å¢Å¢Å¢Å¢Å¢Å¢Å¢Å¢Å¢Å¢Å¢Å¢Å¢Å¢Å¢Å¢Å¢Å¢Å¢Å¢Å¢Å¢Å¢Å¢Å¢Å¢Å¢Å¢Å¢Å¢Å¢Å¢Å¢Å¢Å¢Å¢Å¢Å¢Å¢Å¢Å¢Å¢Å¢Å¢Å¢Å¢Å¢Å¢Å¢Å¢Å¢Å¢Å¢Å¢Å¢Å¢Å¢Å¢Å¢Å¢Å¢Å¢Å¢Å¢Å¢Å¢Å¢Å¢Å¢Å¢Å¢Å¢Å¢Å¢Å¢Å¢Å¢Å¢Å¢Å¢Å¢Å¢Å¢Å¢Å¢Å¢Å¢Å¢Å¢Å¢Å¢Å¢Å¢Å¢Å¢Å¢Å¢Å¢Å¢Å¢Å¢Å¢Å¢Å¢Å¢Å¢Å¢Å¢Å¢Å¢Å¢Å¢Å¢Å¢Å¢Å¢Å¢Å¢Å¢Å¢Å¢Å¢Å¢Å¢Å¢Å¢Å¢Å¢Å¢Å¢Å¢Å¢Å¢Å¢Å¢Å¢Å¢Å¢Å¢Å¢Å¢Å¢Å¢Å¢Å¢Å¢Å¢Å¢Å¢Å¢Å¢Å¢Å¢Å¢Å¢Å¢Å¢Å¢Å¢Å¢Å¢Å¢Å¢Å¢Å¢Å¢Å¢Å¢Å¢Å¢Å¢Å¢Å¢Å¢Å¢Å¢Å¢Å¢Å¢Å¢Å¢Å¢Å¢Å¢Å¢Å¢Å¢Å¢Å¢Å¢Å¢Å¢Å¢Å¢Å¢Å¢Å¢Å¢Å¢Å¢Å¢Å¢Å¢Å¢Å¢Å¢Å¢Å¢Å¢Å¢Å¢Å¢Å¢Å¢Å¢Å¢Å¢Å¢Å¢Å¢Å¢Å¢Å¢Å¢Å¢Å¢Å¢Å¢Å¢Å¢Å¢Å¢Å¢Å¢Å¢Å¢Å¢Å¢Å¢Å¢Å¢Å¢Å¢Å¢Å¢Å¢Å¢Å¢Å¢Å¢Å¢Å¢Å¢Å¢Å¢Å¢Å¢Å¢Å¢Å¢Å¢Å¢Å¢Å¢Å¢Å¢Å¢Å¢Å¢Å¢Å¢Å¢Å¢Å¢Å¢Å¢Å¢Å¢Å¢Å¢Å¢Å¢Å¢Å¢Å¢Å¢Å¢Å¢Å¢Å¢Å¢Å¢Å¢Å¢Å¢Å¢Å¢Å¢Å¢Å¢Å¢Å¢Å¢Å¢Å¢Å¢Å¢Å¢Å¢Å¢Å¢Å¢Å¢Å¢Å¢Å¢Å¢Å¢Å¢Å¢Å¢Å¢Å¢Å¢Å¢Å¢Å¢Å¢Å¢Å¢Å¢Å¢Å¢Å¢Å¢Å¢Å¢Å¢Å¢Å¢Å¢Å¢Å¢Å¢Å¢Å¢Å¢Å¢Å¢Å¢Å¢Å¢Å¢Å¢Å¢Å¢Å¢Å¢Å¢Å¢Å¢Å¢Å¢Å¢Å¢Å¢Å¢Å¢Å¢Å¢Å¢Å¢Å¢Å¢Å¢Å¢Å¢Å¢Å¢Å¢Å¢Å¢Å¢Å¢Å¢Å¢Å¢Å¢Å¢Å¢Å¢Å¢Å¢Å¢Å¢Å¢Å¢Å¢Å¢Å¢Å¢Å¢Å¢Å¢Å¢Å¢Å¢Å¢Å¢Å¢Å¢Å¢Å¢Å¢Å¢Å¢Å¢Å¢Å¢Å¢Å¢Å¢Å¢Å¢Å¢Å¢Å¢Å¢Å¢Å¢Å¢Å¢Å¢Å¢Å¢Å¢Å¢Å¢Å¢Å¢Å¢Å¢Å¢Å¢Å¢Å¢Å¢Å¢Å¢Å¢Å¢Å¢Å¢Å¢Å¢Å¢Å¢Å¢Å¢Å¢Å¢Å¢Å¢Å¢Å¢Å¢Å¢Å¢Å¢Å¢Å¢Å¢Å¢Å¢Å¢Å¢Å¢Å¢Å¢Å¢Å¢Å¢Å¢Å¢Å¢Å¢Å¢Å¢Å¢Å¢Å¢Å¢Å¢Å¢Å¢Å¢Å¢Å¢Å¢Å¢Å¢Å¢Å¢Å¢Å¢Å¢Å¢Å¢Å¢Å¢Å¢Å¢Å¢Å¢Å¢Å¢Å¢Å¢Å¢Å¢Å¢Å¢Å¢Å¢Å¢Å¢Å¢Å¢Å¢Å¢Å¢Å¢Å¢Å¢Å¢Å¢Å¢Å¢Å¢Å¢Å¢Å¢Å¢Å¢Å¢Å¢Å¢Å¢Å¢Å¢Å¢Å¢Å¢Å¢Å¢Å¢Å¢Å¢Å¢Å¢Å¢Å¢Å¢Å¢Å¢Å¢Å¢Å¢Å¢Å¢Å¢Å¢Å¢Å¢Å¢Å¢Å¢Å¢Å¢Å¢Å¢Å¢Å¢Å¢Å¢Å¢Å¢Å¢Å¢Å¢Å¢Å¢Å¢Å¢Å¢Å¢Å¢Å¢Å¢Å¢Å¢Å¢Å¢Å¢Å¢Å¢Å¢Å¢Å¢Å¢Å¢Å¢Å¢Å¢Å¢Å¢Å¢Å¢Å¢Å¢Å¢Å¢Å¢Å¢Å¢Å¢Å¢Å¢Å¢Å¢Å¢Å¢Å¢Å¢Å¢Å¢Å¢Å¢Å¢Å¢Å¢Å¢Å¢Å¢Å¢Å¢Å¢Å¢Å¢Å¢Å¢Å¢Å¢Å¢Å¢Å¢Å¢Å¢Å¢Å¢Å¢Å¢Å¢Å¢Å¢Å¢Å¢Å¢Å¢Å¢Å¢Å¢Å¢Å¢Å¢Å¢Å¢Å¢Å¢Å¢Å¢Å¢Å¢Å¢Å¢Å¢Å¢Å¢Å¢Å¢Å¢Å¢Å¢Å¢Å¢Å¢Å¢Å¢Å¢Å¢Å¢Å¢Å¢Å¢Å¢Å¢Å¢Å¢Å¢Å¢Å¢Å¢Å¢Å¢Å¢Å¢Å¢Å¢Å¢Å¢Å¢Å¢Å¢Å¢Å¢Å¢Å¢Å¢Å¢Å¢Å¢Å¢Å¢Å¢Å¢Å¢Å¢Å¢Å¢Å¢Å¢Å¢Å¢Å¢Å¢Å¢Å¢Å¢Å¢Å¢Å¢Å¢Å¢Å¢Å¢Å¢Å¢Å¢Å¢Å¢Å¢Å¢Å¢Å¢Å¢Å¢Å¢Å¢Å¢Å¢Å¢Å¢Å¢Å¢Å¢Å¢Å¢Å¢Å¢Å¢Å¢Å¢Å¢Å¢Å¢Å¢Å¢Å¢Å¢Å¢Å¢Å¢Å¢Å¢Å¢Å¢Å¢Å¢Å¢Å¢Å¢Å¢Å¢Å¢Å¢Å¢Å¢Å¢Å¢Å¢Å¢Å¢Å¢Å¢Å¢Å¢Å¢Å¢Å¢Å¢Å¢Å¢Å¢Å¢Å¢Å¢Å¢Å¢Å¢Å¢Å¢Å¢Å¢Å¢Å¢Å¢Å¢Å¢Å¢Å¢Å¢Å¢Å¢Å¢Å¢Å¢Å¢Å¢Å¢Å¢Å¢Å¢Å¢Å¢Å¢Å¢Å¢Å¢Å¢Å¢Å¢Å¢Å¢Å¢Å¢Å¢Å¢Å¢Å¢Å¢Å¢Å¢Å¢Å¢Å¢Å¢Å¢Å¢Å¢Å¢Å¢Å¢Å¢Å¢Å¢Å¢Å¢Å¢Å¢Å¢Å¢Å¢Å¢Å¢Å¢Å¢Å¢Å¢Å¢Å¢Å¢Å¢Å¢Å¢Å¢Å¢Å¢Å¢Å¢Å¢Å¢Å¢Å¢Å¢Å¢Å¢Å¢Å¢Å¢Å¢Å¢Å¢Å¢Å¢Å¢Å¢Å¢Å¢Å¢Å¢Å¢Å¢Å¢Å¢Å¢Å¢Å¢Å¢Å¢Å¢Å¢Å¢Å¢Å¢Å¢Å¢Å¢Å¢Å¢Å¢Å¢Å¢Å¢Å¢Å¢Å¢Å¢Å¢Å¢Å¢Å¢Å¢Å¢Å¢Å¢Å¢Å¢Å¢Å¢Å¢Å¢Å¢Å¢Å¢Å¢Å¢Å¢Å¢Å¢Å¢Å¢Å¢Å¢Å¢Å¢Å¢Å¢Å¢Å¢Å¢Å¢Å¢Å¢Å¢Å¢Å¢Å¢Å¢Å¢Å¢Å¢Å¢Å¢Å¢Å¢Å¢Å¢Å¢Å¢Å¢Å¢Å¢Å¢Å¢Å¢Å¢Å¢Å¢Å¢Å¢Å¢Å¢Å¢Å¢Å¢Å¢Å¢Å¢Å¢Å¢Å¢Å¢Å¢Å¢Å¢Å¢Å¢Å¢Å¢Å¢Å¢Å¢Å¢Å¢Å¢Å¢Å¢Å¢Å¢Å¢Å¢Å¢Å¢Å¢Å¢Å¢Å¢Å¢Å¢Å¢Å¢Å¢Å¢Å¢Å¢Å¢Å¢Å¢Å¢Å¢Å¢Å¢Å¢Å¢Å¢Å¢Å¢Å¢Å¢Å¢Å¢Å¢Å¢Å¢Å¢Å¢Å¢Å¢Å¢": 643,
      "Å¢Å¢Å¢Å¢Å¢Å¢Å¢Å¢Å¢Å¢Å¢Å¢Å¢Å¢Å¢Å¢Å¢Å¢Å¢Å¢Å¢Å¢Å¢Å¢Å¢Å¢Å¢Å¢Å¢Å¢Å¢Å£Å¢Å¢Å¢Å¢Å¢Å¢Å¢Å¢Å¢Å¢Å¢Å¢Å¢Å¢Å¢Å¢Å¢Å¢Å¢Å¢Å¢Å¢Å¢Å¢Å¢Å¢Å¢Å¢Å¢Å¢Å¢Å¡Å¢Å¢Å¢Å¢Å¢Å¢Å¢Å¢Å¢Å¢Å¢Å¢Å¢Å¢Å¢Å¢Å¢Å¢Å¢Å¢Å¢Å¢Å¢Å¢Å¢Å¢Å¢Å¢Å¢Å¢Å¢Å£Å¢Å¢Å¢Å¢Å¢Å¢Å¢Å¢Å¢Å¢Å¢Å¢Å¢Å¢Å¢Å¢Å¢Å¢Å¢Å¢Å¢Å¢Å¢Å¢Å¢Å¢Å¢Å¢Å¢Å¢Å¢Å¡": 644,
      "Å¢Å¢Å¢Å¢Å¢Å¢Å¢Å¢Å¢Å¢Å¢Å¢Å¢Å¢Å¢Å¢Å¢Å¢Å¢Å¤": 645,
      "Å¢Å¢Å¢Å¢Å¢Å¢Å¢Å¢Å¢Å¢Å¢Å¢Å¢Å¢Å¢Å¢Å¢Å¢Å¢Å¢Å¢Å¢Å¢Å¢Å¢Å¢Å¢Å¢Å¢Å¢Å¢Å¢Å¢Å¢Å¢Å¢Å¢Å¢Å¢Å¢Å¢Å¢Å¢Å¢Å¢Å¢Å¢Å¢Å¢Å¢Å¢Å¢Å¢Å¢Å¢Å¢Å¢Å¢Å¢Å¢Å¢Å¢Å¢Å¢Å¢Å¢Å¢Å¢Å¢Å¢Å¢Å¢Å¢Å¢Å¢Å¢Å¢Å¢Å¢Å¢Å¢Å¢Å¢Å¢Å¢Å¢Å¢Å¢Å¢Å¢Å¢Å¢Å¢Å¢Å¢Å¢Å¢Å¢Å¢Å¢Å¢Å¢Å¢Å¢Å¢Å¢Å¢Å¢Å¢Å¢Å¢Å¢Å¢Å¢Å¢Å¢Å¢Å¢Å¢Å¢Å¢Å¢Å¢Å¢Å¢Å¢Å¢Å¢Å¢Å¢Å¢Å¢Å¢Å¢Å¢Å¢Å¢Å¢Å¢Å¢Å¢Å¢Å¢Å¢Å¢Å¢Å¢Å¢Å¢Å¢Å¢Å¢Å¢Å¢Å¢Å¢Å¢Å¢Å¢Å¢Å¢Å¢Å¢Å¢Å¢Å¢Å¢Å¢Å¢Å¢Å¢Å¢Å¢Å¢Å¢Å¢Å¢Å¢Å¢Å¢Å¢Å¢Å¢Å¢Å¢Å¢Å¢Å¢Å¢Å¢Å¢Å¢Å¢Å¢Å¢Å¢Å¢Å¢Å¢Å¢Å¢Å¢Å¢Å¢Å¢Å¢Å¢Å¢Å¢Å¢Å¢Å¢Å¢Å¢Å¢Å¢Å¢Å¢Å¢Å¢Å¢Å¢Å¢Å¢Å¢Å¢Å¢Å¢Å¢Å¢Å¢Å¢Å¢Å¢Å¢Å¢Å¢Å¢Å¢Å¢Å¢Å¢Å¢Å¢Å¢Å¢Å¢Å¢Å¢Å¢Å¢Å¢Å¢Å¢Å¢Å¢Å¢Å¢Å¢Å¢Å¢Å¢Å¢Å¢Å¢Å¢Å¢Å¢Å¢Å¢Å¢Å¢Å¢Å¢Å¢Å¢Å¢Å¢Å¢Å¢Å¢Å¢Å¢Å¢Å¢Å¢Å¢Å¢Å¢Å¢Å¢Å¢Å¢Å¢Å¢Å¢Å¢Å¢Å¢Å¢Å¢Å¢Å¢Å¢Å¢Å¢Å¢Å¢Å¢Å¢Å¢Å¢Å¢Å¢Å¢Å¢Å¢Å¢Å¢Å¢Å¢Å¢Å¢Å¢Å¢Å¢Å¢Å¢Å¢Å¢Å¢Å¢Å¢Å¢Å¢Å¢Å¢Å¢Å¢Å¢Å¢Å¢Å¢Å¢Å¢Å¢Å¢Å¢Å¢Å¢Å¢Å¢Å¢Å¢Å¢Å¢Å¢Å¢Å¢Å¢Å¢Å¢Å¢Å¢Å¢Å¢Å¢Å¢Å¢Å¢Å¢Å¢Å¢Å¢Å¢Å¢Å¢Å¢Å¢Å¢Å¢Å¢Å¢Å¢Å¢Å¢Å¢Å¢Å¢Å¢Å¢Å¢Å¢Å¢Å¢Å¢Å¢Å¢Å¢Å¢Å¢Å¢Å¢Å¢Å¢Å¢Å¢Å¢Å¢Å¢Å¢Å¢Å¢Å¢Å¢Å¢Å¢Å¢Å¢Å¢Å¢Å¢Å¢Å¢Å¢Å¢Å¢Å¢Å¢Å¢Å¢Å¢Å¢Å¢Å¢Å¢Å¢Å¢Å¢Å¢Å¢Å¢Å¢Å¢Å¢Å¢Å¢Å¢Å¢Å¢Å¢Å¢Å¢Å¢Å¢Å¢Å¢Å¢Å¢Å¢Å¢Å¢Å¢Å¢Å¢Å¢Å¢Å¢Å¢Å¢Å¢Å¢Å¢Å¢Å¢Å¢Å¢Å¢Å¢Å¢Å¢Å¢Å¢Å¢Å¢Å¢Å¢Å¢Å¢Å¢Å¢Å¢Å¢Å¢Å¢Å¢Å¢Å¢Å¢Å¢Å¢Å¢Å¢Å¢Å¢Å¢Å¢Å¢Å¢Å¢Å¢Å¢Å¢Å¢Å¢Å¢Å¢Å¢Å¢Å¢Å¢Å¢Å¢Å¢Å¢Å¢Å¢Å¢Å¢Å¢Å¢Å¢Å¢Å¢Å¢Å¢Å¢Å¢Å¢Å¢Å¢Å¢Å¢Å¢Å¢Å¢Å¢Å¢Å¢Å¢Å¢Å¢Å¢Å¢Å¢Å¢Å¢Å¢Å¢Å¢Å¢Å¢Å¢Å¢Å¢Å¢Å¢Å¢Å¢Å¢Å¢Å¢Å¢Å¢Å¢Å¢Å¢Å¢Å¢Å¢Å¢Å¢Å¢Å¢Å¢Å¢Å¢Å¢Å¢Å¢Å¢Å¢Å¢Å¢Å¢Å¢Å¢Å¢Å¢Å¢Å¢Å¢Å¢Å¢Å¢Å¢Å¢Å¢Å¢Å¢Å¢Å¢Å¢Å¢Å¢Å¢Å¢Å¢Å¢Å¢Å¢Å¢Å¢Å¢Å¢Å¢Å¢Å¢Å¢Å¢Å¢Å¢Å¢Å¢Å¢Å¢Å¢Å¢Å¢Å¢Å¢Å¢Å¢Å¢Å¢Å¢Å¢Å¢Å¢Å¢Å¢Å¢Å¢Å¢Å¢Å¢Å¢Å¢Å¢Å¢Å¢Å¢Å¢Å¢Å¢Å¢Å¢Å¢Å¢Å¢Å¢Å¢Å¢Å¢Å¢Å¢Å¢Å¢Å¢Å¢Å¢Å¢Å¢Å¢Å¢Å¢Å¢Å¢Å¢Å¢Å¢Å¢Å¢Å¢Å¢Å¢Å¢Å¢Å¢Å¢Å¢Å¢Å¢Å¢Å¢Å¢Å¢Å¢Å¢Å¢Å¢Å¢Å¢Å¢Å¢Å¢Å¢Å¢Å¢Å¢Å¢Å¢Å¢Å¢Å¢Å¢Å¢Å¢Å¢Å¢Å¢Å¢Å¢Å¢Å¢Å¢Å¢Å¢Å¢Å¢Å¢Å¢Å¢Å¢Å¢Å¢Å¢Å¢Å¢Å¢Å¢Å¢Å¢Å¢Å¢Å¢Å¢Å¢Å¢Å¢Å¢Å¢Å¢Å¢Å¢Å¢Å¢Å¢Å¢Å¢Å¢Å¢Å¢Å¢Å¢Å¢Å¢Å¢Å¢Å¢Å¢Å¢Å¢Å¢Å¢Å¢Å¢Å¢Å¢Å¢Å¢Å¢Å¢Å¢Å¢Å¢Å¢Å¢Å¢Å¢Å¢Å¢Å¢Å¢Å¢Å¢Å¢Å¢Å¢Å¢Å¢Å¢Å¢Å¢Å¢Å¢Å¢Å¢Å¢Å¢Å¢Å¢Å¢Å¢Å¢Å¢Å¢Å¢Å¢Å¢Å¢Å¢Å¢Å¢Å¢Å¢Å¢Å¢Å¢Å¢Å¢Å¢Å¢Å¢Å¢Å¢Å¢Å¢Å¢Å¢Å¢Å¢Å¢Å¢Å¢Å¢Å¢Å¢Å¢Å¢Å¢Å¢Å¢Å¢Å¢Å¢Å¢Å¢Å¢Å¢Å¢Å¢Å¢Å¢Å¢Å¢Å¢Å¢Å¢Å¢Å¢Å¢Å¢Å¢Å¢Å¢Å¢Å¢Å¢Å¢Å¢Å¢Å¢Å¢Å¢Å¢Å¢Å¢Å¢Å¢Å¢Å¢Å¢Å¢Å¢Å¢Å¢Å¢Å¢Å¢Å¢Å¢Å¢Å¢Å¢Å¢Å¢Å¢Å¢Å¢Å¢Å¢Å¢Å¢Å¢Å¢Å¢Å¢Å¢Å¢Å¢Å¢Å¢Å¢Å¢Å¢Å¢Å¢Å¢Å¢Å¢Å¢Å¢Å¢Å¢Å¢Å¢Å¢Å¢Å¢Å¢Å¢Å¢Å¢Å¢Å¢Å¢Å¢Å¢Å¢Å¢Å¢Å¢Å¢Å¢Å¢Å¢Å¢Å¢Å¢Å¢Å¢Å¢Å¢Å¢Å¢Å¢Å¢Å¢Å¢Å¢Å¢Å¢Å¢Å¢Å¢Å¢Å¢Å¢Å¢Å¢Å¢Å¢Å¢Å¢Å¢Å¢Å¢Å¢Å¢Å¢Å¢Å¢Å¢Å¢Å¢Å¢Å¢Å¢Å¢Å¢Å¢Å¢Å¢Å¢Å¢Å¢Å¢Å¢Å¢Å¢Å¢Å¢Å¢Å¢Å¢Å¢Å¢Å¢Å¢Å¢Å¢Å¢Å¢Å¢Å¢Å¢Å¢Å¢Å¢Å¢Å¢Å¢Å¢Å¢Å¢Å¢Å¢Å¢Å¢Å¢Å¢Å¢Å¢Å¢Å¢Å¢Å¢Å¢Å¢Å¢Å¢Å¢Å¢Å¢Å¢Å¢Å¢Å¢Å¢Å¢Å¢Å¢Å¢Å¢Å¢Å¢Å¢Å¢Å¢Å¢Å¢Å¢Å¢Å¢Å¢Å¢Å¢Å¢Å¢Å¢Å¢Å¢Å¢Å¢Å¢Å¢Å¢Å¢Å¢Å¢Å¢Å¢Å¢Å¢Å¢Å¢Å¢Å¢Å¢Å¢Å¢Å¢Å¢Å¢Å¢Å¢Å¢Å¢Å¢Å¢Å¢Å¢Å¢Å¢Å¢Å¢Å¢Å¢Å¢Å¢Å¢Å¢Å¢Å¢Å¢Å¢Å¢Å¢Å¢Å¢Å¢Å¢Å¢Å¢Å¢Å¢Å¢Å¢Å¢Å¢Å¢Å¢Å¢Å¢Å¢Å¢Å¢Å¢Å¢Å¢Å¢Å¢Å¢Å¢Å¢Å¢Å¢Å¢Å¢Å¢Å¢Å¢Å¢Å¢Å¢Å¢Å¢Å¢Å¢Å¢Å¢Å¢Å¢Å¢Å¢Å¢Å¢Å¢Å¢Å¢Å¢Å¢Å¢Å¢Å¢Å¢Å¢Å¢Å¢Å¢Å¢Å¢Å¢Å¢Å¢Å¢Å¢Å¢Å¢Å¢Å¢Å¢Å¢Å¢Å¢": 646,
      "Å¢Å¢Å¢Å¢Å¢Å¢Å¢Å¢Å¢Å¢Å¢Å¢Å¢Å¢Å¢Å¢Å¢Å¢Å¢Å¢Å¢Å¢Å¢Å¢Å¢Å¢Å¢Å¢Å¢Å¢Å¢Å¡Å¢Å¢Å¢Å¢Å¢Å¢Å¢Å¢Å¢Å¢Å¢Å¢Å¢Å¢Å¢Å¢Å¢Å¢Å¢Å¢Å¢Å¢Å¢Å¢Å¢Å¢Å¢Å¢Å¢Å¢Å¢Å£": 647,
      "Å¢Å¢Å¢Å¢Å¢Å¢Å¢Å¢Å¢Å¢Å¢Å¢Å¢Å¢Å¢Å¢Å¢Å¢Å¢Å¢Å¢Å¢Å¢Å¢Å¢Å¢Å£Å¡": 648,
      "ÄĽ": 649,
      "Å¢Å¢Å¢Å¢Å£Å¡": 650,
      "ÅŀÅŁ": 651,
      "Å§Å¤": 652,
      "Æª": 653,
      "Å¢Å¢Å¢Å¢Å¢Å¢Å¢Å¢Å¢Å¢Å¢Å¢Å¢Å¢Å¢Å¢Å¢Å¢Å¢Å¢Å¢Å¢Å¢Å¢Å¢Å¢Å¢Å¢Å¢Å¢Å¢Å¢Å¢Å¢Å¢Å¢Å¢Å¢Å¢Å¢Å¢Å¢Å¢Å¢Å¢Å¢Å¢Å¢Å¢Å¢Å¢Å¢Å¢Å¢Å¢Å¢Å¢Å¢Å¢Å¢Å¢Å¢Å¢Å¢Å¢Å¢Å¢Å¢Å¢Å¢Å¢Å¢Å¢Å¢Å¢Å¢Å¢Å¢Å¢Å¢Å¢Å¢Å¢Å¢Å¢Å¢Å¢Å¢Å¢Å¢Å¢Å¢Å¢Å¢Å¢Å¢Å¢Å¢Å¢Å¢Å¢Å¢Å¢Å¢Å¢Å¢Å¢Å¢Å¢Å¢Å¢Å¢Å¢Å¢Å¢Å¢Å¢Å¢Å¢Å¢Å¢Å¢Å¢Å¢Å¢Å¢Å¢Å£": 654,
      "Æ«": 655,
      "ÄĻ": 656,
      "Å¡Å£Å¢Å£": 657,
      "ÄĹ": 658,
      "Å¡Å£Å¢Å¡": 659,
      "Æ¬": 660,
      "Å§Åł": 661,
      "Äĺ": 662,
      "Æ¹": 663,
      "Å¥Åŀ": 664,
      "Å¢Å¬": 665,
      "Å¢Åĺ": 666,
      "ÅŁÅ¦": 667,
      "Æ¯": 668,
      "Å¨Å¡": 669,
      "Å¡Å£Åł": 670,
      "Äİ": 671,
      "Äķ": 672,
      "ÅľÅ¡": 673,
      "ÅĿÅł": 674,
      "Æ±": 675,
      "Æ°": 676,
      "Å¢Å¢Å¢Å£Å£": 677,
      "ÆŃ": 678,
      "Å¢Å¢Å¦": 679,
      "Å¢Å¢Å¢Å¢Å¢Å¢Å¢Å¢Å¢Å¢Å¢Å¢Å¢Å¢Å¢Å¢Å¡": 680,
      "Å¡Å£Å¤": 681,
      "Å¢Å¢Åŀ": 682,
      "Æ®": 683,
      "Å¢Å¢Å¢Å¢Å¢Å¢Å¢Å¢Å¢Å¢Å¢Å¢Å¢Å¢Å¢Å¢Å¢Å¢Å¢Å¢Å¢Å¢Å¢Å¢Å¢Å¢Å¢Å¢Å¢Å¢Å¢ÅŁ": 684,
      "Å¢Å¢Å¢Å¢Å¢Å¢Å¢Å¢Å¢Å¢Å¢Å¢Å¢Å¢Å¢Å¢Å¢Å¢Å¢Å¢Å¢Å¢Å¢Å¢Å¢Å£Å£": 685,
      "Å¢Å¢Å¢Å¢Å¢Å¢Å¢Å¢Å¢Å¢Å¢Å¢Å¢Å¢Å¢Å¢Å¢Å¢Å¢Å¢Å¢Å¢Å¢Å¢Å¢Å¢Å¢Å¢Å¢Å¢Å¢Å¥": 686,
      "Å¢Å¢Å¢Å¢Å¢Å¢Å¢Å¢Å¢Å¢Å¢Å¢Å¢Å¢Å¢Å¢Å¢Å¢Å¢Å¢Å¢Å¢Å¢Å¢Å¢Å¢Å¢Å¡Å£": 687,
      "Å¢Å¡Å£Å£": 688,
      "Å¢Å¢Å¢Å¢Å¢Å¢Å¢Å¢Å¢Å¢Å¢Å¢Å¢Å¢Å¢Å¢Å¢Å¢Å¢": 689,
      "Å¢Å£Å¢Å¢Å¡": 690,
      "Å¢Å¢Å¢Å¢Å¢Å¢Å¢Å¢Å¢Å¢Å¢Å¢Å¢Å¢Å¢Å¢Å¢Å¢Å¢Å¢Å¢Å¢Åł": 691,
      "Å¢Å¢Å¢Å¢Å¢Å¢Å¢Å¢Å¢Å¢Å¢Å¢Å¢Å¢Å¢Å¢Å¢Å¢Å¢Å¢Å¢Å¢Å¤": 692,
      "Å¢Å¢Å¢Å¢Å¤": 693,
      "Å¢Å¢Å¢Å¢Å¢Å¢Å¢Å¢Å¢Å¢Å¢Å¢Å¢Å¢Å¢Å¢Å¢Å¢Å¢Å¢Å¢Å¢Å¢Å¢Å¢Å¢Å¢Å¢Å¢Å¢Å¢Å¢Å¢Å¢Å¢Å¢Å¢Å¢Å¢Å¢Å¢Å¢Å¢Å¢Å¢Å¢Å¢Å¢Å¢Å¢Å¢Å¢Å¢Å¢Å¢Å¢Å¢Å¢Å¢Å¢Å¢Å¢Å¢Å¢Å¢Å¢Å¢Å¢Å¢Å¢Å¢Å¢Å¢Å¢Å¢Å¢Å¢Å¢Å¢Å¢Å¢Å¢Å¢Å¢Å¢Å¢Å¢Å¢Å¢Å¢Å¢Å¢Å¢Å¢Å¢Å¢Å¢Å¢Å¢Å¢Å¢Å¢Å¢Å¢Å¢Å¢Å¢Å¢Å¢Å¢Å¢Å¢Å¢Å¢Å¢Å¢Å¢Å¢Å¢Å¢Å¢Å¢Å¢Å¢Å¢Å¢Å¢Å¢Å¢Å¢Å¢Å¢Å¢Å¢Å¢Å¢Å¢Å¢Å¢Å¢Å¢Å¢Å¢Å¢Å¢Å¢Å¢Å¢Å¢Å¢Å¢Å¢Å¢Å¢Å¢Å¢Å¢Å¢Å¢Å¢Å¢Å¢Å¢Å¢Å¢Å¢Å¢Å¢Å¢Å¢Å¢Å¢Å¢Å¢Å¢Å¢Å¢Å¢Å¢Å¢Å¢Å¢Å¢Å¢Å¢Å¢Å¢Å¢Å¢Å¢Å¢Å¢Å¢Å¢Å¢Å¢Å¢Å¢Å¢Å¢Å¢Å¢Å¢Å¢Å¢Å¢Å¢Å¢Å¢Å¢Å¢Å¢Å¢Å¢Å¢Å¢Å¢Å¢Å¢Å¢Å¢Å¢Å¢Å¢Å¢Å¢Å¢Å¢Å¢Å¢Å¢Å¢Å¢Å¢Å¢Å¢Å¢Å¢Å¢Å¢Å¢Å¢Å¢Å¢Å¢Å¢Å¢Å¢Å¢Å¢Å¢Å¢Å¢Å¢Å¢Å¢Å¢Å¢Å¢Å¢Å¢Å¢Å¢Å¢Å¢Å¢Å¢Å¢Å¢Å¢Å¢Å¢Å¢Å¢Å¢Å¢Å¢Å¢Å¢Å¢Å¢Å¢Å¢Å¢Å¢Å¢Å¢Å¢Å¢Å¢Å¢Å¢Å¢Å¢Å¢Å¢Å¢Å¢Å¢Å¢Å¢Å¢Å¢Å¢Å¢Å¢Å¢Å¢Å¢Å¢Å¢Å¢Å¢Å¢Å¢Å¢Å¢Å¢Å¢Å¢Å¢Å¢Å¢Å¢Å¢Å¢Å¢Å¢Å¢Å¢Å¢Å¢Å¢Å¢Å¢Å¢Å¢Å¢Å¢Å¢Å¢Å¢Å¢Å¢Å¢Å¢Å¢Å¢Å¢Å¢Å¢Å¢Å¢Å¢Å¢Å¢Å¢Å¢Å¢Å¢Å¢Å¢Å¢Å¢Å¢Å¢Å¢Å¢Å¢Å¢Å¢Å¢Å¢Å¢Å¢Å¢Å¢Å¢Å¢Å¢Å¢Å¢Å¢Å¢Å¢Å¢Å¢Å¢Å¢Å¢Å¢Å¢Å¢Å¢Å¢Å¢Å¢Å¢Å¢Å¢Å¢Å¢Å¢Å¢Å¢Å¢Å¢Å¢Å¢Å¢Å¢Å¢Å¢Å¢Å¢Å¢Å¢Å¢Å¢Å¢Å¢Å¢Å¢Å¢Å¢Å¢Å¢Å¢Å¢Å¢Å¢Å¢Å¢Å¢Å¢Å¢Å¢Å¢Å¢Å¢Å¢Å¢Å¢Å¢Å¢Å¢Å¢Å¢Å¢Å¢Å¢Å¢Å¢Å¢Å¢Å¢Å¢Å¢Å¢Å¢Å¢Å¢Å¢Å¢Å¢Å¢Å¢Å¢Å¢Å¢Å¢Å¢Å¢Å¢Å¢Å¢Å¢Å¢Å¢Å¢Å¢Å¢Å¢Å¢Å¢Å¢Å¢Å¢Å¢Å¢Å¢Å¢Å¢Å¢Å¢Å¢Å¢Å¢Å¢Å¢Å¢Å¢Å¢Å¢Å¢Å¢Å¢Å¢Å¢Å¢Å¢Å¢Å¢Å¢Å¢Å¢Å¢Å¢Å¢Å¢Å¢Å¢Å¢Å¢Å¢Å¢Å¢Å¢Å¢Å¢Å¢Å¢Å¢Å¢Å¢Å¢Å¢Å¢Å¢Å¢Å¢Å¢Å¢Å¢Å¢Å¢Å¢Å¢Å¢Å¢Å¢Å¢Å¢Å¢Å¢Å¢Å¢Å¢Å¢Å¢Å¢Å¢Å¢Å¢Å¢Å¢Å¢Å¢Å¢Å¢Å¢Å¢Å¢Å¢Å¢Å¢Å¢Å¢Å¢Å¢Å¢Å¢Å¢Å¢Å¢Å¢Å¢Å¢Å¢Å¢Å¢Å¢Å¢Å¢Å¢Å¢Å¢Å¢Å¢Å¢Å¢Å¢Å¢Å¢Å¢Å¢Å¢Å¢Å¢Å¢Å¢Å¢Å¢Å¢Å¢Å¢Å¢Å¢Å¢Å¢Å¢Å¢Å¢Å¢Å¢Å¢Å¢Å¢Å¢Å¢Å¢Å¢Å¢Å¢Å¢Å¢Å¢Å¢Å¢Å¢Å¢Å¢Å¢Å¢Å¢Å¢Å¢Å¢Å¢Å¢Å¢Å¢Å¢Å¢Å¢Å¢Å¢Å¢Å¢Å¢Å¢Å¢Å¢Å¢Å¢Å¢Å¢Å¢Å¢Å¢Å¢Å¢Å¢Å¢Å¢Å¢Å¢Å¢Å¢Å¢Å¢Å¢Å¢Å¢Å¢Å¢Å¢Å¢Å¢Å¢Å¢Å¢Å¢Å¢Å¢Å¢Å¢Å¢Å¢Å¢Å¢Å¢Å¢Å¢Å¢Å¢Å¢Å¢Å¢Å¢Å¢Å¢Å¢Å¢Å¢Å¢Å¢Å¢Å¢Å¢Å¢Å¢Å¢Å¢Å¢Å¢Å¢Å¢Å¢Å¢Å¢Å¢Å¢Å¢Å¢Å¢Å¢Å¢Å¢Å¢Å¢Å¢Å¢Å¢Å¢Å¢Å¢Å¢Å¢Å¢Å¢Å¢Å¢Å¢Å¢Å¢Å¢Å¢Å¢Å¢Å¢Å¢Å¢Å¢Å¢Å¢Å¢Å¢Å¢Å¢Å¢Å¢Å¢Å¢Å¢Å¢Å¢Å¢Å¢Å¢Å¢Å¢Å¢Å¢Å¢Å¢Å¢Å¢Å¢Å¢Å¢Å¢Å¢Å¢Å¢Å¢Å¢Å¢Å¢Å¢Å¢Å¢Å¢Å¢Å¢Å¢Å¢Å¢Å¢Å¢Å¢Å¢Å¢Å¢Å¢Å¢Å¢Å¢Å¢Å¢Å¢Å¢Å¢Å¢Å¢Å¢Å¢Å¢Å¢Å¢Å¢Å¢Å¢Å¢Å¢Å¢Å¢Å¢Å¢Å¢Å¢Å¢Å¢Å¢Å¢Å¢Å¢Å¢Å¢Å¢Å¢Å¢Å¢Å¢Å¢Å¢Å¢Å¢Å¢Å¢Å¢Å¢Å¢Å¢Å¢Å¢Å¢Å¢Å¢Å¢Å¢Å¢Å¢Å¢Å¢Å¢Å¢Å¢Å¢Å¢Å¢Å¢Å¢Å¢Å¢Å¢Å¢Å¢Å¢Å¢Å¢Å¢Å¢Å¢Å¢Å¢Å¢Å¢Å¢Å¢Å¢Å¢Å¢Å¢Å¢Å¢Å¢Å¢Å¢Å¢Å¢Å¢Å¢Å¢Å¢Å¢Å¢Å¢Å¢Å¢Å¢Å¢Å¢Å¢Å¢Å¢Å¢Å¢Å¢Å¢Å¢Å¢Å¢Å¢Å¢Å¢Å¢Å¢Å¢Å¢Å¢Å¢Å¢Å¢Å¢Å¢Å¢Å¢Å¢Å¢Å¢Å¢Å¢Å¢Å¢Å¢Å¢Å¢Å¢Å¢Å¢Å¢Å¢Å¢Å¢Å¢Å¢Å¢Å¢Å¢Å¢Å¢Å¢Å¢Å¢Å¢Å¢Å¢Å¢Å¢Å¢Å¢Å¢Å¢Å¢Å¢Å¢Å¢Å¢Å¢Å¢Å¢": 694,
      "Å¢Å¢Å¢Å¢Å£Å£": 695,
      "Å¢Å¢Å¢Å¢Å¢Å¢Å¢Å¢Å¢Å¢Å¢Å¢Å¢Å¢Å¢Å¢Å¢Å¢Å¢Å¢Å¢Å¢Å¢Å¢Å¢Å¡Å£": 696,
      "Æ¶": 697,
      "Æ¸": 698,
      "Äį": 699,
      "Å¢Å¢Å¢Å¢Åł": 700,
      "Å¥Å¦": 701,
      "Å¢Å¡Å¢Å¢Å£": 702,
      "Äĭ": 703,
      "Æ²": 704,
      "Æ³": 705,
      "Å¢Å¢Å¢Å¢Å¢Å¢Å¢Å¢Å¢Å¢Å¢Å¢Å¢Å¢Å¢Å¢Å¢Å¢Å¢Å¢Å¢Å¢Å¢Å¢Å¢Å£Å¡": 706,
      "Å¢Å¢Å¢Å¢Å¢Å¢Å¢Å¢Å¢Å¢Å¢Å¢Å¢Å¢Å¢Å¢Å¢Å¢Å¢Å¢Å¢Å¢Å¢Å¢Å¢Å¢Å£Å£": 707,
      "Äĵ": 708,
      "ÅĽÅ£": 709,
      "Å¡Å¡Å¤": 710,
      "ÅĿÅ§": 711,
      "ÅĿÅ¥": 712,
      "ÅŁÅŀ": 713,
      "ÄĴ": 714,
      "Å¢Å¢Å¢Å¢Å¢Å¢Å¢Å¢Å¢Å¢Å¢Å¢Å¢Å¢Å¢Å¢Å¢Å¢Å¢Å¢Å¢Å¢Å¢Å¢Å¢Å¢Å¢Å¢Å£Å¡": 715,
      "Å¢Å¢Å¢Å¢Å¢Å¢Å¢Å¢Å¢Å¢Å¢Å¢Å¢Å¢Å¢Å¢Å¢Å¢Å¢Å¢Å¢Å¢Å¢Å¢Å¢Å¢Å¢Å¢Å¢Å¢Å¢Å¢Å¢Å¢Å¢Å¢Å¢Å¢Å¢Å¢Å¢Å¢Å¢Å¢Å¢Å¢Å¢Å¢Å¢Å¢Å¢Å¢Å¢Å¢Å¢Å¢Å¢Å¢Å¢Å¢Å¢Å¢Å¢Å¢Å¢Å¢Å¢Å¢Å¢Å¢Å¢Å¢Å¢Å¢Å¢Å¢Å¢Å¢Å¢Å¢Å¢Å¢Å¢Å¢Å¢Å¢Å¢Å¢Å¢Å¢Å¢Å¢Å¢Å¢Å¢Å¢Å¢Å¢Å¢Å¢Å¢Å¢Å¢Å¢Å¢Å¢Å¢Å¢Å¢Å¢Å¢Å¢Å¢Å¢Å¢Å¢Å¢Å¢Å¢Å¢Å¢Å¢Å¢Å¢Å¢Å¢Å¢Å¢Å¢Å¢Å¢Å¢Å¢Å¢Å¢Å¢Å¢Å¢Å¢Å¢Å¢Å¢Å¢Å¢Å¢Å¢Å¢Å¢Å¢Å¢Å¢Å¢Å¢Å¢Å¢Å¢Å¢Å¢Å¢Å¢Å¢Å¢Å¢Å¢Å¢Å¢Å¢Å¢Å¢Å¢Å¢Å¢Å¢Å¢Å¢Å¢Å¢Å¢Å¢Å¢Å¢Å¢Å¢Å¢Å¢Å¢Å¢Å¢Å¢Å¢Å¢Å¢Å¢Å¢Å¢Å¢Å¢Å¢Å¢Å¢Å¢Å¢Å¢Å¢Å¢Å¢Å¢Å¢Å¢Å¢Å¢Å¢Å¢Å¢Å¢Å¢Å¢Å¢Å¢Å¢Å¢Å¢Å¢Å¢Å¢Å¢Å¢Å¢Å¢Å¢Å¢Å¢Å¢Å¢Å¢Å¢Å¢Å¢Å¢Å¢Å¢Å¢Å¢Å¢Å¢Å¢Å¢Å¢Å¢Å¢Å¢Å¢Å¢Å¢Å¢Å¢Å¢Å¢Å¢Å¢Å¢Å¢Å¢Å¢Å¢Å¢Å¢Å¢Å¢Å¢Å¢Å¢Å¢Å¢Å¢Å¢Å¢Å¢Å¢Å¢Å¢Å¢Å¢Å¢Å¢Å¢Å¢Å¢Å¢Å¢Å¢Å¢Å¢Å¢Å¢Å¢Å¢Å¢Å¢Å¢Å¢Å¢Å¢Å¢Å¢Å¢Å¢Å¢Å¢Å¢Å¢Å¢Å¢Å¢Å¢Å¢Å¢Å¢Å¢Å¢Å¢Å¢Å¢Å¢Å¢Å¢Å¢Å¢Å¢Å¢Å¢Å¢Å¢Å¢Å¢Å¢Å¢Å¢Å¢Å¢Å¢Å¢Å¢Å¢Å¢Å¢Å¢Å¢Å¢Å¢Å¢Å¢Å¢Å¢Å¢Å¢Å¢Å¢Å¢Å¢Å¢Å¢Å¢Å¢Å¢Å¢Å¢Å¢Å¢Å¢Å¢Å¢Å¢Å¢Å¢Å¢Å¢Å¢Å¢Å¢Å¢Å¢Å¢Å¢Å¢Å¢Å¢Å¢Å¢Å¢Å¢Å¢Å¢Å¢Å¢Å¢Å¢Å¢Å¢Å¢Å¢Å¢Å¢Å¢Å¢Å¢Å¢Å¢Å¢Å¢Å¢Å¢Å¢Å¢Å¢Å¢Å¢Å¢Å¢Å¢Å¢Å¢Å¢Å¢Å¢Å¢Å¢Å¢Å¢Å¢Å¢Å¢Å¢Å¢Å¢Å¢Å¢Å¢Å¢Å¢Å¢Å¢Å¢Å¢Å¢Å¢Å¢Å¢Å¢Å¢Å¢Å¢Å¢Å¢Å¢Å¢Å¢Å¢Å¢Å¢Å¢Å¢Å¢Å¢Å¢Å¢Å¢Å¢Å¢Å¢Å¢Å¢Å¢Å¢Å¢Å¢Å¢Å¢Å¢Å¢Å¢Å¢Å¢Å¢Å¢Å¢Å¢Å¢Å¢Å¢Å¢Å¢Å¢Å¢Å¢Å¢Å¢Å¢Å¢Å¢Å¢Å¢Å¢Å¢Å¢Å¢Å¢Å¢Å¢Å¢Å¢Å¢Å¢Å¢Å¢Å¢Å¢Å¢Å¢Å¢Å¢Å¢Å¢Å¢Å¢Å¢Å¢Å¢Å¢Å¢Å¢Å¢Å¢Å¢Å¢Å¢Å¢Å¢Å¢Å¢Å¢Å¢Å¢Å¢": 716,
      "Æ´": 717,
      "Å¢ÅĹ": 718,
      "Å¢Å¢Å¢Å¢Å¢Å¢Å¢Å¢Å¢Å¢Å¢Å¢Å¢Å¢Å¢Å¢Å¢Å¢Å¢Å¢Å¢Å¢Å¢Å¢Å¢Å¢Å¢Å¢Å¢": 719,
      "Å¢Å¢Å¢Å¢Å¢Å¢Å¢Å¢Å¢Å¢Å¢Å¢Å¢Å¢Å¢Å¢Å¢Å¢Å¢Å¢Å¢Å¢Å¢Å¢Å¢Å¢Å¢Å¢Å¢Å¢Å¢Å£Å¢Å¢Å¢Å¢Å¢Å¢Å¢Å¢Å¢Å¢Å¢Å¢Å¢Å¢Å¢Å¢Å¢Å¢Å¢Å¢Å¢Å¢Å¢Å¢Å¢Å¢Å¢Å¢Å¢Å¢Å¢Å£Å¢Å¢Å¢Å¢Å¢Å¢Å¢Å¢Å¢Å¢Å¢Å¢Å¢Å¢Å¢Å¢Å¢Å¢Å¢Å¢Å¢Å¢Å¢Å¢Å¢Å¢Å¢Å¢Å¢Å¢Å¢Å£Å¢Å¢Å¢Å¢Å¢Å¢Å¢Å¢Å¢Å¢Å¢Å¢Å¢Å¢Å¢Å¢Å¢Å¢Å¢Å¢Å¢Å¢Å¢Å¢Å¢Å¢Å¢Å¢Å¢Å¢Å¢Å£": 720,
      "Å¢Å¢Å£Å¢Å£": 721,
      "Æµ": 722,
      "Å¢Å¢Å¢Å¢Å¢Å¢Å¢Å¢Å¢Å¢Å¢Å¢Å¢Å¢Å¢Å¢Å¢Å£": 723,
      "Å©Å£": 724,
      "Å¢ÅŃ": 725,
      "Å¢Å¢Å¢Å¢Å¢Å¢Å¢Å¢Å¢Å¢Å¢Å¢Å¢Å¢Å¢Å¢Å¢Å¢Å¢Å¢Å¢Å¢Å¢Å¢Å¢Å¢Å¢Å¢Å¢Å¢Å¢Å¢Å¢Å£": 726,
      "Å¢Å¤Å¤": 727,
      "Å¢Å¢Å¢Å¢Å¢Å¢Å¢Å¢Å¢Å¢Å¢Å¢Å¢Å¢Å¢Å¢Å¢Å¢Å¢Å¢Å¢Å¢Å¢Å¢Å¢Å¢Å¢Å¢Å¢Å¢Å¢Å¢Å¢Å¡": 728,
      "Å¢Å¢Å¢Å¢Å¡Å¡": 729,
      "ÅłÅ¦": 730,
      "Å¢Å¢Å¢Å¡Å¡": 731,
      "Å¢Å¢Å¡Å¢Å£": 732,
      "ÅłÅ¢Å£": 733,
      "Å¢Å¢Å¢Å¢Å¢Å¢Å¢Å¢Å¢Å¢Å¢Å¢Å¢Å¢Å¢Å¢Å¢Å¡": 734,
      "Å¢Å¢Å£Å¢Å¡": 735,
      "ÅľÅ¤": 736,
      "Å¢Å¢Å¡Å¢Å¡": 737,
      "ÅŀÅ§": 738,
      "ÅĿÅ¦": 739,
      "Å¨Å¤": 740,
      "ÅŁÅ§": 741,
      "ÅłÅ¢Å¡": 742,
      "Äı": 743,
      "Å¢Å¢Å¢Å¢Å¢Å¢Å¢Å¢Å¢Å¢Å¢Å¢Å¢Å¢Å¢Å¢Å¢Å¢Å¢Å¢Å¢Å¢Å¢Å¢Å¢Å¢Å¢Å¤": 744,
      "ÅŀÅŀ": 745,
      "Å¢Å¢Å¢Å¢Å¢Å¢Å¢Å¢Å¢Å¢Å¢Å¢Å¢Å¢Å¢Å¢Å¢Å¢Å¢Å¢Å¢Å¢Å¢Å¢Å¢Å¢Å¢Åł": 746,
      "Å¢Å¢Å¢Å¢Å¢Å¢Å¢Å¢Å¢Å¢Å¢Å¢Å¢Å¢Å¢Å¢Å¢Å¢Å¢Å¢Å¢Å¢Å¢Å¢Å¢Å¢Å¢Å£Å¡": 747,
      "ÅķÅ¥Å¤": 748,
      "Å©Å¡": 749,
      "ÅĽÅ¡": 750,
      "Å¦Å¦": 751,
      "Å¢Å¢Å¢Å¢Å¢Å¢Å¢Å¢Å¢Å¢Å¢Å¢Å¢Å¢Å¢Å¢Å¢Å¢Å¢Å¢Å¢Å¢Å¢Å¢Å¤": 752,
      "Å£Å¡Å¤": 753,
      "Å¥Å§": 754,
      "ÅłÅŀ": 755,
      "Å¢Å¢Å¢Å¢Å¢Å¢Å¢Å¢Å¢Å¢Å¢Å¢Å¢Å¢Å¢Å¢Å¢Å¢Å¢Å¢Å¢Å¢Å¢Å¢Å¢Åŀ": 756,
      "Æº": 757,
      "Å¢Å¢Å¢Å¢Å¢Å¢Å¢Å¢Å¢Å¢Å¢Å¢Å¢Å¢Å¢Å¢Å¢Å¢Å¢Å¢Å¢Å¢Å¢Å¢Å¢Å¦": 758,
      "Å¢ÅŁÅ£": 759,
      "Å¢Å¥Å£": 760,
      "Å¢Å¢Å¢Å¢Å¢Å¢Å¢Å¢Å¢Å¢Å¢Å¢Å¢Å¢Å¢Å¢Å¢Å¢Å¢Å¢Å¢Å¢Å¢Å¢Å¢Å¡Å¡": 761,
      "Å¢Å¢Å¢Å¢Å¢Å¢Å¢Å¢Å¢Å¢Å¢Å¢Å¢Å¢Å¢Å¢Å¢Å¢Å¢Å¢Å¢Å¢Å¢Å¢Å¢Å¢Å¢Å": 762,
      "Å¢Å¢Å¢Å¢Å¢Å¢Å¢Å¢Å¢Å¢Å¢Å¢Å¢Å¢Å¢Å¢Å¢Å¢Å¢Å¢Å¢Å¢Å¢Å¢Å¢Å¢Å¢Å¢Å¢Å¢Å¢Å¢Å¢Å¢Å¢Å¢Å¢Å¢Å¢Å¢Å¢Å¢Å¢Å¢Å¢Å¢Å¢Å¢Å¢Å¢Å¢Å¢Å¢Å¢Å¢Å¢Å¢Å¢Å¢Å¢Å¢Å¢Å¡": 763,
      "ÅĿÅŁ": 764,
      "Å¢Å¢Å¢Å¢Å¢Å¢Å¢Å¢Å¢Å¢Å¢Å¢Å¢Å¢Å¢Å¢Å¢Å¢Å¢Å¢Å¢Å¢Å¢Å¢Å¢Å¢Å¢Å¢Å¢Å¢Å¢Å¡Å¢Å¢Å¢Å¢Å¢Å¢Å¢Å¢Å¢Å¢Å¢Å¢Å¢Å¢Å¢Å¢Å¢Å¢Å¢Å¢Å¢Å¢Å¢Å¢Å¢Å¢Å¢Å¢Å¢Å¢Å¢Å¡Å¢Å¢Å¢Å¢Å¢Å¢Å¢Å¢Å¢Å¢Å¢Å¢Å¢Å¢Å¢Å¢Å¢Å¢Å¢Å¢Å¢Å¢Å¢Å¢Å¢Å¢Å¢Å¢Å¢Å¢Å¢Å¡Å¢Å¢Å¢Å¢Å¢Å¢Å¢Å¢Å¢Å¢Å¢Å¢Å¢Å¢Å¢Å¢Å¢Å¢Å¢Å¢Å¢Å¢Å¢Å¢Å¢Å¢Å¢Å¢Å¢Å¢Å¢Å¡": 765,
      "Å¢Å¢Å¢Å¢Å¢Å¢Å¢Å¢Å¢Å¢Å¢Å¢Å¢Å¢Å¢Å¢Å¢Å¢Å¢Å¢Å¢Å¢Å¢Å¢Å¢Å¢Å¢Å¢Å¢Å¢Å¢Å£Å¢Å¢Å¢Å¢Å¢Å¢Å¢Å¢Å¢Å¢Å¢Å¢Å¢Å¢Å¢Å¢Å¢Å¢Å¢Å¢Å¢Å¢Å¢Å¢Å¢Å¢Å¢Å¢Å¢Å¢Å¢Å¢Å¢Å¢Å¢Å¢Å¢Å¢Å¢Å¢Å¢Å¢Å¢Å¢Å¢Å¢Å¢Å¢Å¢Å¢Å¢Å¢Å¢Å¢Å¢Å¢Å¢Å¢Å¢Å¢Å¢Å¢Å¢Å¢Å¢Å¢Å¢Å¢Å¢Å¢Å¢Å¢Å¢Å¢Å¢Å¢Å¢Å¢Å¢Å¢Å¢Å¢Å¢Å¢Å¢Å¢Å¢Å¢Å¢Å¢Å¢Å¢Å¢Å¢Å¢Å¢Å¢Å¢Å¢Å¢Å¢Å¢Å¢Å¢Å¢Å¢Å¢Å¢Å¢Å¢Å¢Å¢Å¢Å¢Å¢Å¢Å¢Å¢Å¢Å¢Å¢Å¢Å¢Å¢Å¢Å¢Å¢Å¢": 766,
      "Å¡Å¡Å¢Å£": 767,
      "Å¢Å¢Å¢Å¢Å¢Å¢Å¢Å¢Å¢Å¢Å¢Å¢Å¢Å¢Å¢Å¢Å¢Å¢Å¢Å¢Å¢Å¢Å¢Å¢Å¢Å¢Å¢Å¢Å¢Å¢Å¢Å¢Å¢Å¢Å¢Å¢Å¢Å¢Å¢Å¢Å¢Å¢Å¢Å¢Å¢Å¢Å¢Å¢Å¢Å¢Å¢Å¢Å¢Å¢Å¢Å¢Å¢Å¢Å¢Å¢Å¢Å¢Å£": 768,
      "Å¢Å®": 769,
      "ÅļÅ£": 770,
      "Å¢Å¢Å¢Å¢Å¢Å¢Å¢Å¢Å¢Å¢Å¢Å¢Å¢Å¢Å¢Å¢Å¢Å¢Å¢Å¢Å¢Å¢Å¢Å¢Å¢Å¢Å¢Å¢Å¢Å¢Å¢Å¢Å¢Å¢Å¢Å¢Å¢Å¢Å¢Å¢Å¢Å¢Å¢Å¢Å¢Å¢Å¢Å¢Å¢Å¢Å¢Å¢Å¢Å¢Å¢Å¢Å¢Å¢Å¢Å¢Å¢Å¢Å¢Å¢Å¢Å¢Å¢Å¢Å¢Å¢Å¢Å¢Å¢Å¢Å¢Å¢Å¢Å¢Å¢Å¢Å¢Å¢Å¢Å¢Å¢Å¢Å¢Å¢Å¢Å¢Å¢Å¢Å¢Å¢Å¢Å¢Å¢Å¢Å¢Å¢Å¢Å¢Å¢Å¢Å¢Å¢Å¢Å¢Å¢Å¢Å¢Å¢Å¢Å¢Å¢Å¢Å¢Å¢Å¢Å¢Å¢Å¢Å¢Å¢Å¢Å¢Å¢Å¢Å¢Å¢Å¢Å¢Å¢Å¢Å¢Å¢Å¢Å¢Å¢Å¢Å¢Å¢Å¢Å¢Å¢Å¢Å¢Å¢Å¢Å¢Å¢Å¢Å¢Å¢Å¢Å¢Å¢Å¢Å¢Å¢Å¢Å¢Å¢Å¢Å¢Å¢Å¢Å¢Å¢Å¢Å¢Å¢Å¢Å¢Å¢Å¢Å¢Å¢Å¢Å¢Å¢Å¢Å¢Å¢Å¢Å¢Å¢Å¢Å¢Å¢Å¢Å¢Å¢Å¢Å¢Å¢Å¢Å¢Å¢Å¢Å¢Å¢Å¢Å¢Å¢Å¢Å¢Å¢Å¢Å¢Å¢Å¢Å¢Å¢Å¢Å¢Å¢Å¢Å¢Å¢Å¢Å¢Å¢Å¢Å¢Å¢Å¢Å¢Å¢Å¢Å¢Å¢Å¢Å¢Å¢Å¢Å¢Å¢Å¢Å¢Å¢Å¢Å¢Å¢Å¢Å¢Å¢Å¢Å¢Å¢Å¢Å¢Å¢Å¢Å¢Å¢Å¢Å¢Å¢Å¢Å¢Å¢Å¢Å¢Å¢Å¢Å¢Å¢Å¢Å¢Å¢Å¢Å¢Å¢Å¢Å¢Å¢Å¢Å¢Å¢Å¢Å¢Å¢Å¢Å¢Å¢Å¢Å¢Å¢Å¢Å¢Å¢Å¢Å¢Å¢Å¢Å¢Å¢Å¢Å¢Å¢Å¢Å¢Å¢Å¢Å¢Å¢Å¢Å¢Å¢Å¢Å¢Å¢Å¢Å¢Å¢Å¢Å¢Å¢Å¢Å¢Å¢Å¢Å¢Å¢Å¢Å¢Å¢Å¢Å¢Å¢Å¢Å¢Å¢Å¢Å¢Å¢Å¢Å¢Å¢Å¢Å¢Å¢Å¢Å¢Å¢Å¢Å¢Å¢Å¢Å¢Å¢Å¢Å¢Å¢Å¢Å¢Å¢Å¢Å¢Å¢Å¢Å¢Å¢Å¢Å¢Å¢Å¢Å¢Å¢Å¢Å¢Å¢Å¢Å¢Å¢Å¢Å¢Å¢Å¢Å¢Å¢Å¢Å¢Å¢Å¢Å¢Å¢Å¢Å¢Å¢Å¢Å¢Å¢Å¢Å¢Å¢Å¢Å¢Å¢Å¢Å¢Å¢Å¢Å¢Å¢Å¢Å¢Å¢Å¢Å¢Å¢Å¢Å¢Å¢Å¢Å¢Å¢Å¢Å¢Å¢Å¢Å¢Å¢Å¢Å¢Å¢Å¢Å¢Å¢Å¢Å¢Å¢Å¢Å¢Å¢Å¢Å¢Å¢Å¢Å¢Å¢Å¢Å¢Å¢Å¢Å¢Å¢Å¢Å¢Å¢Å¢Å¢Å¢Å¢Å¢Å¢Å¢Å¢Å¢Å¢Å¢Å¢Å¢Å¢Å¢Å¢Å¢Å¢Å¢Å¢Å¢Å¢Å¢Å¢Å¢Å¢Å¢Å¢Å¢Å¢Å¢Å¢Å¢Å¢Å¢Å¢Å¢Å¢Å¢Å¢Å¢Å¢Å¢Å¢Å¢Å¢Å¢Å¢Å¢Å¢Å¢Å¢Å¢Å¢Å¢Å¢Å¢Å¢Å¢Å¢Å¢Å¢Å¢Å¢Å¢Å¢Å¢Å¢Å¢Å¢Å¢Å¢Å¢Å¢Å¢Å¢Å¢Å¢Å¢Å¢Å¢Å¢Å¢Å¢Å¢Å¢Å¢Å¢Å¢Å¢Å¢Å¢Å¢Å¢Å¢Å¢Å¢Å¢Å¢Å¢Å¢Å¢Å¢Å¢Å¢Å¢Å¢Å¢Å¢Å¢Å¢Å¢Å¢Å¢Å¢Å¢Å¢Å¢Å¢Å¢Å¢Å¢Å¢Å¢Å¢Å¢Å¢Å¢Å¢Å¢Å¢Å¢Å¢Å¢Å¢Å¢Å¢Å¢Å¢Å¢Å¢Å¢Å¢Å¢Å¢Å¢Å¢Å¢Å¢Å¢Å¢Å¢Å¢Å¢Å¢Å¢Å¢Å¢Å¢Å¢Å¢Å¢Å¢Å¢Å¢Å¢Å¢Å¢Å¢Å¢Å¢Å¢Å¢Å¢Å¢Å¢Å¢Å¢Å¢Å¢Å¢Å¢Å¢Å¢Å¢Å¢Å¢Å¢Å¢Å¢Å¢Å¢Å¢Å¢Å¢Å¢Å¢Å¢Å¢Å¢Å¢Å¢Å¢Å¢Å¢Å¢Å¢Å¢Å¢Å¢Å¢Å¢Å¢Å¢Å¢Å¢Å¢Å¢Å¢Å¢Å¢Å¢Å¢Å¢Å¢Å¢Å¢Å¢Å¢Å¢Å¢Å¢Å¢Å¢Å¢Å¢Å¢Å¢Å¢Å¢Å¢Å¢Å¢Å¢Å¢Å¢Å¢Å¢Å¢Å¢Å¢Å¢Å¢Å¢Å¢Å¢Å¢Å¢Å¢Å¢Å¢Å¢Å¢Å¢Å¢Å¢Å¢Å¢Å¢Å¢Å¢Å¢Å¢Å¢Å¢Å¢Å¢Å¢Å¢Å¢Å¢Å¢Å¢Å¢Å¢Å¢Å¢Å¢Å¢Å¢Å¢Å¢Å¢Å¢Å¢Å¢Å¢Å¢Å¢Å¢Å¢Å¢Å¢Å¢Å¢Å¢Å¢Å¢Å¢Å¢Å¢Å¢Å¢Å¢Å¢Å¢Å¢Å¢Å¢Å¢Å¢Å¢Å¢Å¢Å¢Å¢Å¢Å¢Å¢Å¢Å¢Å¢Å¢Å¢Å¢Å¢Å¢Å¢Å¢Å¢Å¢Å¢Å¢Å¢Å¢Å¢Å¢Å¢Å¢Å¢Å¢Å¢Å¢Å¢Å¢Å¢Å¢Å¢Å¢Å¢Å¢Å¢Å¢Å¢Å¢Å¢Å¢Å¢Å¢Å¢Å¢Å¢Å¢Å¢Å¢Å¢Å¢Å¢Å¢Å¢Å¢Å¢Å¢Å¢Å¢Å¢Å¢Å¢Å¢Å¢Å¢Å¢Å¢Å¢Å¢Å¢Å¢Å¢Å¢Å¢Å¢Å¢Å¢Å¢Å¢Å¢Å¢Å¢Å¢Å¢Å¢Å¢Å¢Å¢Å¢Å¢Å¢Å¢Å¢Å¢Å¢Å¢Å¢Å¢Å¢Å¢Å¢Å¢Å¢Å¢Å¢Å¢Å¢Å¢Å¢Å¢Å¢Å¢Å¢Å¢Å¢Å¢Å¢Å¢Å¢Å¢Å¢Å¢Å¢Å¢Å¢Å¢Å¢Å¢Å¢Å¢Å¢Å¢Å¢Å¢Å¢Å¢Å¢Å¢Å¢Å¢Å¢Å¢Å¢Å¢Å¢Å¢Å¢Å¢Å¢Å¢Å¢Å¢Å¢Å¢Å¢Å¢Å¢Å¢Å¢Å¢Å¢Å¢Å¢Å¢Å¢Å¢Å¢Å¢Å¢Å¢Å¢Å¢Å¢Å¢Å¢Å¢Å¢Å¢Å¢Å¢Å¢Å¢Å¢": 771,
      "Å¢ÅłÅł": 772,
      "Å¢Å¢Å¢Å¢Å¢Å¢Å¢Å¢Å¢Å¢Å¢Å¢Å¢Å¢Å¢Å¢Å¢Å¢Å¢Å¢Å¢Å¢Å¢Å¢Å¢Å¢Å¢Å¢Å¡Å£": 773,
      "ÄĮ": 774,
      "Å¢Åĸ": 775,
      "Å¨Åł": 776,
      "Å¢Å¢Å¢Å¢Å¢Å¢": 777,
      "Å§ÅŁ": 778,
      "Å¢Å¢Å¢Å¢Å¢Å¢Å¢Å¢Å¢Å¢Å¢Å¢Å¢Å¢Å¢Å¢Å¢Å¢Å¢Å¢Å¢Å¢Å¢Å£Å£": 779,
      "Å¢Å¢Å¢Å¢Å¢Å¢Å¢Å¢Å¢Å¢Å¢Å¢Å¢Å¢Å¢Å¢Å¢Å¢Å¢Å¢Å¢Å¢Å¢Å¢Å£Å£": 780,
      "Å¢Å¢Å¢Å¢Å¢Å¢Å¢Å¢Å¢Å¢Å¢Å¢Å¢Å¢Å¢Å¢Å¢Å¢Å¢Å¢Å¢Å¢Å¢Å¢Å¢Å¢Å¢Å¢Å¢Å¢Å¢Å¢Å¢Å¢Å¢Å¢Å¢Å¢Å¢Å¢Å¢Å¢Å¢Å¢Å¢Å¢Å¢Å¢Å¢Å¢Å¢Å¢Å¢Å¢Å¢Å¢Å¢Å¢Å¢Å¢Å¢Å¢Å¢Å£Å¢Å¢Å¢Å¢Å¢Å¢Å¢Å¢Å¢Å¢Å¢Å¢Å¢Å¢Å¢Å¢Å¢Å¢Å¢Å¢Å¢Å¢Å¢Å¢Å¢Å¢Å¢Å¢Å¢Å¢Å¢Å¢Å¢Å¢Å¢Å¢Å¢Å¢Å¢Å¢Å¢Å¢Å¢Å¢Å¢Å¢Å¢Å¢Å¢Å¢Å¢Å¢Å¢Å¢Å¢Å¢Å¢Å¢Å¢Å¢Å¢Å¢Å¢Å¡": 781,
      "Å¥ÅĿ": 782,
      "ÅĽÅ¤": 783,
      "Å¢Å¢Å¢Å¢Å¢Å¢Å¢Å¢Å¢Å¢Å¢Å¢Å¢Å¢Å¢Å¢Å¢Å¢Å¢Å¢Å¢Å¢Å¢Å¢Å¢Å¢Å¡Å¡": 784,
      "Å¢Å¢Å¢Å¢Å¢Å¢Å¢Å¢Å¢Å¢Å¢Å¢Å¢Å¢Å¢Å¢Å¢Å¢Å¢Å¢Å¢Å¢Å¢Å¢Å¢Å¢Å¢Å¢Å¢Å¡Å£": 785,
      "Å¢Å¢Å¢Å¢Å¢Å¢Å¢Å¢Å¢Å¢Å¢Å¢Å¢Å¢Å¢Å¢Å¢Å¢Å¢Å¢Å¢Å¢Å¢Å¢Å¢Å¢Å¢Å¢Å¢Å¢Å¢Å¢Å¢Å¢Å¢Å¢Å¢Å¢Å¢Å¢Å¢Å¢Å¢Å¢Å¢Å¢Å¢Å¢Å¢Å¢Å¢Å¢Å¢Å¢Å¢Å¢Å¢Å¢Å¢Å¢Å¢Å¢Å¢Å¢Å¢Å¢Å¢Å¢Å¢Å¢Å¢Å¢Å¢Å¢Å¢Å¢Å¢Å¢Å¢Å¢Å¢Å¢Å¢Å¢Å¢Å¢Å¢Å¢Å¢Å¢Å¢Å¢Å¢Å¢Å¢Å¢Å¢Å¢Å¢Å¢Å¢Å¢Å¢Å¢Å¢Å¢Å¢Å¢Å¢Å¢Å¢Å¢Å¢Å¢Å¢Å¢Å¢Å¢Å¢Å¢Å¢Å¢Å¢Å¢Å¢Å¢Å¢Å¢Å¢Å¢Å¢Å¢Å¢Å¢Å¢Å¢Å¢Å¢Å¢Å¢Å¢Å¢Å¢Å¢Å¢Å¢Å¢Å¢Å¢Å¢Å¢Å¢Å¢Å¢Å¢Å¢Å¢Å¢Å¢Å¢Å¢Å¢Å¢Å¢Å¢Å¢Å¢Å¢Å¢Å¢Å¢Å¢Å¢Å¢Å¢Å¢Å¢Å¢Å¢Å¢Å¢Å¢Å¢Å¢Å¢Å¢Å¢Å¢Å¢Å¢Å¢Å¢Å¢Å¢Å¢Å¢Å¢Å¢Å¢Å¢Å¢Å¢Å¢Å¢Å¢Å¢Å¢Å¢Å¢Å¢Å¢Å¢Å¢Å¢Å¢Å¢Å¢Å¢Å¢Å¢Å¢Å¢Å¢Å¢Å¢Å¢Å¢Å¢Å¢Å¢Å¢Å¢Å¢Å¢Å¢Å¢Å¢Å¢Å¢Å¢Å¢Å¢Å¢Å¢Å¢Å¢Å¢Å¢Å¢Å¢Å¢Å¢Å¢Å¢Å¢Å¢Å¢Å¢Å¢Å¢Å¢Å¢Å¢Å¢Å¢Å¢Å¢Å¢Å¢Å¢Å¢Å¢Å¢Å¢Å¢Å¢Å¢Å¢Å¢Å¢Å¢Å¢Å¢Å¢Å¢Å¢Å¢Å¢Å¢Å¢Å¢Å¢Å¢Å¢Å¢Å¢Å¢Å¢Å¢Å¢Å¢Å¢Å¢Å¢Å¢Å¢Å¢Å¢Å¢Å¢Å¢Å¢Å¢Å¢Å¢Å¢Å¢Å¢Å¢Å¢Å¢Å¢Å¢Å¢Å¢Å¢Å¢Å¢Å¢Å¢Å¢Å¢Å¢Å¢Å¢Å¢Å¢Å¢Å¢Å¢Å¢Å¢Å¢Å¢Å¢Å¢Å¢Å¢Å¢Å¢Å¢Å¢Å¢Å¢Å¢Å¢Å¢Å¢Å¢Å¢Å¢Å¢Å¢Å¢Å¢Å¢Å¢Å¢Å¢Å¢Å¢Å¢Å¢Å¢Å¢Å¢Å¢Å¢Å¢Å¢Å¢Å¢Å¢Å¢Å¢Å¢Å¢Å¢Å¢Å¢Å¢Å¢Å¢Å¢Å¢Å¢Å¢Å¢Å¢Å¢Å¢Å¢Å¢Å¢Å¢Å¢Å¢Å¢Å¢Å¢Å¢Å¢Å¢Å¢Å¢Å¢Å¢Å¢Å¢Å¢Å¢Å¢Å¢Å¢Å¢Å¢Å¢Å¢Å¢Å¢Å¢Å¢Å¢Å¢Å¢Å¢Å¢Å¢Å¢Å¢Å¢Å¢Å¢Å¢Å¢Å¢Å¢Å¢Å¢Å¢Å¢Å¢Å¢Å¢Å¢Å¢Å¢Å¢Å¢Å¢Å¢Å¢Å¢Å¢Å¢Å¢Å¢Å¢Å¢Å¢Å¢Å¢Å¢Å¢Å¢Å¢Å¢Å¢Å¢Å¢Å¢Å¢Å¢Å¢Å¢Å¢Å¢Å¢Å¢Å¢Å¢Å¢Å¢Å¢Å¢Å¢Å¢Å¢Å¢Å¢Å¢Å¢Å¢Å¢Å¢Å¢Å¢Å¢Å¢Å¢Å¢Å¢Å¢Å¢Å¢Å¢Å¢Å¢Å¢Å¢Å¢Å¢Å¢Å¢Å¢Å¢Å¢Å¢Å¢Å¢Å¢Å¢Å¢Å¢Å¢Å¢Å¢Å¢Å¢Å¢Å¢Å¢Å¢Å¢Å¢Å¢Å¢Å¢Å¢Å¢Å¢Å¢Å¢Å¢Å¢Å¢Å¢Å¢Å¢Å¢Å¢Å¢Å¢Å¢Å¢Å¢Å¢Å¢Å¢Å¢Å¢Å¢Å¢Å¢Å¢Å¢Å¢Å¢Å¢Å¢Å¢Å¢Å¢Å¢Å¢Å¢Å¢Å¢Å¢Å¢Å¢Å¢Å¢Å¢Å¢Å¢Å¢Å¢Å¢Å¢Å¢Å¢Å¢Å¢Å¢Å¢Å¢Å¢Å¢Å¢Å¢Å¢Å¢Å¢Å¢Å¢Å¢Å¢Å¢Å¢Å¢Å¢Å¢Å¢Å¢Å¢Å¢Å¢Å¢Å¢Å¢Å¢Å¢Å¢Å¢Å¢Å¢Å¢Å¢Å¢Å¢Å¢Å¢Å¢Å¢Å¢Å¢Å¢Å¢Å¢Å¢Å¢Å¢Å¢Å¢Å¢Å¢Å¢Å¢Å¢Å¢Å¢Å¢Å¢Å¢Å¢Å¢Å¢Å¢Å¢Å¢Å¢Å¢Å¢Å¢Å¢Å¢Å¢Å¢Å¢Å¢Å¢Å¢Å¢Å¢Å¢Å¢Å¢Å¢Å¢Å¢Å¢Å¢Å¢Å¢Å¢Å¢Å¢Å¢Å¢Å¢Å¢Å¢Å¢Å¢Å¢Å¢Å¢Å¢Å¢Å¢Å¢Å¢Å¢Å¢Å¢Å¢Å¢Å¢Å¢Å¢Å¢Å¢Å¢Å¢Å¢Å¢Å¢Å¢Å¢Å¢Å¢Å¢Å¢Å¢Å¢Å¢Å¢Å¢Å¢Å¢Å¢Å¢Å¢Å¢Å¢Å¢Å¢Å¢Å¢Å¢Å¢Å¢Å¢Å¢Å¢Å¢Å¢Å¢Å¢Å¢Å¢Å¢Å¢Å¢Å¢Å¢Å¢Å¢Å¢Å¢Å¢Å¢Å¢Å¢Å¢Å¢Å¢Å¢Å¢Å¢Å¢Å¢Å¢Å¢Å¢Å¢Å¢Å¢Å¢Å¢Å¢Å¢Å¢Å¢Å¢Å¢Å¢Å¢Å¢Å¢Å¢Å¢Å¢Å¢Å¢Å¢Å¢Å¢Å¢Å¢Å¢Å¢Å¢Å¢Å¢Å¢Å¢Å¢Å¢Å¢Å¢Å¢Å¢Å¢Å¢Å¢Å¢Å¢Å¢Å¢Å¢Å¢Å¢Å¢Å¢Å¢Å¢Å¢Å¢Å¢Å¢Å¢Å¢Å¢Å¢Å¢Å¢Å¢Å¢Å¢Å¢Å¢Å¢Å¢Å¢Å¢Å¢Å¢Å¢Å¢Å¢Å¢Å¢Å¢Å¢Å¢Å¢Å¢Å¢Å¢Å¢Å¢Å¢Å¢Å¢Å¢Å¢Å¢Å¢Å¢Å¢Å¢Å¢Å¢Å¢Å¢Å¢Å¢Å¢Å¢Å¢Å¢Å¢Å¢Å¢Å¢Å¢Å¢Å¢Å¢Å¢Å¢Å¢Å¢Å¢Å¢Å¢Å¢Å¢Å¢Å¢Å¢Å¢Å¢Å¢Å¢Å¢Å¢Å¢Å¢Å¢Å¢Å¢Å¢Å¢Å¢Å¢Å¢Å¢Å¢Å¢Å¢Å¢Å¢Å¢Å¢Å¢Å¢Å¢Å¢Å¢Å¢Å¢Å¢Å¢Å¢Å¢Å¢Å¢Å¢Å¢Å¢Å¢Å¢Å¢Å¢Å¢Å¢Å¢Å¢Å¢Å¢Å¢Å¢Å¢Å¢Å¢Å¢Å¢Å¢Å¢Å¢Å¢Å¢Å¢Å¢Å¢Å¢Å¢Å¢Å¢Å¢Å¢Å¢Å¢Å¢Å¢Å¢Å¢Å¢Å¢Å¢Å¢Å¢Å¢Å¢Å¢Å¢Å¢Å¢Å¢Å¢Å¢Å¢Å¢Å¢Å¢Å¢Å¢Å¢Å¢Å¢Å¢Å¢Å¢Å¢Å¢Å¢Å¢Å¢Å¢Å¢Å¢Å¢Å¢Å¢Å¢Å¢Å¢Å¢Å¢Å¢Å¢Å¢Å¢Å¢Å¢Å¢Å¢Å¢Å¢Å¢Å¢Å¢Å¢Å¢Å¢Å¢Å¢Å¢Å¢Å¢Å¢Å¢Å¢Å¢Å¢Å¢Å¢Å¢Å¢Å¢Å¢Å¢Å¢Å¢Å¢Å¢Å¢Å¢Å¢Å¢Å¢Å¢Å¢Å¢Å¢Å¢Å¢Å¢Å¢Å¢Å¢Å¢Å¢Å¢Å¢Å¢Å¢Å¢Å¢Å¢Å¢Å¢Å¢Å¢Å¢Å¢Å¢Å¢Å¢Å¢Å¢Å¢Å¢Å¢Å¢Å¢Å¢Å¢Å¢Å¢Å¢Å¢Å¢Å¢Å¢Å¢Å¢Å¢Å¢Å¢Å¢Å¢Å¢Å¢Å¢Å¢Å¢Å¢Å¢Å¢Å¢Å¢Å¢Å¢Å¢Å¢Å¢Å¢Å¢Å¢Å¢Å¢Å¢Å¢Å¢Å¢Å¢Å¢Å¢Å¢Å¢Å¢Å¢Å¢Å¢Å¢Å¢Å¢Å¢Å¢Å¢Å¢Å¢Å¢Å¢Å¢Å¢Å¢Å¢Å¢Å¢Å¢Å¢Å¢Å¢Å¢Å¢Å¢Å¢Å¢Å¢Å¢Å¢Å¢Å¢Å¢Å¢Å¢Å¢Å¢Å¢Å¢Å¢Å¢Å¢Å¢Å¢Å¢Å¢Å¢Å¢Å¢Å¢Å¢Å¢Å¢Å¢Å¢Å¢Å¢Å¢Å¢Å¢Å¢Å¢Å¢Å¢Å¢Å¢Å¢Å¢Å¢Å¢Å¢Å¢Å¢Å¢Å¢Å¢Å¢Å¢Å¢Å¢Å¢Å¢Å¢Å¢Å¢Å¢Å¢Å¢Å¢Å¢Å¢Å¢Å¢Å¢Å¢Å¢Å¢Å¢Å¢Å¢Å¢Å¢Å¢Å¢Å¢Å¢Å¢Å¢Å¢Å¢Å¢Å¢Å¢Å¢Å¢Å¢Å¢Å¢Å¢Å¢Å¢Å¢Å¢Å¢Å¢Å¢Å¢Å¢Å¢Å¢Å¢Å¢Å¢Å¢Å¢Å¢Å¢Å¢Å¢Å¢Å¢Å¢Å¢Å¢Å¢Å¢Å¢Å¢Å¢Å¢Å¢Å¢Å¢Å¢Å¢Å¢Å¢Å¢Å¢Å¢Å¢Å¢Å¢Å¢Å¢Å¢Å¢Å¢Å¢Å¢Å¢Å¢Å¢Å¢Å¢Å¢Å¢Å¢Å¢Å¢Å¢Å¢Å¢Å¢Å¢Å¢Å¢Å¢Å¢Å¢Å¢Å¢Å¢Å¢Å¢Å¢Å¢Å¢Å¢Å¢Å¢Å¢Å¢Å¢Å¢Å¢Å¢Å¢Å¢Å¢Å¢Å¢Å¢Å¢Å¢Å¢Å¢Å¢Å¢Å¢Å¢Å¢Å¢Å¢Å¢Å¢Å¢Å¢Å¢Å¢Å¢Å¢Å¢Å¢Å¢Å¢Å¢Å¢Å¢Å¢Å¢Å¢Å¢Å¢Å¢Å¢Å¢Å¢Å¢Å¢Å¢Å¢": 786,
      "Å¢Å£Å¡Å£": 787,
      "Å¢Å¢Å¢Å¢Å¢Å¢Å¢Å¢Å¢Å¢Å¢Å¢Å¢Å¢Å¢Å¢Å¢Å¢Å¢Å¢Å¢Å¢Å¢Å¢Å¢Å¢Å¢Å¢Å¢Å£Å¡": 788,
      "Å¢Å¢Å¢Å¢Å¢Å¢Å¢Å¢Å¢Å¢Å¢Å¢Å¢Å¢Å¢Å¢Å¢Å¢Å¢Å¢Å¢Å¢Å¢Å¢Å¢Å¢Å¢Å¢Å£Å£": 789,
      "Å¢Å¡Å£Å¡": 790,
      "ÄĬ": 791,
      "ÅľÅł": 792,
      "Å¤Åŀ": 793,
      "Å¢Å¥Å¡": 794,
      "Å¢Å¢Å¢Å¢Å¢Å¢Å¢Å¢Å¢Å¢Å¢Å¢Å¢Å¢Å¢Å¢Å¢Å¢Å¢Å¢Å¢Å¢Å¢Å¢Å¢Å¢Å¢Å¢Å¢Å¢Å¢Å¢Å¢Å¢Å¢Å¢Å¢Å¢Å¢Å¢Å¢Å¢Å¢Å¢Å¢Å¢Å¢Å¢Å¢Å¢Å¢Å¢Å¢Å¢Å¢Å¢Å¢Å¢Å¢Å¢Å¢Å¢Å¢Å¢Å¢Å¢Å¢Å¢Å¢Å¢Å¢Å¢Å¢Å¢Å¢Å¢Å¢Å¢Å¢Å¢Å¢Å¢Å¢Å¢Å¢Å¢Å¢Å¢Å¢Å¢Å¢Å¢Å¢Å¢Å¢Å¢Å¢Å¢Å¢Å¢Å¢Å¢Å¢Å¢Å¢Å¢Å¢Å¢Å¢Å¢Å¢Å¢Å¢Å¢Å¢Å¢Å¢Å¢Å¢Å¢Å¢Å¢Å¢Å¢Å¢Å¢Å¢Å¢Å¢Å¢Å¢Å¢Å¢Å¢Å¢Å¢Å¢Å¢Å¢Å¢Å¢Å¢Å¢Å¢Å¢Å¢Å¢Å¢Å¢Å¢Å¢Å¢Å¢Å¢Å¢Å¢Å¢Å¢Å¢Å¢Å¢Å¢Å¢Å¢Å¢Å¢Å¢Å¢Å¢Å¢Å¢Å¢Å¢Å¢Å¢Å¢Å¢Å¢Å¢Å¢Å¢Å¢Å¢Å¢Å¢Å¢Å¢Å¢Å¢Å¢Å¢Å¢Å¢Å¢Å¢Å¢Å¢Å¢Å¢Å¢Å¢Å¢Å¢Å¢Å¢Å¢Å¢Å¢Å¢Å¢Å¢Å¢Å¢Å¢Å¢Å¢Å¢Å¢Å¢Å¢Å¢Å¢Å¢Å¢Å¢Å¢Å¢Å¢Å¢Å¢Å¢Å¢Å¢Å¢Å¢Å¢Å¢Å¢Å¢Å¢Å¢Å¢Å¢Å¢Å¢Å¢Å¢Å¢Å¢Å¢Å¢Å¢Å¢Å¢Å¢Å¢Å¢Å¢Å¢Å¢Å¢Å¢Å¢Å¢Å¢Å¢Å¢Å¢Å¢Å¢Å¢Å¢Å¢Å¢Å¢Å¢Å¢Å¢Å¢Å¢Å¢Å¢Å¢Å¢Å¢Å¢Å¢Å¢Å¢Å¢Å¢Å¢Å¢Å¢Å¢Å¢Å¢Å¢Å¢Å¢Å¢Å¢Å¢Å¢Å¢Å¢Å¢Å¢Å¢Å¢Å¢Å¢Å¢Å¢Å¢Å¢Å¢Å¢Å¢Å¢Å¢Å¢Å¢Å¢Å¢Å¢Å¢Å¢Å¢Å¢Å¢Å¢Å¢Å¢Å¢Å¢Å¢Å¢Å¢Å¢Å¢Å¢Å¢Å¢Å¢Å¢Å¢Å¢Å¢Å¢Å¢Å¢Å¢Å¢Å¢Å¢Å¢Å¢Å¢Å¢Å¢Å¢Å¢Å¢Å¢Å¢Å¢Å¢Å¢Å¢Å¢Å¢Å¢Å¢Å¢Å¢Å¢Å¢Å¢Å¢Å¢Å¢Å¢Å¢Å¢Å¢Å¢Å¢Å¢Å¢Å¢Å¢Å¢Å¢Å¢Å¢Å¢Å¢Å¢Å¢Å¢Å¢Å¢Å¢Å¢Å¢Å¢Å¢Å¢Å¢Å¢Å¢Å¢Å¢Å¢Å¢Å¢Å¢Å¢Å¢Å¢Å¢Å¢Å¢Å¢Å¢Å¢Å¢Å¢Å¢Å¢Å¢Å¢Å¢Å¢Å¢Å¢Å¢Å¢Å¢Å¢Å¢Å¢Å¢Å¢Å¢Å¢Å¢Å¢Å¢Å¢Å¢Å¢Å¢Å¢Å¢Å¢Å¢Å¢Å¢Å¢Å¢Å¢Å¢Å¢Å¢Å¢Å¢Å¢Å¢Å¢Å¢Å¢Å¢Å¢Å¢Å¢Å¢Å¢Å¢Å¢Å¢Å¢Å¢Å¢Å¢Å¢Å¢Å¢Å¢Å¢Å¢Å¢Å¢Å¢Å¢Å¢Å¢Å¢Å¢Å¢Å¢Å¢Å¢Å¢Å¢Å¢Å¢Å¢Å¢Å¢Å¢Å¢Å¢Å¢Å¢Å¢Å¢Å¢Å¢Å¢Å¢Å¢Å¢Å¢Å¢Å¢Å¢Å¢Å¢Å¢Å¢Å¢Å¢Å¢Å¢Å¢Å¢Å¢Å¢Å¢Å¢Å¢Å¢Å¢Å¢Å¢Å¢Å¢Å¢Å¢Å¢Å¢Å¢Å¢Å¢Å¢Å¢Å¢Å¢Å¢Å¢Å¢Å¢Å¢Å¢Å¢Å¢Å¢Å¢Å¢Å¢Å¢Å¢Å¢Å¢Å¢Å¢Å¢Å¢Å¢Å¢Å¢Å¢Å¢Å¢Å¢Å¢Å¢Å¢Å¢Å¢Å¢Å¢Å¢Å¢Å¢Å¢Å¢Å¢Å¢Å¢Å¢Å¢Å¢Å¢Å¢Å¢Å¢Å¢Å¢Å¢Å¢Å¢Å¢Å¢Å¢Å¢Å¢Å¢Å¢Å¢Å¢Å¢Å¢Å¢Å¢Å¢Å¢Å¢Å¢Å¢Å¢Å¢Å¢Å¢Å¢Å¢Å¢Å¢Å¢Å¢Å¢Å¢Å¢Å¢Å¢Å¢Å¢Å¢Å¢Å¢Å¢Å¢Å¢Å¢Å¢Å¢Å¢Å¢Å¢Å¢Å¢Å¢Å¢Å¢Å¢Å¢Å¢Å¢Å¢Å¢Å¢Å¢Å¢Å¢Å¢Å¢Å¢Å¢Å¢Å¢Å¢Å¢Å¢Å¢Å¢Å¢Å¢Å¢Å¢Å¢Å¢Å¢Å¢Å¢Å¢Å¢Å¢Å¢Å¢Å¢Å¢Å¢Å¢Å¢Å¢Å¢Å¢Å¢Å¢Å¢Å¢Å¢Å¢Å¢Å¢Å¢Å¢Å¢Å¢Å¢Å¢Å¢Å¢Å¢Å¢Å¢Å¢Å¢Å¢Å¢Å¢Å¢Å¢Å¢Å¢Å¢Å¢Å¢Å¢Å¢Å¢Å¢Å¢Å¢Å¢Å¢Å¢Å¢Å¢Å¢Å¢Å¢Å¢Å¢Å¢Å¢Å¢Å¢Å¢Å¢Å¢Å¢Å¢Å¢Å¢Å¢Å¢Å¢Å¢Å¢Å¢Å¢Å¢Å¢Å¢Å¢Å¢Å¢Å¢Å¢Å¢Å¢Å¢Å¢Å¢Å¢Å¢Å¢Å¢Å¢Å¢Å¢Å¢Å¢Å¢Å¢Å¢Å¢Å¢Å¢Å¢Å¢Å¢Å¢Å¢Å¢Å¢Å¢Å¢Å¢Å¢Å¢Å¢Å¢Å¢Å¢Å¢Å¢Å¢Å¢Å¢Å¢Å¢Å¢Å¢Å¢Å¢Å¢Å¢Å¢Å¢Å¢Å¢Å¢Å¢Å¢Å¢Å¢Å¢Å¢Å¢Å¢Å¢Å¢Å¢Å¢Å¢Å¢Å¢Å¢Å¢Å¢Å¢Å¢Å¢Å¢Å¢Å¢Å¢Å¢Å¢Å¢Å¢Å¢Å¢Å¢Å¢Å¢Å¢Å¢Å¢Å¢Å¢Å¢Å¢Å¢Å¢Å¢Å¢Å¢Å¢Å¢Å¢Å¢Å¢Å¢Å¢Å¢Å¢Å¢Å¢Å¢Å¢Å¢Å¢Å¢Å¢Å¢Å¢Å¢Å¢Å¢Å¢Å¢Å¢Å¢Å¢Å¢Å¢Å¢Å¢Å¢Å¢Å¢Å¢Å¢Å¢Å¢Å¢Å¢Å¢Å¢Å¢Å¢Å¢Å¢Å¢Å¢Å¢Å¢Å¢Å¢Å¢Å¢Å¢Å¢Å¢Å¢Å¢Å¢Å¢Å¢Å¢Å¢Å¢Å¢Å¢Å¢Å¢Å¢Å¢Å¢Å¢Å¢Å¢Å¢Å¢Å¢Å¢Å¢Å¢Å¢Å¢Å¢Å¢Å¢Å¢Å¢Å¢Å¢Å¢Å¢Å¢Å¢Å¢Å¢Å¢Å¢Å¢Å¢Å¢Å¢Å¢Å¢Å¢Å¢Å¢Å¢Å¢Å¢Å¢Å¢Å¢Å¢Å¢Å¢Å¢Å¢Å¢Å¢Å¢Å¢Å¢Å¢Å¢Å¢Å¢Å¢Å¢Å¢Å¢Å¢Å¢Å¢Å¢Å¢Å¢Å¢Å¢Å¢Å¢Å¢Å¢Å¢Å¢Å¢Å¢Å¢Å¢Å¢Å¢Å¢Å¢Å¢Å¢Å¢Å¢Å¢Å¢Å¢Å¢Å¢Å¢Å¢Å¢Å¢Å¢Å¢Å¢Å¢Å¢Å¢Å¢Å¢Å¢Å¢Å¢Å¢Å¢Å¢Å¢Å¢Å¢Å¢Å¢Å¢Å¢Å¢Å¢Å¢Å¢Å¢Å¢Å¢Å¢Å¢Å¢Å¢Å¢Å¢Å¢Å¢Å¢Å¢Å¢Å¢Å¢Å¢Å¢Å¢Å¢Å¢Å¢Å¢Å¢Å¢Å¢Å¢Å¢Å¢Å¢Å¢Å¢Å¢Å¢Å¢Å¢Å¢Å¢Å¢Å¢Å¢Å¢Å¢Å¢Å¢Å¢Å¢Å¢Å¢Å¢Å¢Å¢Å¢Å¢Å¢Å¢Å¢Å¢Å¢Å¢Å¢Å¢Å¢Å¢Å¢Å¢Å¢Å¢Å¢Å¢Å¢Å¢Å¢Å¢Å¢Å¢Å¢Å¢Å¢Å¢Å¢Å¢Å¢Å¢Å¢Å¢Å¢Å¢Å¢Å¢Å¢Å¢Å¢Å¢Å¢Å¢Å¢Å¢Å¢Å¢Å¢Å¢Å¢Å¢Å¢Å¢Å¢Å¢Å¢Å¢Å¢Å¢Å¢Å¢Å¢Å¢Å¢Å¢Å¢Å¢Å¢Å¢Å¢Å¢Å¢Å¢Å¢Å¢Å¢Å¢Å¢Å¢Å¢Å¢Å¢Å¢Å¢Å¢Å¢Å¢Å¢Å¢Å¢Å¢Å¢Å¢Å¢Å¢Å¢Å¢Å¢Å¢Å¢Å¢Å¢Å¢Å¢Å¢Å¢Å¢Å¢Å¢Å¢Å¢Å¢Å¢Å¢Å¢Å¢Å¢Å¢Å¢Å¢Å¢Å¢Å¢Å¢Å¢Å¢Å¢Å¢Å¢Å¢Å¢Å¢Å¢Å¢Å¢Å¢Å¢Å¢Å¢Å¢Å¢Å¢Å¢Å¢Å¢Å¢Å¢Å¢Å¢Å¢Å¢Å¢Å¢Å¢Å¢Å¢Å¢Å¢Å¢Å¢Å¢Å¢Å¢Å¢Å¢Å¢Å¢Å¢Å¢Å¢Å¢Å¢Å¢Å¢Å¢Å¢Å¢Å¢Å¢Å¢Å¢Å¢Å¢Å¢Å¢Å¢": 795,
      "Å¡Å¡Åł": 796,
      "Å¢Å¢Å¢Å¢Å¢Å¢Å¢Å¢Å¢Å¢Å¢Å¢Å¢Å¢Å¢Å¢Å¢Å¢Å¢Å¢Å¢Å¢Å¢Å¢Åł": 797,
      "Å¢Å¢Å¢Å¢Å¢Å¢Å¢Å¢Å¢Å¢Å¢Å¢Å¢Å¢Å¢Å¢Å¢Å¢Å¢Å¢Å¢Å¢Å¢Å¢Å¢Å¢Å¢Å¢Å¢Åł": 798,
      "Å¢Å¢Å¢Å¢Å¢Å¢Å¢Å¢Å¢Å¢Å¢Å¢Å¢Å¢Å¢Å¢Å¢Å¢Å¢Å¢Å¢Å¢Å¢Å¢Å¢Å¢Å¢Å¢Å¢Å¢Å¢Å¢Å¢Å¢Å¢Å¢Å¢Å¢Å¢Å¢Å¢Å¢Å¢Å¢Å¢Å¢Å¢Å¢Å¢Å¢Å¢Å¢Å¢Å¢Å¢Å¢Å¢Å¢Å¢Å¢Å¢Å¢Å¢Å¢Å¢Å¢Å¢Å¢Å¢Å¢Å¢Å¢Å¢Å¢Å¢Å¢Å¢Å¢Å¢Å¢Å¢Å¢Å¢Å¢Å¢Å¢Å¢Å¢Å¢Å¢Å¢Å¢Å¢Å¢Å¢Å¢Å¢Å¢Å¢Å¢Å¢Å¢Å¢Å¢Å¢Å¢Å¢Å¢Å¢Å¢Å¢Å¢Å¢Å¢Å¢Å¢Å¢Å¢Å¢Å¢Å¢Å¢Å¢Å¢Å¢Å¢Å¢Å¢Å¢Å¢Å¢Å¢Å¢Å¢Å¢Å¢Å¢Å¢Å¢Å¢Å¢Å¢Å¢Å¢Å¢Å¢Å¢Å¢Å¢Å¢Å¢Å¢Å¢Å¢Å¢Å¢Å¢Å¢Å¢Å¢Å¢Å¢Å¢Å¢Å¢Å¢Å¢Å¢Å¢Å¢Å¢Å¢Å¢Å¢Å¢Å¢Å¢Å¢Å¢Å¢Å¢Å¢Å¢Å¢Å¢Å¢Å¢Å¢Å¢Å¢Å¢Å¢Å¢Å¢Å¢Å¢Å¢Å¢Å¢Å¢Å¢Å¢Å¢Å¢Å¢Å¢Å¢Å¢Å¢Å¢Å¢Å¢Å¢Å¢Å¢Å¢Å¢Å¢Å¢Å¢Å¢Å¢Å¢Å¢Å¢Å¢Å¢Å¢Å¢Å¢Å¢Å¢Å¢Å¢Å¢Å¢Å¢Å¢Å¢Å¢Å¢Å¢Å¢Å¢Å¢Å¢Å¢Å¢Å¢Å¢Å¢Å¢Å¢Å¢Å¢Å¢Å¢Å¢Å¢Å¢Å¢Å¢Å¢Å¢Å¢Å¢Å¢Å¢Å¢Å¢Å¢Å¢Å¢Å¢Å¢Å¢Å¢Å¢Å¢Å¢Å¢Å¢Å¢Å¢Å¢Å¢Å¢Å¢Å¢Å¢Å¢Å¢Å¢Å¢Å¢Å¢Å¢Å¢Å¢Å¢Å¢Å¢Å¢Å¢Å¢Å¢Å¢Å¢Å¢Å¢Å¢Å¢Å¢Å¢Å¢Å¢Å¢Å¢Å¢Å¢Å¢Å¢Å¢Å¢Å¢Å¢Å¢Å¢Å¢Å¢Å¢Å¢Å¢Å¢Å¢Å¢Å¢Å¢Å¢Å¢Å¢Å¢Å¢Å¢Å¢Å¢Å¢Å¢Å¢Å¢Å¢Å¢Å¢Å¢Å¢Å¢Å¢Å¢Å¢Å¢Å¢Å¢Å¢Å¢Å¢Å¢Å¢Å¢Å¢Å¢Å¢Å¢Å¢Å¢Å¢Å¢Å¢Å¢Å¢Å¢Å¢Å¢Å¢Å¢Å¢Å¢Å¢Å¢Å¢Å¢Å¢Å¢Å¢Å¢Å¢Å¢Å¢Å¢Å¢Å¢Å¢Å¢Å¢Å¢Å¢Å¢Å¢Å¢Å¢Å¢Å¢Å¢Å¢Å¢Å¢Å¢Å¢Å¢Å¢Å¢Å¢Å¢Å¢Å¢Å¢Å¢Å¢Å¢Å¢Å¢Å¢Å¢Å¢Å¢Å¢Å¢Å¢Å¢Å¢Å¢Å¢Å¢Å¢Å¢Å¢Å¢Å¢Å¢Å¢Å¢Å¢Å¢Å¢Å¢Å¢Å¢Å¢Å¢Å¢Å¢Å¢Å¢Å¢Å¢Å¢Å¢Å¢Å¢Å¢Å¢Å¢Å¢Å¢Å¢Å¢Å¢Å¢Å¢Å¢Å¢Å¢Å¢Å¢Å¢Å¢Å¢Å¢Å¢Å¢Å¢Å¢Å¢Å¢Å¢Å¢Å¢Å¢Å¢Å¢Å¢Å¢Å¢Å¢Å¢Å¢Å¢Å¢Å¢Å¢Å¢Å¢Å¢Å¢Å¢Å¢Å¢Å¢Å¢Å¢Å¢Å¢Å¢Å¢Å¢Å¢Å¢Å¢Å¢Å¢Å¢Å¢Å¢Å¢Å¢Å¢Å¢Å¢Å¢Å¢Å¢Å¢Å¢Å¢Å¢Å¢Å¢Å¢Å¢Å¢Å¢Å¢Å¢Å¢Å¢Å¢Å¢Å¢Å¢Å¢Å¢Å¢Å¢Å¢Å¢Å¢Å¢Å¢Å¢Å¢Å¢Å¢Å¢Å¢Å¢Å¢Å¢Å¢Å¢Å¢Å¢Å¢Å¢Å¢Å¢Å¢Å¢Å¢Å¢Å¢Å¢Å¢Å¢Å¢Å¢Å¢Å¢Å¢Å¢Å¢Å¢Å¢Å¢Å¢Å¢Å¢Å¢Å¢Å¢Å¢Å¢Å¢Å¢Å¢Å¢Å¢Å¢Å¢Å¢Å¢Å¢Å¢Å¢Å¢Å¢Å¢Å¢Å¢Å¢Å¢Å¢Å¢Å¢Å¢Å¢Å¢Å¢Å¢Å¢Å¢Å¢Å¢Å¢Å¢Å¢Å¢Å¢Å¢Å¢Å¢Å¢Å¢Å¢Å¢Å¢Å¢Å¢Å¢Å¢Å¢Å¢Å¢Å¢Å¢Å¢Å¢Å¢Å¢Å¢Å¢Å¢Å¢Å¢Å¢Å¢Å¢Å¢Å¢Å¢Å¢Å¢Å¢Å¢Å¢Å¢Å¢Å¢Å¢Å¢Å¢Å¢Å¢Å¢Å¢Å¢Å¢Å¢Å¢Å¢Å¢Å¢Å¢Å¢Å¢Å¢Å¢Å¢Å¢Å¢Å¢Å¢Å¢Å¢Å¢Å¢Å¢Å¢Å¢Å¢Å¢Å¢Å¢Å¢Å¢Å¢Å¢Å¢Å¢Å¢Å¢Å¢Å¢Å¢Å¢Å¢Å¢Å¢Å¢Å¢Å¢Å¢Å¢Å¢Å¢Å¢Å¢Å¢Å¢Å¢Å¢Å¢Å¢Å¢Å¢Å¢Å¢Å¢Å¢Å¢Å¢Å¢Å¢Å¢Å¢Å¢Å¢Å¢Å¢Å¢Å¢Å¢Å¢Å¢Å¢Å¢Å¢Å¢Å¢Å¢Å¢Å¢Å¢Å¢Å¢Å¢Å¢Å¢Å¢Å¢Å¢Å¢Å¢Å¢Å¢Å¢Å¢Å¢Å¢Å¢Å¢Å¢Å¢Å¢Å¢Å¢Å¢Å¢Å¢Å¢Å¢Å¢Å¢Å¢Å¢Å¢Å¢Å¢Å¢Å¢Å¢Å¢Å¢Å¢Å¢Å¢Å¢Å¢Å¢Å¢Å¢Å¢Å¢Å¢Å¢Å¢Å¢Å¢Å¢Å¢Å¢Å¢Å¢Å¢Å¢Å¢Å¢Å¢Å¢Å¢Å¢Å¢Å¢Å¢Å¢Å¢Å¢Å¢Å¢Å¢Å¢Å¢Å¢Å¢Å¢Å¢Å¢Å¢Å¢Å¢Å¢Å¢Å¢Å¢Å¢Å¢Å¢Å¢Å¢Å¢Å¢Å¢Å¢Å¢Å¢Å¢Å¢Å¢Å¢Å¢Å¢Å¢Å¢Å¢Å¢Å¢Å¢Å¢Å¢Å¢Å¢Å¢Å¢Å¢Å¢Å¢Å¢Å¢Å¢Å¢Å¢Å¢Å¢Å¢Å¢Å¢Å¢Å¢Å¢Å¢Å¢Å¢Å¢Å¢Å¢Å¢Å¢Å¢Å¢Å¢": 799,
      "Äī": 800,
      "Å¢ÅŁÅ¡": 801,
      "Å¢Å¢Å¢Å¢Å¢Å¢Å¢Å¢Å¢Å¢Å¢Å¢Å¢Å¢Å¢Å¢Å¢Å¢Å¢Å¢Å¢Å¢Å¢Å¡Å£": 802,
      "Å¢Å¡Å¢Å¢Å¡": 803,
      "ÅªÅ£": 804,
      "Å§Åŀ": 805,
      "Å¢Å¢Å¢Å¢Å¢Å¢Å¢Å¢Å¢Å¢Å¢Å¢Å¢Å¢Å¢Å¢Å¢Å¢Å¢Å¢Å¢Å¢Å¢Å¢Å¢Å¢Å¢Å¢Å¢Å¤": 806,
      "Å¤Å¢Å£": 807,
      "Å¢Å¢Å¢Å¢Å¢Å¢Å¢Å¢Å¢Å¢Å¢Å¢Å¢Å¢Å¢Å¢Å¢Å¢Å¢Å¢Å¢Å¢Å¡Å£": 808,
      "ÇĨ": 809,
      "Å¦ÅĿ": 810,
      "Å¢Å¢Å¢Å¢Å¢Å¡Å£": 811,
      "Å§Å¥": 812,
      "Äĩ": 813,
      "Å§ÅĿ": 814,
      "Æ»": 815,
      "ÅļÅ¥": 816,
      "Å¢Å¢Å¢Å¢Å¢Å¢Å¢Å¢Å¢Å¢Å¢Å¢Å¢Å¢Å¢Å¢Å¢Å¢Å¢Å¢Å¢Å¢Å£Å£": 817,
      "Çħ": 818,
      "Å¢Å¢Å¢Å¢Å¢Å£Å¡": 819,
      "Å¢Å¢Å¢Å¢Å¢Å¢Å¢Å¢Å¢Å¢Å¢Å¢Å¢Å¢Å¢Å¢Å¢Å¢Å¢Å¢Å¢Å¢Å¢Å¡Å¡": 820,
      "Æ¼": 821,
      "Å¢Å£Å¢Å¢Å£": 822,
      "Å¢Å¢Å¢Å¢Å¢Å¢Å¢Å¢Å¢Å¢Å¢Å¢Å¢Å¢Å¢Å¢Å¢Å¢Å¢Å¢Å¢Å¢Å¢Å¢Å¢Å¢Å¢Å¢Å¢Å¢Å¢Å£Å¢Å¢Å¢Å¢Å¢Å¢Å¢Å¢Å¢Å¢Å¢Å¢Å¢Å¢Å¢Å¢Å¢Å¢Å¢Å¢Å¢Å¢Å¢Å¢Å¢Å¢Å¢Å¢Å¢Å¢Å¢Å¢": 823,
      "Å¢Å¢Å¢Å¢Å¢Å¢Å¢Å¢Å¢Å¢Å¢Å¢Å¢Å¢Å¢Å¢Å¢Å¢Å¢Å¢Å¢Å¢Å¢Å¢Å¢Å¢Å¢Å¢Å¢Å¢Å¢Å¢Å¢Å¢Å¢Å¢Å¢Å¢Å¢Å¢Å¢Å¢Å¢Å¢Å¢Å¢Å¢Å¢Å¢Å¢Å¢Å¢Å¢Å¢Å¢Å¢Å¢Å¢Å¢Å¢Å¢Å¢Å¢Å¢Å¢Å¢Å¢Å¢Å¢Å¢Å¢Å¢Å¢Å¢Å¢Å¢Å¢Å¢Å¢Å¢Å¢Å¢Å¢Å¢Å¢Å¢Å¢Å¢Å¢Å¢Å¢Å¢Å¢Å¢Å¢Å¢Å¢Å¢Å¢Å¢Å¢Å¢Å¢Å¢Å¢Å¢Å¢Å¢Å¢Å¢Å¢Å¢Å¢Å¢Å¢Å¢Å¢Å¢Å¢Å¢Å¢Å¢Å¢Å¢Å¢Å¢Å¢Å¢Å¢Å¢Å¢Å¢Å¢Å¢Å¢Å¢Å¢Å¢Å¢Å¢Å¢Å¢Å¢Å¢Å¢Å¢Å¢Å¢Å¢Å¢Å¢Å¢Å¢Å¢Å¢Å¢Å¢Å¢Å¢Å¢Å¢Å¢Å¢Å¢Å¢Å¢Å¢Å¢Å¢Å¢Å¢Å¢Å¢Å¢Å¢Å¢Å¢Å¢Å¢Å¢Å¢Å¢Å¢Å¢Å¢Å¢Å¢Å¢Å¢Å¢Å¢Å¢": 824,
      "Å¢Å¢Å¢Å¢Å¢Å¢Å¢Å¢Å¢Å¢Å¢Å¢Å¢Å¢Å¢Å¢Å¢Å¢Å¢Å¢Å¢Å¢Å¢Å¢Å¢Å¢Å¢Å¢Å¢Å¢Å¢Å¢Å¢Å¢Å¢Å¢Å¢Å¢Å¢Å¢Å¢Å¢Å¢Å¢Å¢Å¢Å¢Å¢Å¢Å¢Å¢Å¢Å¢Å¢Å¢Å¢Å¢Å¢Å¢Å¢Å¢Å¢Å¢Å¢Å¢Å¢Å¢Å¢Å¢Å¢Å¢Å¢Å¢Å¢Å¢Å¢Å¢Å¢Å¢Å¢Å¢Å¢Å¢Å¢Å¢Å¢Å¢Å¢Å¢Å¢Å¢Å¢Å¢Å¢Å¢Å¢Å¢Å¢Å¢Å¢Å¢Å¢Å¢Å¢Å¢Å¢Å¢Å¢Å¢Å¢Å¢Å¢Å¢Å¢Å¢Å¢Å¢Å¢Å¢Å¢Å¢Å¢Å¢Å¢Å¢Å¢Å¢Å¢Å¢Å¢Å¢Å¢Å¢Å¢Å¢Å¢Å¢Å¢Å¢Å¢Å¢Å¢Å¢Å¢Å¢Å¢Å¢Å¢Å¢Å¢Å¢Å¢Å¢Å¢Å¢Å¢Å¢Å¢Å¢Å¢Å¢Å¢Å¢Å¢Å¢Å¢Å¢Å¢Å¢Å¢Å¢Å¢Å¢Å¢Å¢Å¢Å¢Å¢Å¢Å¢Å¢Å¢Å¢Å¢Å¢Å¢Å¢Å¢Å¢Å¢Å¢Å¢Å¢Å¢Å¢Å¢Å¢Å¢Å¢Å¢Å¢Å¢Å¢Å¢Å¢Å¢Å¢Å¢Å¢Å¢Å¢Å¢Å¢Å¢Å¢Å¢Å¢Å¢Å¢Å¢Å¢Å¢Å¢Å¢Å¢Å¢Å¢Å¢Å¢Å¢Å¢Å¢Å¢Å¢Å¢Å¢Å¢Å¢Å¢Å¢Å¢Å¢Å¢Å¢Å¢Å¢Å¢Å¢Å¢Å¢Å¢Å¢Å¢Å¢Å¢Å¢Å¢Å¢Å¢Å¢Å¢Å¢Å¢Å¢Å¢Å¢Å¢Å¢Å¢Å¢Å¢Å¢Å¢Å¢Å¢Å¢Å¢Å¢Å¢Å¢Å¢Å¢Å¢Å¢Å¢Å¢Å¢Å¢Å¢Å¢Å¢Å¢Å¢Å¢Å¢Å¢Å¢Å¢Å¢Å¢Å¢Å¢Å¢Å¢Å¢Å¢Å¢Å¢Å¢Å¢Å¢Å¢Å¢Å¢Å¢Å¢Å¢Å¢Å¢Å¢Å¢Å¢Å¢Å¢Å¢Å¢Å¢Å¢Å¢Å¢Å¢Å¢Å¢Å¢Å¢Å¢Å¢Å¢Å¢Å¢Å¢Å¢Å¢Å¢Å¢Å¢Å¢Å¢Å¢Å¢Å¢Å¢Å¢Å¢Å¢Å¢Å¢Å¢Å¢Å¢Å¢Å¢Å¢Å¢Å¢Å¢Å¢Å¢Å¢Å¢Å¢Å¢Å¢Å¢Å¢Å¢Å¢Å¢Å¢Å¢Å¢Å¢Å¢Å¢Å¢Å¢Å¢Å¢Å¢Å¢Å¢Å¢Å¢Å¢Å¢Å¢Å¢Å¢Å¢Å¢Å¢Å¢Å¢Å¢Å¢Å¢Å¢Å¢Å¢Å¢Å¢Å¢Å¢Å¢Å¢Å¢Å¢Å¢Å¢Å¢Å¢Å¢Å¢Å¢Å¢Å¢Å¢Å¢Å¢Å¢Å¢Å¢Å¢Å¢Å¢Å¢Å¢Å¢Å¢Å¢Å¢Å¢Å¢Å¢Å¢Å¢Å¢Å¢Å¢Å¢Å¢Å¢Å¢Å¢Å¢Å¢Å¢Å¢Å¢Å¢Å¢Å¢Å¢Å¢Å¢Å¢Å¢Å¢Å¢Å¢Å¢Å¢Å¢Å¢Å¢Å¢Å¢Å¢Å¢Å¢Å¢Å¢Å¢Å¢Å¢Å¢Å¢Å¢Å¢Å¢Å¢Å¢Å¢Å¢Å¢Å¢Å¢Å¢Å¢Å¢Å¢Å¢Å¢Å¢Å¢Å¢Å¢Å¢Å¢Å¢Å¢Å¢Å¢Å¢Å¢Å¢Å¢Å¢Å¢Å¢Å¢Å¢Å¢Å¢Å¢Å¢Å¢Å¢Å¢Å¢Å¢Å¢Å¢Å¢Å¢Å¢Å¢Å¢Å¢Å¢Å¢Å¢Å¢Å¢Å¢Å¢Å¢Å¢Å¢Å¢Å¢Å¢Å¢Å¢Å¢Å¢Å¢Å¢Å¢Å¢Å¢Å¢Å¢Å¢Å¢Å¢Å¢Å¢Å¢Å¢Å¢Å¢Å¢Å¢Å¢Å¢Å¢Å¢Å¢Å¢Å¢Å¢Å¢Å¢Å¢Å¢Å¢Å¢Å¢Å¢Å¢Å¢Å¢Å¢Å¢Å¢Å¢Å¢Å¢Å¢Å¢Å¢Å¢Å¢Å¢Å¢Å¢Å¢Å¢Å¢Å¢Å¢Å¢Å¢Å¢Å¢Å¢Å¢Å¢Å¢Å¢Å¢Å¢Å¢Å¢Å¢Å¢Å¢Å¢Å¢Å¢Å¢Å¢Å¢Å¢Å¢Å¢Å¢Å¢Å¢Å¢Å¢Å¢Å¢Å¢Å¢Å¢Å¢Å¢Å¢Å¢Å¢Å¢Å¢Å¢Å¢Å¢Å¢Å¢Å¢Å¢Å¢Å¢Å¢Å¢Å¢Å¢Å¢Å¢Å¢Å¢Å¢Å¢Å¢Å¢Å¢Å¢Å¢Å¢Å¢Å¢Å¢Å¢Å¢Å¢Å¢Å¢Å¢Å¢Å¢Å¢Å¢Å¢Å¢Å¢Å¢Å¢Å¢Å¢Å¢Å¢Å¢Å¢Å¢Å¢Å¢Å¢Å¢Å¢Å¢Å¢Å¢Å¢Å¢Å¢Å¢Å¢Å¢Å¢Å¢Å¢Å¢Å¢Å¢Å¢Å¢Å¢Å¢Å¢Å¢Å¢Å¢Å¢Å¢Å¢Å¢Å¢Å¢Å¢Å¢Å¢Å¢Å¢Å¢Å¢Å¢Å¢Å¢Å¢Å¢Å¢Å¢Å¢Å¢Å¢Å¢Å¢Å¢Å¢Å¢Å¢Å¢Å¢Å¢Å¢Å¢Å¢Å¢Å¢Å¢Å¢Å¢Å¢Å¢Å¢Å¢Å¢Å¢Å¢Å¢Å¢Å¢Å¢Å¢Å¢Å¢Å¢Å¢Å¢Å¢Å¢Å¢Å¢Å¢Å¢Å¢Å¢Å¢Å¢Å¢Å¢Å¢Å¢Å¢Å¢Å¢Å¢Å¢Å¢Å¢Å¢Å¢Å¢Å¢Å¢Å¢Å¢Å¢Å¢Å¢Å¢Å¢Å¢Å¢Å¢Å¢Å¢Å¢Å¢Å¢Å¢Å¢Å¢Å¢Å¢Å¢Å¢Å¢Å¢Å¢Å¢Å¢Å¢Å¢Å¢Å¢Å¢Å¢Å¢Å¢Å¢Å¢Å¢Å¢Å¢Å¢Å¢Å¢Å¢Å¢Å¢Å¢Å¢Å¢Å¢Å¢Å¢Å¢Å¢Å¢Å¢Å¢Å¢Å¢Å¢Å¢Å¢Å¢Å¢Å¢Å¢Å¢Å¢Å¢Å¢Å¢Å¢Å¢Å¢Å¢Å¢Å¢Å¢Å¢Å¢Å¢Å¢Å¢Å¢Å¢Å¢Å¢Å¢Å¢Å¢Å¢Å¢Å¢Å¢Å¢Å¢Å¢Å¢Å¢Å¢Å¢Å¢Å¢Å¢Å¢Å¢Å¢Å¢Å¢Å¢Å¢Å¢Å¢Å¢Å¢Å¢Å¢Å¢Å¢Å¢Å¢Å¢Å¢Å¢Å¢Å¢Å¢Å¢Å¢Å¢Å¢Å¢Å¢Å¢Å¢Å¢Å¢Å¢Å¢Å¢Å¢Å¢Å¢Å¢Å¢Å¢Å¢Å¢Å¢Å¢Å¢Å¢Å¢Å¢Å¢Å¢Å¢Å¢Å¢Å¢Å¢Å¢Å¢Å¢Å¢Å¢Å¢Å¢Å¢Å¢Å¢Å¢Å¢Å¢Å¢Å¢Å¢Å¢Å¢Å¢Å¢Å¢Å¢Å¢Å¢Å¢Å¢Å¢Å¢Å¢Å¢Å¢Å¢Å¢Å¢Å¢Å¢Å¢Å¢Å¢Å¢Å¢Å¢Å¢Å¢Å¢Å¢Å¢Å¢Å¢Å¢Å¢Å¢Å¢Å¢Å¢Å¢Å¢Å¢Å¢Å¢Å¢Å¢Å¢Å¢Å¢Å¢Å¢Å¢Å¢Å¢Å¢Å¢Å¢Å¢Å¢Å¢Å¢Å¢Å¢Å¢Å¢Å¢Å¢Å¢Å¢Å¢Å¢Å¢Å¢Å¢Å¢Å¢Å¢Å¢Å¢Å¢Å¢Å¢Å¢Å¢Å¢Å¢Å¢Å¢Å¢Å¢Å¢Å¢Å¢Å¢Å¢Å¢Å¢Å¢Å¢Å¢Å¢Å¢Å¢Å¢Å¢Å¢Å¢Å¢Å¢Å¢Å¢Å¢Å¢Å¢Å¢Å¢Å¢Å¢Å¢Å¢Å¢Å¢Å¢Å¢Å¢Å¢Å¢Å¢Å¢Å¢Å¢Å¢Å¢Å¢Å¢Å¢Å¢Å¢Å¢Å¢Å¢Å¢Å¢Å¢Å¢Å¢Å¢Å¢Å¢Å¢Å¢Å¢Å¢Å¢Å¢Å¢Å¢Å¢Å¢Å¢Å¢Å¢Å¢Å¢Å¢Å¢Å¢Å¢Å¢Å¢Å¢Å¢Å¢Å¢Å¢Å¢Å¢Å¢Å¢Å¢Å¢Å¢Å¢Å¢Å¢Å¢Å¢Å¢Å¢Å¢Å¢Å¢Å¢Å¢Å¢Å¢Å¢Å¢Å¢Å¢Å¢Å¢Å¢Å¢Å¢Å¢Å¢Å¢Å¢Å¢Å¢Å¢Å¢Å¢Å¢Å¢Å¢Å¢Å¢Å¢Å¢Å¢Å¢Å¢Å¢Å¢Å¢Å¢Å¢Å¢Å¢Å¢Å¢Å¢Å¢Å¢Å¢Å¢Å¢Å¢Å¢Å¢Å¢Å¢Å¢Å¢Å¢Å¢Å¢Å¢Å¢Å¢Å¢Å¢Å¢Å¢Å¢Å¢Å¢Å¢Å¢Å¢Å¢Å¢Å¢Å¢Å¢Å¢Å¢Å¢Å¢Å¢Å¢Å¢Å¢Å¢Å¢Å¢Å¢Å¢Å¢Å¢Å¢Å¢Å¢Å¢Å¢Å¢Å¢Å¢Å¢Å¢Å¢Å¢Å¢Å¢Å¢Å¢Å¢Å¢Å¢Å¢Å¢Å¢Å¢Å¢Å¢Å¢Å¢Å¢Å¢Å¢Å¢Å¢Å¢Å¢Å¢Å¢Å¢Å¢Å¢Å¢Å¢Å¢Å¢Å¢Å¢Å¢Å¢Å¢Å¢Å¢Å¢Å¢Å¢Å¢Å¢Å¢Å¢Å¢Å¢Å¢Å¢Å¢Å¢Å¢Å¢Å¢Å¢Å¢Å¢Å¢Å¢Å¢Å¢Å¢Å¢Å¢Å¢Å¢Å¢Å¢Å¢Å¢Å¢Å¢Å¢Å¢Å¢Å¢Å¢Å¢Å¢Å¢Å¢Å¢Å¢Å¢Å¢Å¢Å¢Å¢Å¢Å¢Å¢Å¢Å¢Å¢Å¢Å¢Å¢Å¢Å¢Å¢Å¢Å¢Å¢Å¢Å¢Å¢Å¢Å¢Å¢Å¢Å¢Å¢Å¢Å¢Å¢Å¢Å¢Å¢Å¢Å¢Å¢Å¢Å¢Å¢Å¢Å¢Å¢Å¢Å¢Å¢Å¢Å¢Å¢Å¢Å¢Å¢Å¢Å¢Å¢Å¢Å¢Å¢Å¢Å¢Å¢Å¢Å¢Å¢Å¢Å¢Å¢Å¢Å¢Å¢Å¢Å¢Å¢Å¢Å¢Å¢Å¢Å¢Å¢Å¢Å¢Å¢Å¢Å¢Å¢Å¢Å¢Å¢Å¢Å¢Å¢Å¢Å¢Å¢Å¢Å¢Å¢Å¢Å¢Å¢Å¢Å¢Å¢Å¢Å¢Å¢Å¢Å¢Å¢Å¢Å¢Å¢Å¢Å¢Å¢Å¢Å¢Å¢Å¢Å¢Å¢Å¢Å¢Å¢Å¢Å¢Å¢Å¢Å¢Å¢Å¢Å¢Å¢Å¢Å¢Å¢Å¢Å¢Å¢Å¢Å¢Å¢Å¢Å¢Å¢Å¢Å¢Å¢Å¢Å¢Å¢Å¢Å¢Å¢Å¢Å¢Å¢Å¢Å¢Å¢Å¢Å¢Å¢Å¢Å¢Å¢Å¢Å¢Å¢Å¢Å¢Å¢Å¢Å¢Å¢Å¢Å¢Å¢Å¢Å¢Å¢Å¢Å¢Å¢Å¢Å¢Å¢Å¢Å¢Å¢Å¢Å¢Å¢Å¢Å¢Å¢Å¢Å¢": 825,
      "Å¤Å¦": 826,
      "Å¢Å¢Å¢Å¢Å¢Å¢Å¢Å¢Å¢Å¢Å¢Å¢Å¢Å¢Å¢Å¢Å¢Å¢Å¢Å¢Å¢Å¢Å¢Å¢Å¢Å¢Å¢Å¢Å¢Å¢Å¢": 827,
      "ÄĪ": 828,
      "Å¢Å£Å¡Å¡": 829,
      "Å¢Å£Å£Å£": 830,
      "Å¢Å¢Å¢Å¢Å¢Å¢Å¢Å¢Å¢Å¢Å¢Å¢Å¢Å¢Å¢Å¢Å¢Å¢Å¢Å¢Å¢Å¢Å¢Å¢Å¢Å¢Å¢Å¢Å¢Å¢Å¢Å¢Å¢Å¢Å¢Å¢Å¢Å¢Å¢Å¢Å¢Å¢Å¢Å¢Å¢Å¢Å¢Å¢Å¢Å¢Å¢Å¢Å¢Å¢Å¢Å¢Å¢Å¢Å¢Å¢Å¢Å¢Å¢Å¢Å¢Å¢Å¢Å¢Å¢Å¢Å¢Å¢Å¢Å¢Å¢Å¢Å¢Å¢Å¢Å¢Å¢Å¢Å¢Å¢Å¢Å¢Å¢Å¢Å¢Å¢Å¢Å¢Å¢Å¢Å¢Å¢Å¢Å¢Å¢Å¢Å¢Å¢Å¢Å¢Å¢Å¢Å¢Å¢Å¢Å¢Å¢Å¢Å¢Å¢Å¢Å¢Å¢Å¢Å¢Å¢Å¢Å¢Å¢Å¢Å¢Å¢Å¢Å¢Å¢Å¢Å¢Å¢Å¢Å¢Å¢Å¢Å¢Å¢Å¢Å¢Å¢Å¢Å¢Å¢Å¢Å¢Å¢Å¢Å¢Å¢Å¢Å¢Å¢Å¢Å¢Å¢Å¢Å¢Å¢Å¢Å¢Å¢Å¢Å¢Å¢Å¢Å¢Å¢Å¢Å¢Å¢Å¢Å¢Å¢Å¢Å¢Å¢Å¢Å¢Å¢Å¢Å¢Å¢Å¢Å¢Å¢Å¢Å¢Å¢Å¢Å¢Å¢Å¢Å¢Å¢Å¢Å¢Å¢Å¢Å¢Å¢Å¢Å¢Å¢Å¢Å¢Å¢Å¢Å¢Å¢Å¢Å¢Å¢Å¢Å¢Å¢Å¢Å¢Å¢Å¢Å¢Å¢Å¢Å¢Å¢Å¢Å¢Å¢Å¢Å¢Å¢Å¢Å¢Å¢Å¢Å¢Å¢Å¢Å¢Å¢Å¢Å¢Å¢Å¢Å¢Å¢Å¢Å¢Å¢Å¢Å¢Å¢Å¢Å¢Å¢Å¢Å¢Å¢Å¢Å¢Å¢Å¢Å¢Å¢Å¢Å¢Å¢Å¢Å¢Å¢Å¢Å¢Å¢Å¢Å¢Å¢Å¢Å¢Å¢Å¢Å¢Å¢Å¢Å¢Å¢Å¢Å¢Å¢Å¢Å¢Å¢Å¢Å¢Å¢Å¢Å¢Å¢Å¢Å¢Å¢Å¢Å¢Å¢Å¢Å¢Å¢Å¢Å¢Å¢Å¢Å¢Å¢Å¢Å¢Å¢Å¢Å¢Å¢Å¢Å¢Å¢Å¢Å¢Å¢Å¢Å¢Å¢Å¢Å¢Å¢Å¢Å¢Å¢Å¢Å¢Å¢Å¢Å¢Å¢Å¢Å¢Å¢Å¢Å¢Å¢Å¢Å¢Å¢Å¢Å¢Å¢Å¢Å¢Å¢Å¢Å¢Å¢Å¢Å¢Å¢Å¢Å¢Å¢Å¢Å¢Å¢Å¢Å¢Å¢Å¢Å¢Å¢Å¢Å¢Å¢Å¢Å¢Å¢Å¢Å¢Å¢Å¢Å¢Å¢Å¢Å¢Å¢Å¢Å¢Å¢Å¢Å¢Å¢Å¢Å¢Å¢Å¢Å¢Å¢Å¢Å¢Å¢Å¢Å¢Å¢Å¢Å¢Å¢Å¢Å¢Å¢Å¢Å¢Å¢Å¢Å¢Å¢Å¢Å¢Å¢Å¢Å¢Å¢Å¢Å¢Å¢Å¢Å¢Å¢Å¢Å¢Å¢Å¢Å¢Å¢Å¢Å¢Å¢Å¢Å¢Å¢Å¢Å¢Å¢Å¢Å¢Å¢Å¢Å¢Å¢Å¢Å¢Å¢Å¢Å¢Å¢Å¢Å¢Å¢Å¢Å¢Å¢Å¢Å¢Å¢Å¢Å¢Å¢Å¢Å¢Å¢Å¢Å¢Å¢Å¢Å¢Å¢Å¢Å¢Å¢Å¢Å¢Å¢Å¢Å¢Å¢Å¢Å¢Å¢Å¢Å¢Å¢Å¢Å¢Å¢Å¢Å¢Å¢Å¢Å¢Å¢Å¢Å¢Å¢Å¢Å¢Å¢Å¢Å¢Å¢Å¢Å¢Å¢Å¢Å¢Å¢Å¢Å¢Å¢Å¢Å¢Å¢Å¢Å¢Å¢Å¢Å¢Å¢Å¢Å¢Å¢Å¢Å¢Å¢Å¢Å¢Å¢Å¢Å¢Å¢Å¢Å¢Å¢Å¢Å¢Å¢Å¢Å¢Å¢Å¢Å¢Å¢Å¢Å¢Å¢Å¢Å¢Å¢Å¢Å¢Å¢Å¢Å¢Å¢Å¢Å¢Å¢Å¢Å¢Å¢Å¢Å¢Å¢Å¢Å¢Å¢Å¢Å¢Å¢Å¢Å¢Å¢Å¢Å¢Å¢Å¢Å¢Å¢Å¢Å¢Å¢Å¢Å¢Å¢Å¢Å¢Å¢Å¢Å¢Å¢Å¢Å¢Å¢Å¢Å¢Å¢Å¢Å¢Å¢Å¢Å¢Å¢Å¢Å¢Å¢Å¢Å¢Å¢Å¢Å¢Å¢Å¢Å¢Å¢Å¢Å¢Å¢Å¢Å¢Å¢Å¢Å¢Å¢Å¢Å¢Å¢Å¢Å¢Å¢Å¢Å¢Å¢Å¢Å¢Å¢Å¢Å¢Å¢Å¢Å¢Å¢Å¢Å¢Å¢Å¢Å¢Å¢Å¢Å¢Å¢Å¢Å¢Å¢Å¢Å¢Å¢Å¢Å¢Å¢Å¢Å¢Å¢Å¢Å¢Å¢Å¢Å¢Å¢Å¢Å¢Å¢Å¢Å¢Å¢Å¢Å¢Å¢Å¢Å¢Å¢Å¢Å¢Å¢Å¢Å¢Å¢Å¢Å¢Å¢Å¢Å¢Å¢Å¢Å¢Å¢Å¢Å¢Å¢Å¢Å¢Å¢Å¢Å¢Å¢Å¢Å¢Å¢Å¢Å¢Å¢Å¢Å¢Å¢Å¢Å¢Å¢Å¢Å¢Å¢Å¢Å¢Å¢Å¢Å¢Å¢Å¢": 831,
      "Å¢Å¢Å¢Å¢Å¢Å¢Å¢Å¢Å¢Å¢Å¢Å¢Å¢Å¢Å¢Å¢Å¢Å¢Å¢Å¢Å¢Å¢Å¢Å¢Å¢Å¢Å¢Å¢Å¢Å¢Å¢Å£Å¢Å¢Å¢Å¢Å¢Å¢Å¢Å¢Å¢Å¢Å¢Å¢Å¢Å¢Å¢Å¢Å¢Å¢Å¢Å¢Å¢Å¢Å¢Å¢Å¢Å¢Å¢Å¢Å¢Å¢Å¢Å¢Å¢Å¢Å¢Å¢Å¢Å¢Å¢Å¢Å¢Å¢Å¢Å¢Å¢Å¢Å¢Å¢Å¢Å¢Å¢Å¢Å¢Å¢Å¢Å¢Å¢Å¢Å¢Å¢Å¢Å¢Å¢Å¢": 832,
      "Å¢Åķ": 833,
      "Å¢Å¢Å¢Å¢Å¢Å¤": 834,
      "Å¢Å¯": 835,
      "Å¢Å¢Å¢Å¢Å¢Å¢Å¢Å¢Å¢Å¢Å¢Å¢Å¢Å¢Å¢Å¢Å¢Å¢Å¢Å¢Å¢Å¢Å¢Å¢Å¡Å£": 836,
      "Å¤Å¢Å¡": 837,
      "ÅªÅ¡": 838,
      "Æ½": 839,
      "Å¢Å¢Å¢Å¢Å¢Å¢Å¢Å¢Å¢Å¢Å¢Å¢Å¢Åł": 840,
      "Æ¾": 841,
      "ÅľÅ¨": 842,
      "ÅŁÅĿ": 843,
      "Å¢Å¢Å¢Å¢Å¢Åł": 844,
      "ÇĪ": 845,
      "Å¢Å¢Å¢Å¢Å¢Å¢Å¢Å¢Å¢Å¢Å¢Å¢Å¢Å¢Å¢Å¢Å¢Å¢Å¢Å¢Å¢Å¢Å¢Å¢Å£Å¡": 846,
      "ÅļÅ¡": 847,
      "Ã¸": 848,
      "Å¢Å¢Å¢Å¢Å¢Å¢Å¢Å¢Å¢Å¢Å¢Å¢Å¢Å¢Å¢Å¢Å¢Å¢Å¢Å¢Å¢Å¢Å¢Å¢Å¢Å¢Å¢Å£Å£": 849,
      "Å¡Å¡Å¢Å¡": 850,
      "ÅľÅ¥": 851,
      "ÇĬ": 852,
      "Å¢Å¢Å¢Å¢Å¢Å¢Å¢Å¢Å¢Å¢Å¢Å¢Å¢Å¤": 853,
      "Å£Å£Åł": 854,
      "Å¢Å¢Å¢Å¢Å¢Å¢Å¢Å¢Å¢Å¢Å¢Å¢Å¢Å¢Å¢Å¢Å¢Å¢Å¢ÅŁ": 855,
      "Å¢Å£Å£Å¡": 856,
      "Æ¿": 857,
      "Å¢Å¢Å¢Å¢Å¢Å¢Å¢Å¢Å¢Å¢Å¢Å¢Å¢Å¢Å¢Å¢Å¢Å¢Å¢Å¢Å¢Å¢Å¢Å¢Å¢Å¢Å¢Å¢Å¢Å¢Å¢Å¡Å¢Å¢Å¢Å¢Å¢Å¢Å¢Å¢Å¢Å¢Å¢Å¢Å¢Å¢Å¢Å¢Å¢Å¢Å¢Å¢Å¢Å¢Å¢Å¢Å¢Å¢Å¢Å¢Å¢Å¢Å¢Å¢": 858,
      "Å¢Å¢Å¢Å¢Å¢Å¢Å¢Å¢Å¢Å¢Å¢Å¢Å¢Å¢Å¢Å¢Å¢Å¢Å¢Å¢Å¢Å¢Å¢Å¢Å¢Å¢Å¢Å¢Å¡Å¢Å¢Å¡": 859,
      "ÅŁÅ¨": 860,
      "Å©Å¤": 861,
      "Å¢Å¢Å¢Å¦": 862,
      "Å¢Å¢Å¢Å¢Å¢Å¢Å¢Å¢Å¢Å¢Å¢Å¢Å¢Å¢Å¢Å¢Å¢Å¢Å¢Å¥": 863,
      "Å¢Å¢Å¢Å¢Å¢Å¢Å¢Å¢Å¢Å¢Å¢Å¢Å¢Å¢Å¢Å¢Å¢Å¢Å¢Å¢Å¢": 864,
      "Å§Å¦": 865,
      "Å¢Å¢Å¢Å¢Å¢Å¢Å¢Å¢Å¢Å¢Å¢Å¢Å¢Å¢Å¢Å¢Å¢Å¢Å¢Å¢Å¢Å¢Å¢Å¢Å¢Å¢Å¢Å¢Å£Å¢Å¢Å£": 866,
      "Å¢Å¢Å¢Å¢Å¢Å¢Å¢Å¢Å¢Å¢Å¢Å¢Å¢Å¢Å¢Å¢Å¢Å¢Å¢Å¢Å¢Å¢Å¢Å¢Å¢Å¢Å¢Å¢Å¢Å¢Å¤": 867,
      "Å¢Å¢Å¢Å¢Å¢Å¢Å¢Å¢Å¢Å¢Å¢Å¢Å¢Å¢Å¢Å¢Å¢Å¢Å¢Å¢Å¢Å¢Å¢Å£Å¡": 868,
      "Å¢Å¢ÅłÅ£": 869,
      "Å¢Å¢Å¢Å¢Å¢Å¢Å¢Å¢Å¢Å¢Å¢Å¢Å¢Å¢Å¢Å¢Å¢Å¢Å¤": 870,
      "Äħ": 871,
      "ÇĢ": 872,
      "Å¢Å¢Å¤Å¡": 873,
      "ÅļÅ¤": 874,
      "Å¢Å¢Å¢Åŀ": 875,
      "Å¢Å¢Å¢Å¢Å¢Å¢Å¢Å¢Å¢Å¢Å¢Å¢Å¢Å¢Å¢Å¢Å¢Å¢Å¢Å¢Å¢Å¢Å¡Å¡": 876,
      "Çģ": 877,
      "ÅĿÅ¨": 878,
      "ÄĦ": 879,
      "Å£Å£Å¤": 880,
      "Å¢Å¡Å¡Å£": 881,
      "ÅľÅ¦": 882,
      "ÅĿÅŀ": 883,
      "ÄĨ": 884,
      "Å¢Å¢Å§": 885,
      "Äģ": 886,
      "Å¥Å¨": 887,
      "Å¢Å¢Å¢Å¢Å¢Å¢Å¢Å¢Å¢Å¢Å¢Å¢Å¢Å¢Å¢Å¢Å¢Å¢Å¢Å¢Å¢Å¢Å¢Å¢Å¢Å¢Å¢Å¢Å¢Å¢Å¢Å¢Å¢Å¢Å¢Å¢Å¢Å¢Å¢Å¢Å¢Å¢Å¢Å¢Å¢Å¢Å¢Å¢Å¢Å¢Å¢Å¢Å¢Å¢Å¢Å¢Å¢Å¢Å¢Å¢Å¢Å¢Å¢Å¢Å¢Å¢Å¢Å¢Å¢Å¢Å¢Å¢Å¢Å¢Å¢Å¢Å¢Å¢Å¢Å¢Å¢Å¢Å¢Å¢Å¢Å¢Å¢Å¢Å¢Å¢Å¢Å¢Å¢Å¢Å¢Å¢Å¢Å¢Å¢Å¢Å¢Å¢Å¢Å¢Å¢Å¢Å¢Å¢Å¢Å¢Å¢Å¢Å¢Å¢Å¢Å¢Å¢Å¢Å¢Å¢Å¢Å¢Å¢Å¢Å¢Å¢Å¢Å¢Å¢Å¢Å¢Å¢Å¢Å¢Å¢Å¢Å¢Å¢Å¢Å¢Å¢Å¢Å¢Å¢Å¢Å¢Å¢Å¢Å¢Å¢Å¢Å¢Å¢Å¢Å¢Å¢Å¢Å¢Å¢Å¢": 888,
      "Å¢Å¢Å¢Å¢Å¢Å¢Å¢Å¢Å¢Å¢Å¢Å¢Å¢Å¢Å¢Å¢Å¢Å¢Å¢Å¢Å¢Å¢Å¢Å¢Å¢Å¢Å¢Å¢Å¢Å¢Å¢Å¢Å¢Å¢Å¢Å¢Å¢Å¢Å¢Å¢Å¢Å¢Å¢Å¢Å¢Å¢Å¢Å¢Å¢Å¢Å¢Å¢Å¢Å¢Å¢Å¢Å¢Å¢Å¢Å¢Å¢Å¢Å¢Å¢Å¢Å¢Å¢Å¢Å¢Å¢Å¢Å¢Å¢Å¢Å¢Å¢Å¢Å¢Å¢Å¢Å¢Å¢Å¢Å¢Å¢Å¢Å¢Å¢Å¢Å¢Å¢Å¢Å¢Å¢Å¢Å¢Å¢Å¢Å¢Å¢Å¢Å¢Å¢Å¢Å¢Å¢Å¢Å¢Å¢Å¢Å¢Å¢Å¢Å¢Å¢Å¢Å¢Å¢Å¢Å¢Å¢Å¢Å¢Å¢Å¢Å¢Å¢Å¢Å¢Å¢Å¢Å¢Å¢Å¢Å¢Å¢Å¢Å¢Å¢Å¢Å¢Å¢Å¢Å¢Å¢Å¢Å¢Å¢Å¢Å¢Å¢Å¢Å¢Å¢Å¢Å¢Å¢Å¢Å¢Å¢Å¢Å¢Å¢Å¢Å¢Å¢Å¢Å¢Å¢Å¢Å¢Å¢Å¢Å¢Å¢Å¢Å¢Å¢Å¢Å¢Å¢Å¢Å¢Å¢Å¢Å¢Å¢Å¢Å¢Å¢Å¢Å¢Å¢Å¢Å¢Å¢Å¢Å¢Å¢Å¢Å¢Å¢Å¢Å¢Å¢Å¢Å¢Å¢Å¢Å¢Å¢Å¢Å¢Å¢Å¢Å¢Å¢Å¢Å¢Å¢Å¢Å¢Å¢Å¢Å¢Å¢Å¢Å¢Å¢Å¢Å¢Å¢Å¢Å¢Å¢Å¢Å¢Å¢Å¢Å¢Å¢Å¢Å¢Å¢Å¢Å¢Å¢Å¢Å¢Å¢Å¢Å¢Å¢Å¢Å¢Å¢Å¢Å¢Å¢Å¢Å¢Å¢Å¢Å¢Å¢Å¢Å¢Å¢Å¢Å¢Å¢Å¢Å¢Å¢Å¢Å¢Å¢Å¢Å¢Å¢Å¢Å¢Å¢Å¢Å¢Å¢Å¢Å¢Å¢Å¢Å¢Å¢Å¢Å¢Å¢Å¢Å¢Å¢Å¢Å¢Å¢Å¢Å¢Å¢Å¢Å¢Å¢Å¢Å¢Å¢Å¢Å¢Å¢Å¢Å¢Å¢Å¢Å¢Å¢Å¢Å¢Å¢Å¢Å¢Å¢Å¢Å¢Å¢Å¢Å¢Å¢Å¢Å¢Å¢Å¢Å¢Å¢Å¢Å¢Å¢Å¢Å¢Å¢Å¢Å¢Å¢Å¢Å¢Å¢Å¢Å¢Å¢Å¢Å¢Å¢Å¢Å¢Å¢Å¢Å¢Å¢Å¢Å¢Å¢Å¢Å¢Å¢Å¢Å¢Å¢Å¢Å¢Å¢Å¢Å¢Å¢Å¢Å¢Å¢Å¢Å¢Å¢Å¢Å¢Å¢Å¢Å¢Å¢Å¢Å¢Å¢Å¢Å¢Å¢Å¢Å¢Å¢Å¢Å¢Å¢Å¢Å¢Å¢Å¢Å¢Å¢Å¢Å¢Å¢Å¢Å¢Å¢Å¢Å¢Å¢Å¢Å¢Å¢Å¢Å¢Å¢Å¢Å¢Å¢Å¢Å¢Å¢Å¢Å¢Å¢Å¢Å¢Å¢Å¢Å¢Å¢Å¢Å¢Å¢Å¢Å¢Å¢Å¢Å¢Å¢Å¢Å¢Å¢Å¢Å¢Å¢Å¢Å¢Å¢Å¢Å¢Å¢Å¢Å¢Å¢Å¢Å¢Å¢Å¢Å¢Å¢Å¢Å¢Å¢Å¢Å¢Å¢Å¢Å¢Å¢Å¢Å¢Å¢Å¢Å¢Å¢Å¢Å¢Å¢Å¢Å¢Å¢Å¢Å¢Å¢Å¢Å¢Å¢Å¢Å¢Å¢Å¢Å¢Å¢Å¢Å¢Å¢Å¢Å¢Å¢Å¢Å¢Å¢Å¢Å¢Å¢Å¢Å¢Å¢Å¢Å¢Å¢Å¢Å¢Å¢Å¢Å¢Å¢Å¢Å¢Å¢Å¢Å¢Å¢Å¢Å¢Å¢Å¢Å¢Å¢Å¢Å¢Å¢Å¢Å¢Å¢Å¢Å¢Å¢Å¢Å¢Å¢Å¢Å¢Å¢Å¢Å¢Å¢Å¢Å¢Å¢Å¢Å¢Å¢Å¢Å¢Å¢Å¢Å¢Å¢Å¢Å¢Å¢Å¢Å¢Å¢Å¢Å¢Å¢Å¢Å¢Å¢Å¢Å¢Å¢Å¢Å¢Å¢Å¢Å¢Å¢Å¢Å¢Å¢Å¢Å¢Å¢Å¢Å¢Å¢Å¢Å¢Å¢Å¢Å¢Å¢Å¢Å¢Å¢Å¢Å¢Å¢Å¢Å¢Å¢Å¢Å¢Å¢Å¢Å¢Å¢Å¢Å¢Å¢Å¢Å¢Å¢Å¢Å¢Å¢Å¢Å¢Å¢Å¢Å¢Å¢Å¢Å¢Å¢Å¢Å¢Å¢Å¢Å¢Å¢Å¢Å¢Å¢Å¢Å¢Å¢Å¢Å¢Å¢Å¢Å¢Å¢Å¢Å¢Å¢Å¢Å¢Å¢Å¢Å¢Å¢Å¢Å¢Å¢Å¢Å¢Å¢Å¢Å¢Å¢Å¢Å¢Å¢Å¢Å¢Å¢Å¢Å¢Å¢Å¢Å¢Å¢Å¢Å¢Å¢Å¢Å¢Å¢Å¢Å¢Å¢Å¢Å¢Å¢Å¢Å¢Å¢Å¢Å¢Å¢Å¢Å¢Å¢Å¢Å¢Å¢Å¢Å¢Å¢Å¢Å¢Å¢Å¢Å¢Å¢Å¢Å¢Å¢Å¢Å¢Å¢Å¢Å¢Å¢Å¢Å¢Å¢Å¢Å¢Å¢Å¢Å¢Å¢Å¢Å¢Å¢Å¢Å¢Å¢Å¢Å¢Å¢Å¢Å¢Å¢Å¢Å¢Å¢Å¢Å¢Å¢Å¢Å¢Å¢Å¢Å¢Å¢Å¢Å¢Å¢Å¢Å¢Å¢Å¢Å¢Å¢Å¢Å¢Å¢Å¢Å¢Å¢Å¢Å¢Å¢Å¢Å¢Å¢Å¢Å¢Å¢Å¢Å¢Å¢Å¢Å¢Å¢Å¢Å¢Å¢Å¢Å¢Å¢Å¢Å¢Å¢Å¢Å¢Å¢Å¢Å¢Å¢Å¢Å¢Å¢Å¢Å¢Å¢Å¢Å¢Å¢Å¢Å¢Å¢Å¢Å¢Å¢Å¢Å¢Å¢Å¢Å¢Å¢Å¢Å¢Å¢Å¢Å¢Å¢Å¢Å¢Å¢Å¢Å¢Å¢Å¢Å¢Å¢Å¢Å¢Å¢Å¢Å¢Å¢Å¢Å¢Å¢Å¢Å¢Å¢Å¢Å¢Å¢Å¢Å¢Å¢Å¢Å¢Å¢Å¢Å¢Å¢Å¢Å¢Å¢Å¢Å¢Å¢Å¢Å¢Å¢Å¢Å¢Å¢Å¢Å¢Å¢Å¢Å¢Å¢Å¢Å¢Å¢Å¢Å¢Å¢Å¢Å¢Å¢Å¢Å¢Å¢Å¢Å¢Å¢Å¢Å¢Å¢Å¢Å¢Å¢Å¢Å¢Å¢Å¢Å¢Å¢Å¢Å¢Å¢Å¢Å¢Å¢Å¢Å¢Å¢Å¢Å¢Å¢Å¢Å¢Å¢Å¢Å¢Å¢Å¢Å¢Å¢Å¢Å¢Å¢Å¢Å¢Å¢Å¢Å¢Å¢Å¢Å¢Å¢Å¢Å¢Å¢Å¢Å¢Å¢Å¢Å¢Å¢Å¢Å¢Å¢Å¢Å¢Å¢Å¢Å¢Å¢Å¢Å¢Å¢Å¢Å¢Å¢Å¢Å¢Å¢Å¢Å¢Å¢Å¢Å¢Å¢Å¢Å¢Å¢Å¢Å¢Å¢Å¢Å¢Å¢Å¢Å¢Å¢Å¢Å¢Å¢Å¢Å¢Å¢Å¢Å¢Å¢Å¢Å¢Å¢Å¢Å¢Å¢Å¢Å¢Å¢Å¢Å¢Å¢Å¢Å¢Å¢Å¢Å¢Å¢Å¢Å¢Å¢Å¢Å¢Å¢Å¢Å¢Å¢Å¢Å¢Å¢Å¢Å¢Å¢Å¢Å¢Å¢Å¢Å¢Å¢Å¢Å¢Å¢Å¢Å¢Å¢Å¢Å¢Å¢Å¢Å¢Å¢Å¢Å¢Å¢Å¢Å¢Å¢Å¢Å¢Å¢Å¢Å¢Å¢Å¢Å¢Å¢Å¢Å¢Å¢Å¢Å¢Å¢Å¢Å¢Å¢Å¢Å¢Å¢Å¢Å¢Å¢Å¢Å¢Å¢Å¢Å¢Å¢Å¢Å¢Å¢Å¢Å¢Å¢Å¢Å¢Å¢Å¢Å¢Å¢Å¢Å¢Å¢Å¢Å¢Å¢Å¢Å¢Å¢Å¢Å¢Å¢Å¢Å¢Å¢Å¢Å¢Å¢Å¢Å¢Å¢Å¢Å¢Å¢Å¢Å¢Å¢Å¢Å¢Å¢Å¢Å¢Å¢Å¢Å¢Å¢Å¢Å¢Å¢Å¢Å¢Å¢Å¢Å¢Å¢Å¢Å¢Å¢Å¢Å¢Å¢Å¢Å¢Å¢Å¢Å¢Å¢Å¢Å¢Å¢Å¢Å¢Å¢Å¢Å¢Å¢Å¢Å¢Å¢Å¢Å¢Å¢Å¢Å¢Å¢Å¢Å¢Å¢Å¢Å¢Å¢Å¢Å¢Å¢Å¢Å¢Å¢Å¢Å¢Å¢Å¢Å¢Å¢Å¢Å¢Å¢Å¢Å¢Å¢Å¢Å¢Å¢Å¢Å¢Å¢Å¢Å¢Å¢Å¢Å¢Å¢Å¢Å¢Å¢Å¢Å¢Å¢Å¢Å¢Å¢Å¢Å¢Å¢Å¢Å¢Å¢Å¢Å¢Å¢Å¢Å¢Å¢Å¢Å¢Å¢Å¢Å¢Å¢Å¢Å¢Å¢Å¢Å¢Å¢Å¢Å¢Å¢Å¢Å¢Å¢Å¢Å¢Å¢Å¢Å¢Å¢Å¢Å¢Å¢Å¢Å¢Å¢Å¢Å¢Å¢Å¢Å¢Å¢Å¢Å¢Å¢Å¢Å¢Å¢Å¢Å¢Å¢Å¢Å¢Å¢Å¢Å¢Å¢Å¢Å¢Å¢Å¢Å¢Å¢Å¢Å¢Å¢Å¢Å¢Å¢Å¢Å¢Å¢Å¢Å¢Å¢Å¢Å¢Å¢Å¢Å¢Å¢Å¢Å¢Å¢Å¢Å¢Å¢Å¢Å¢Å¢Å¢Å¢Å¢Å¢Å¢Å¢Å¢Å¢Å¢Å¢Å¢Å¢Å¢Å¢Å¢Å¢Å¢Å¢Å¢Å¢Å¢Å¢Å¢Å¢Å¢Å¢Å¢Å¢Å¢Å¢Å¢Å¢Å¢Å¢Å¢": 889,
      "Å¢Å¢Å¢Å¢Å¢Å¢Å¢Å¢Å¢Å¢Å¢Å¢Å¢Å¢Å¢Å¢Å¢Å¢Å¢Å¢Å¢Å¢Å£Å¡": 890,
      "Çĥ": 891,
      "ÇĤ": 892,
      "ÄĤ": 893,
      "Å¢Å¢Å¢Å¢Å¢Å¢Å¢Å¢Å¢Å¢Å¢Å¢Å¢Å¢Å¢Å¢Å¢Å¢Åł": 894,
      "Äĥ": 895,
      "Å£Å¡Åł": 896,
      "Å©Åł": 897,
      "Å¢Å¢Å¢Å¢Å¢Å¢Å¢Å¢Å¢Å¢Å¢Å¢Å¢Å¢Å¢Å¢Å¢Å¢Å¢Å¢Å¢Å¢Å¢Å¢Å¢ÅĿ": 898,
      "Å¢Å¢Å¢Å¢Å¢Å¢Å¢Å¢Å¢Å¢Å¢Å¢Å¢Å¢Å¢Å¢Å¢Å¢Å¢Å¢Å¢Å¢Å¢Å¢Å¢Å¢Å¢Å¢Å¢Å¢Å¢Å¢Å¢Å¢Å¢Å¢Å¢Å¢Å¢Å¢Å¢Å¢Å¢Å¢Å¢Å¢Å¢Å¢Å¢Å¢Å¢Å¢Å¢Å¢Å¢Å¢Å¢Å¢Å¢Å¢Å¢Å¢Å¢Å¢Å¢Å¢Å¢Å¢Å¢Å¢Å¢Å¢Å¢Å¢Å¢Å¢Å¢Å¢Å¢Å¢Å¢Å¢Å¢Å¢Å¢Å¢Å¢Å¢Å¢Å¢Å¢Å¢Å¢Å¢Å¢Å¢Å¢Å¢Å¢Å¢Å¢Å¢Å¢Å¢Å¢Å¢Å¢Å¢Å¢Å¢Å¢Å¢Å¢Å¢Å¢Å¢Å¢Å¢Å¢Å¢Å¢Å¢Å¢Å¢Å¢Å¢Å¢Å¢Å¢Å¢Å¢Å¢Å¢Å¢Å¢Å¢Å¢Å¢Å¢Å¢Å¢Å¢Å¢Å¢Å¢Å¢Å¢Å¢Å¢Å¢Å¢Å¢Å¢Å¢Å¢Å¢Å¢Å¢Å¢Å¢Å¢Å¢Å¢Å¢Å¢Å¢Å¢Å¢Å¢Å¢Å¢Å¢Å¢Å¢Å¢Å¢Å¢Å¢Å¢Å¢Å¢Å¢Å¢Å¢Å¢Å¢Å¢Å¢Å¢Å¢Å¢Å¢Å¢Å¢Å¢Å¢Å¢Å¢Å¢Å¢Å¢Å¢Å¢Å¢Å¢Å¢Å¢Å¢Å¢Å¢Å¢Å¢Å¢Å¢Å¢Å¢Å¢Å¢Å¢Å¢Å¢Å¢Å¢Å¢Å¢Å¢Å¢Å¢Å¢Å¢Å¢Å¢Å¢Å¢Å¢Å¢Å¢Å¢Å¢Å¢Å¢Å¢Å¢Å¢Å¢Å¢Å¢Å¢Å¢Å¢Å¢Å¢Å¢Å¢Å¢Å¢Å¢Å¢Å¢Å¢Å¢Å¢Å¢Å¢Å¢Å¢Å¢Å¢Å¢Å¢Å¢Å¢Å¢Å¢Å¢Å¢Å¢Å¢Å¢Å¢Å¢Å¢Å¢Å¢Å¢Å¢Å¢Å¢Å¢Å¢Å¢Å¢Å¢Å¢Å¢Å¢Å¢Å¢Å¢Å¢Å¢Å¢Å¢Å¢Å¢Å¢Å¢Å¢Å¢Å¢Å¢Å¢Å¢Å¢Å¢Å¢Å¢Å¢Å¢Å¢Å¢Å¢Å¢Å¢Å¢Å¢Å¢Å¢Å¢Å¢Å¢Å¢Å¢Å¢Å¢Å¢Å¢Å¢Å¢Å¢Å¢Å¢Å¢Å¢Å¢Å¢Å¢Å¢Å¢Å¢Å¢Å¢Å¢Å¢Å¢Å¢Å¢Å¢Å¢Å¢Å¢Å¢Å¢Å¢Å¢Å¢Å¢Å¢Å¢Å¢Å¢Å¢Å¢Å¢Å¢Å¢Å¢Å¢Å¢Å¢Å¢Å¢Å¢Å¢Å¢Å¢Å¢Å¢Å¢Å¢Å¢Å¢Å¢Å¢Å¢Å¢Å¢Å¢Å¢Å¢Å¢Å¢Å¢Å¢Å¢Å¢Å¢Å¢Å¢Å¢Å¢Å¢Å¢Å¢Å¢Å¢Å¢Å¢Å¢Å¢Å¢Å¢Å¢Å¢Å¢Å¢Å¢Å¢Å¢Å¢Å¢Å¢Å¢Å¢Å¢Å¢Å¢Å¢Å¢Å¢Å¢Å¢Å¢Å¢Å¢Å¢Å¢Å¢Å¢Å¢Å¢Å¢Å¢Å¢Å¢Å¢Å¢Å¢Å¢Å¢Å¢Å¢Å¢Å¢Å¢Å¢Å¢Å¢Å¢Å¢Å¢Å¢Å¢Å¢Å¢Å¢Å¢Å¢Å¢Å¢Å¢Å¢Å¢Å¢Å¢Å¢Å¢Å¢Å¢Å¢Å¢Å¢Å¢Å¢Å¢Å¢Å¢Å¢Å¢Å¢Å¢Å¢Å¢Å¢Å¢Å¢Å¢Å¢Å¢Å¢Å¢Å¢Å¢Å¢Å¢Å¢Å¢Å¢Å¢Å¢Å¢Å¢Å¢Å¢Å¢Å¢Å¢Å¢Å¢Å¢Å¢Å¢Å¢Å¢Å¢Å¢Å¢Å¢Å¢Å¢Å¢Å¢Å¢Å¢Å¢Å¢Å¢Å¢Å¢Å¢Å¢Å¢Å¢Å¢Å¢Å¢Å¢Å¢Å¢Å¢Å¢Å¢Å¢Å¢Å¢Å¢Å¢Å¢Å¢Å¢Å¢Å¢Å¢Å¢Å¢Å¢Å¢Å¢Å¢Å¢Å¢Å¢Å¢Å¢Å¢Å¢Å¢Å¢Å¢Å¢Å¢Å¢Å¢Å¢Å¢Å¢Å¢Å¢Å¢Å¢Å¢Å¢Å¢Å¢Å¢Å¢Å¢Å¢Å¢Å¢Å¢Å¢Å¢Å¢Å¢Å¢Å¢Å¢Å¢Å¢Å¢Å¢Å¢Å¢Å¢Å¢Å¢Å¢Å¢Å¢Å¢Å¢Å¢Å¢Å¢Å¢Å¢Å¢Å¢Å¢Å¢Å¢Å¢Å¢Å¢Å¢Å¢Å¢Å¢Å¢Å¢Å¢Å¢Å¢Å¢Å¢Å¢Å¢Å¢Å¢Å¢Å¢Å¢Å¢Å¢Å¢Å¢Å¢Å¢Å¢Å¢Å¢Å¢Å¢Å¢Å¢Å¢Å¢Å¢Å¢Å¢Å¢Å¢Å¢Å¢Å¢Å¢Å¢Å¢Å¢Å¢Å¢Å¢Å¢Å¢Å¢Å¢Å¢Å¢Å¢Å¢Å¢Å¢Å¢Å¢Å¢Å¢Å¢Å¢Å¢Å¢Å¢Å¢Å¢Å¢Å¢Å¢Å¢Å¢Å¢Å¢Å¢Å¢Å¢Å¢Å¢Å¢Å¢Å¢Å¢Å¢Å¢Å¢Å¢Å¢Å¢Å¢Å¢Å¢Å¢Å¢Å¢Å¢Å¢Å¢Å¢Å¢Å¢Å¢Å¢Å¢Å¢Å¢Å¢Å¢Å¢Å¢Å¢Å¢Å¢Å¢Å¢Å¢Å¢Å¢Å¢Å¢Å¢Å¢Å¢Å¢Å¢Å¢Å¢Å¢Å¢Å¢Å¢Å¢Å¢Å¢Å¢Å¢Å¢Å¢Å¢Å¢Å¢Å¢Å¢Å¢Å¢Å¢Å¢Å¢Å¢Å¢Å¢Å¢Å¢Å¢Å¢Å¢Å¢Å¢Å¢Å¢Å¢Å¢Å¢Å¢Å¢Å¢Å¢Å¢Å¢Å¢Å¢Å¢Å¢Å¢Å¢Å¢Å¢Å¢Å¢Å¢Å¢Å¢Å¢Å¢Å¢Å¢Å¢Å¢Å¢Å¢Å¢Å¢Å¢Å¢Å¢Å¢Å¢Å¢Å¢Å¢Å¢Å¢Å¢Å¢Å¢Å¢Å¢Å¢Å¢Å¢Å¢Å¢Å¢Å¢Å¢Å¢Å¢": 899,
      "Å¢Å¢Å¢Å¢Å¢Å¢Å¢Å¢Å¢Å¢Å¢Å¢Å¢Å¢Å¢Å¢Å¢Å¢Å¢Å¢Å¢Å¢Å¢Å¢Å¢Å§": 900,
      "ÅĻÅ£": 901,
      "ÇĦ": 902,
      "Å¢Å£ÅŁ": 903,
      "Å«Å£": 904,
      "ÅĽÅł": 905,
      "Å¢Å¢Å¢Å¢Å¢Å¢Å¢Å¢Å¢Å¢Å¢Å¢Å¢Å¢Å¢Å¢Å¢Å¢Å¢Å¢Å¢Å¢Å¢Å¢Å¡Å¡": 906,
      "Å¢Å¢Å¤Å£": 907,
      "Å¢Å¢Å£Åł": 908,
      "ÅļÅ¦": 909,
      "Å¢Å°": 910,
      "Å¢Å¢Å¢Å¢Å¢Å¢Å¢Å¢Å¢Å¢Å¢Å¢Å¢Å¢Å¢Å¢Å¢Å¢Å¢Å¢Å¢Å¢Å¢Å¢Å¢Å¢Å¢Å¢Å¢Å¢Å¢Å¢Å¢Å¢Å¢Å¢Å¢Å¢Å¢Å¢Å¢Å¢Å¢Å¢Å¢Å¢Å¢Å¢Å¢Å¢Å¢Å¢Å¢Å¢Å¢Å¢Å¢Å¢Å¢Å¢Å¢Å¢Å¢Å¢Å¢Å¢Å¢Å¢Å¢Å¢Å¢Å¢Å¢Å¢Å¢Å¢Å¢Å¢Å¢Å¢Å¢Å¢Å¢Å¢Å¢Å¢Å¢Å¢Å¢Å¢Å¢Å¢Å¢Å¢Å¢Å¢Å¢Å¢Å¢Å¢Å¢Å¢Å¢Å¢Å¢Å¢Å¢Å¢Å¢Å¢Å¢Å¢Å¢Å¢Å¢Å¢Å¢Å¢Å¢Å¢Å¢Å¢Å¢Å¢Å¢Å¢Å¢Å¢Å¢Å¢Å¢Å¢Å¢Å¢Å¢Å¢Å¢Å¢Å¢Å¢Å¢Å¢Å¢Å¢Å¢Å¢Å¢Å¢Å¢Å¢Å¢Å¢Å¢Å¢Å¢Å¢Å¢Å¢Å¢Å¢Å¢Å¢Å¢Å¢Å¢Å¢Å¢Å¢Å¢Å¢Å¢Å¢Å¢Å¢Å¢Å¢Å¢Å¢Å¢Å¢Å¢Å¢Å¢Å¢Å¢Å¢Å¢Å¢Å¢Å¢Å¢Å¢Å¢Å¢Å¢Å¢Å¢Å¢Å¢Å¢Å¢Å¢Å¢Å¢Å¢Å¢Å¢Å¢Å¢Å¢Å¢Å¢Å¢Å¢Å¢Å¢Å¢Å¢Å¢Å¢Å¢Å¢Å¢Å¢Å¢Å¢Å¢Å¢Å¢Å¢Å¢Å¢Å¢Å¢Å¢Å¢Å¢Å¢Å¢Å¢Å¢Å¢Å¢Å¢Å¢Å¢Å¢Å¢Å¢Å¢Å¢Å¢Å¢Å¢Å¢Å¢Å¢Å¢Å¢Å¢Å¢Å¢Å¢Å¢Å¢Å¢Å¢Å¢Å¢Å¢Å¢Å¢Å¢Å¢Å¢Å¢Å¢Å¢Å¢Å¢Å¢Å¢Å¢Å¢Å¢Å¢Å¢Å¢Å¢Å¢Å¢Å¢Å¢Å¢Å¢Å¢Å¢Å¢Å¢Å¢Å¢Å¢Å¢Å¢Å¢Å¢Å¢Å¢Å¢Å¢Å¢Å¢Å¢Å¢Å¢Å¢Å¢Å¢Å¢Å¢Å¢Å¢Å¢Å¢Å¢Å¢Å¢Å¢Å¢Å¢Å¢Å¢Å¢Å¢Å¢Å¢Å¢Å¢Å¢Å¢Å¢Å¢Å¢Å¢Å¢Å¢Å¢Å¢Å¢Å¢Å¢Å¢Å¢Å¢Å¢Å¢Å¢Å¢Å¢Å¢Å¢Å¢Å¢Å¢Å¢Å¢Å¢Å¢Å¢Å¢Å¢Å¢Å¢Å¢Å¢Å¢Å¢Å¢Å¢Å¢Å¢Å¢Å¢Å¢Å¢Å¢Å¢Å¢Å¢Å¢Å¢Å¢Å¢Å¢Å¢Å¢Å¢Å¢Å¢Å¢Å¢Å¢Å¢Å¢Å¢Å¢Å¢Å¢Å¢Å¢Å¢Å¢Å¢Å¢Å¢Å¢Å¢Å¢Å¢Å¢Å¢Å¢Å¢Å¢Å¢Å¢Å¢Å¢Å¢Å¢Å¢Å¢Å¢Å¢Å¢Å¢Å¢Å¢Å¢Å¢Å¢Å¢Å¢Å¢Å¢Å¢Å¢Å¢Å¢Å¢Å¢Å¢Å¢Å¢Å¢Å¢Å¢Å¢Å¢Å¢Å¢Å¢Å¢Å¢Å¢Å¢Å¢Å¢Å¢Å¢Å¢Å¢Å¢Å¢Å¢Å¢Å¢Å¢Å¢Å¢Å¢Å¢Å¢Å¢Å¢Å¢Å¢Å¢Å¢Å¢Å¢Å¢Å¢Å¢Å¢Å¢Å¢Å¢Å¢Å¢Å¢Å¢Å¢Å¢Å¢Å¢Å¢Å¢Å¢Å¢Å¢Å¢Å¢Å¢Å¢Å¢Å¢Å¢Å¢Å¢Å¢Å¢Å¢Å¢Å¢Å¢Å¢Å¢Å¢Å¢Å¢Å¢Å¢Å¢Å¢Å¢Å¢Å¢Å¢Å¢Å¢Å¢Å¢Å¢Å¢Å¢Å¢Å¢Å¢Å¢Å¢Å¢Å¢Å¢Å¢Å¢Å¢Å¢Å¢Å¢Å¢Å¢Å¢Å¢Å¢Å¢Å¢Å¢Å¢Å¢Å¢Å¢Å¢Å¢Å¢Å¢Å¢Å¢Å¢Å¢Å¢Å¢Å¢Å¢Å¢Å¢Å¢Å¢Å¢Å¢Å¢Å¢Å¢Å¢Å¢Å¢Å¢Å¢Å¢Å¢Å¢Å¢Å¢Å¢Å¢Å¢Å¢Å¢Å¢Å¢Å¢Å¢Å¢Å¢Å¢Å¢Å¢Å¢Å¢Å¢Å¢Å¢Å¢Å¢Å¢Å¢Å¢Å¢Å¢Å¢Å¢Å¢Å¢Å¢Å¢Å¢Å¢Å¢Å¢Å¢Å¢Å¢Å¢Å¢Å¢Å¢Å¢Å¢Å¢Å¢Å¢Å¢Å¢Å¢Å¢Å¢Å¢Å¢Å¢Å¢Å¢Å¢Å¢Å¢Å¢Å¢Å¢Å¢Å¢Å¢Å¢Å¢Å¢Å¢Å¢Å¢Å¢Å¢Å¢Å¢Å¢Å¢Å¢Å¢Å¢Å¢Å¢Å¢Å¢Å¢Å¢Å¢Å¢Å¢Å¢Å¢Å¢Å¢Å¢Å¢Å¢Å¢Å¢Å¢": 911,
      "Å¢Å¢Å¢Å¢Å¢Å¢Å¢Å¢Å¢Å¢Å¢Å¢Å¢Å¢Å¢Å¢Å¢Å¢Å¢Å¢Å¢Å¢Å¢Å¢Å¢Å¢Å¢Å¢Å¢Å¢Å¢Å£Å¢Å¢Å¢Å¢Å¢Å¢Å¢Å¢Å¢Å¢Å¢Å¢Å¢Å¢Å¢Å¢Å¢Å¢Å¢Å¢Å¢Å¢Å¢Å¢Å¢Å¢Å¢Å¢Å¢Å¢Å¢Å¡Å¢Å¢Å¢Å¢Å¢Å¢Å¢Å¢Å¢Å¢Å¢Å¢Å¢Å¢Å¢Å¢Å¢Å¢Å¢Å¢Å¢Å¢Å¢Å¢Å¢Å¢Å¢Å¢Å¢Å¢Å¢Å£": 912,
      "Å¢ÅĶ": 913,
      "ÅľÅ§": 914,
      "Å¢Å¢Å¢Å¢Å¢Å¢Å¢Å¢Å¢Å¢Å¢Å¢Å¢Å¢Å¢Å¢Å¢Å¢Å¢Å¢Å¢Å¢Å¢Å¢Å¢Å¢Å¢Å¢Å¢Å¢Å¢Å¢Å¢Å¢Å¢Å¢Å¢Å¢Å¢Å¢Å¢Å¢Å¢Å¢Å¢Å¢Å¢Å¢Å¢Å¢Å¢Å¢Å¢Å¢Å¢Å¢Å¢Å¢Å¢Å¢Å¢Å¢Å¢Å£Å¢Å¢Å¢Å¢Å¢Å¢Å¢Å¢Å¢Å¢Å¢Å¢Å¢Å¢Å¢Å¢Å¢Å¢Å¢Å¢Å¢Å¢Å¢Å¢Å¢Å¢Å¢Å¢Å¢Å¢Å¢Å¡": 915,
      "Ã¾": 916,
      "Å¢Å¢ÅĿ": 917,
      "Å¡Å£Å£Å£": 918,
      "ÅĽÅ¥": 919,
      "Ã»": 920,
      "ÄļÅ¢Å¢Å¢Å¢Å¢Å¢Å¢Å¢Å¢Å¢Å¢Å¢Å¢Å¢Å¢Å¢Å¢Å¢Å¢Å¢Å¢Å¢Å¢Å¢": 921,
      "ÅŀÅ¨": 922,
      "Å¢Å¡Å¥": 923,
      "Å¢Å¢Å¡Å¤": 924,
      "ÅľÅŁ": 925,
      "Å¢Å¢ÅłÅ¡": 926,
      "ÄĢ": 927,
      "Ã¿": 928,
      "Çĩ": 929,
      "Å¢Å¢Å¢Å¢Å¢Å¢Å¢Å¢Å¢Å¢Å¢Å¢Å¢Å¢Å¢Å¢Å¢Å¢Å¢Å¢Å¢Å¢Å¢Å¢Å¢Å¢Å¢Å¢Å£Å¢Å¢Å¡": 930,
      "Å¢Å¢Å¢Å¢Å¢Å¢Å¤": 931,
      "Å¦Å§": 932,
      "Å¢Å¢Å¢Å¢Å¢Å£Å£": 933,
      "Å¢Å¢Å¢Å¢Å¢Å¢Å¢Å¢Å¢Å¢Å¢Å¢Å¢Å¢Å¢Å¢Å¢Å¢Å¢Å¢Å¢Å¢Å¢ÅŁ": 934,
      "Å¢Å¢Å¢Å¢Å¢Å¢Å¢Å¢Å¢Å¢Å¢Å¢Å¢Å¢Å¢Å¢Å¢Å¢Å¢Å¢Å¢Å¢Å¢Å¢Å¢Å¢Å¢Å¢Å¢Å¢Åł": 935,
      "Å¢Å£Å¥": 936,
      "Å¢Å¢Å¢Å¢Å¢Å¢Å¢Å¢Å¢Å¢Å¢Å¢Å¢Å¢Å¢Å¢Å¢Å¢Å¢Å¢Å¢Å¢Å¢Å¢Å¢Å¢Å¢Å¢Å¢Å¢Å¢Å¡Å¢Å¢Å¢Å¢Å¢Å¢Å¢Å¢Å¢Å¢Å¢Å¢Å¢Å¢Å¢Å¢Å¢Å¢Å¢Å¢Å¢Å¢Å¢Å¢Å¢Å¢Å¢Å¢Å¢Å¢Å¢Å¡Å¢Å¢Å¢Å¢Å¢Å¢Å¢Å¢Å¢Å¢Å¢Å¢Å¢Å¢Å¢Å¢Å¢Å¢Å¢Å¢Å¢Å¢Å¢Å¢Å¢Å¢Å¢Å¢Å¢Å¢Å¢Å¡": 937,
      "Å¢Å¢Å£Å¤": 938,
      "Å¢Å¢Å¢Å¢Å¢Å¢Å¢Å¢Å¢Å¢Å¢Å¢Å¢Å¢Å¢Å¢Å¢Å¢Å¢Å¢Å¢Å¢Å¢Å¢Å¢Å¢Å¢Å¢Å¢Å¢Å¢Å¢Å¢Å¢Å¢Å¢Å¢Å¢Å¢Å¢Å¢Å¢Å¢Å¢Å¢Å¢Å¢Å¢Å¢Å¢Å¢Å¢Å¢Å¢Å¢Å¢Å¢Å¢Å¢Å¢Å¢Å¢Å¢Å¢Å¢Å¢Å¢Å¢Å¢Å¢Å¢Å¢Å¢Å¢Å¢Å¢Å¢Å¢Å¢Å¢Å¢Å¢Å¢Å¢Å¢Å¢Å¢Å¢Å¢Å¢Å¢Å¢Å¢Å¢Å¢Å¢Å¢Å¢Å¢Å¢Å¢Å¢Å¢Å¢Å¢Å¢Å¢Å¢Å¢Å¢Å¢Å¢Å¢Å¢Å¢Å¢Å¢Å¢Å¢Å¢Å¢Å¢Å¢Å¢Å¢Å¢Å¢Å¢Å¢Å¢Å¢Å¢Å¢Å¢Å¢Å¢Å¢Å¢Å¢Å¢Å¢Å¢Å¢Å¢Å¢Å¢Å¢Å¢Å¢Å¢Å¢Å¢Å¢Å¢Å¢Å¢Å¢Å¢Å¢Å¢Å¢Å¢Å¢Å¢Å¢Å¢Å¢Å¢Å¢Å¢Å¢Å¢Å¢Å¢Å¢Å¢Å¢Å¢Å¢Å¢Å¢Å¢Å¢Å¢Å¢Å¢Å¢Å¢Å¢Å¢Å¢Å¢Å¢Å¢Å¢Å¢Å¢Å¢Å¢Å¢Å¢Å¢Å¢Å¢Å¢Å¢Å¢Å¢Å¢Å¢Å¢Å¢Å¢Å¢Å¢Å¢Å¢Å¢Å¢Å¢Å¢Å¢Å¢Å¢": 939,
      "Ã¼": 940,
      "Å¢Å¢Å¢Å¢Å¢Å¢Å¢Å¢Å¢Å¢Å¢Å¢Å¢Å¢Å¢Å¢Å¢Å¢Å¢Å¢Å¢Å¢Å¢Å¢Å¢Å¢Å¢Å¢Å¡Å¢Å¢Å£": 941,
      "Ã¹": 942,
      "Å¢Å¢Å¢Å¢Å¢Å¢Å¢Å¢Å¢Å¢Å¢Å¢Å¢Å¢Å¢Å¢Å¢Å¢Å¢Å¢Å¢Å¢Å¢Å¥": 943,
      "Å¢Å¢Å¢Å¢Å¢Å¢Å¢Å¢Å¢Å¢Å¢Å¢Å¢Å¢Å¢Å¢Å¢Å¢Å¢Å¢Å¢Å¢Å¢Å¢Å¢Å¢Å¢Å¢Å¢Å£Å£": 944,
      "Å¢Å¢Å¢Å¢Å¢Å¢Å¢Å¢Å¢Å¢Å¢Å¢Å¢": 945,
      "ÅĻÅ¡": 946,
      "Å¢Å¢Å¢Å¢Å¢Å¢Å¢Å¢Å¢Å¢Å¢Å¢Å¢Å¢Å¢Å¢Å¢Å¢Å¢Å¢Å¢Å¢Å¢Å¢Å¢Å¢Å¢Å¢Å¢Å¢Å¢Å¢Å¢Å¢Å¢Å¢Å¢Å¢Å¢Å¢Å¢Å¢Å¢Å¢Å¢Å¢Å¢Å¢Å¢Å¢Å¢Å¢Å¢Å¢Å¢Å¢Å¢Å¢Å¢Å¢Å¢Å¢Å¢Å¢Å¢Å¢Å¢Å¢Å¢Å¢Å¢Å¢Å¢Å¢Å¢Å¢Å¢Å¢Å¢Å¢Å¢Å¢Å¢Å¢Å¢Å¢Å¢Å¢Å¢Å¢Å¢Å¢Å¢Å¢Å¢Å¢Å¢Å¢Å¢Å¢Å¢Å¢Å¢Å¢Å¢Å¢Å¢Å¢Å¢Å¢Å¢Å¢Å¢Å¢Å¢Å¢Å¢Å¢Å¢Å¢Å¢Å¢Å¢Å¢Å¢Å¢Å¢Å¢Å¢Å¢Å¢Å¢Å¢Å¢Å¢Å¢Å¢Å¢Å¢Å¢Å¢Å¢Å¢Å¢Å¢Å¢Å¢Å¢Å¢Å¢Å¢Å¢Å¢Å¢Å¢Å¢Å¢Å¢Å¢Å¢Å¢Å¢Å¢Å¢Å¢Å¢Å¢Å¢Å¢Å¢Å¢Å¢Å¢Å¢Å¢Å¢Å¢Å¢Å¢Å¢Å¢Å¢Å¢Å¢Å¢Å¢Å¢Å¢Å¢Å¢Å¢Å¢Å¢Å¢Å¢Å¢Å¢Å¢Å¢Å¢Å¢Å¢Å¢Å¢Å¢Å¢Å¢Å¢Å¢Å¢Å¢Å¢Å¢Å¢Å¢Å¢Å¢Å¢Å¢Å¢Å¢Å¢Å¢Å¢Å¢Å¢Å¢Å¢Å¢Å¢Å¢Å¢Å¢Å¢Å¢Å¢Å¢Å¢Å¢Å¢Å¢Å¢Å¢Å¢Å¢Å¢Å¢Å¢Å¢Å¢Å¢Å¢Å¢Å¢Å¢Å¢Å¢Å¢Å¢Å¢Å¢Å¢Å¢Å¢Å¢Å¢Å¢Å¢Å¢Å¢Å¢Å¢Å¢Å¢Å¢Å¢Å¢Å¢Å¢Å¢Å¢Å¢Å¢Å¢Å¢Å¢Å¢Å¢Å¢Å¢Å¢Å¢Å¢Å¢Å¢Å¢Å¢Å¢Å¢Å¢Å¢Å¢Å¢Å¢Å¢Å¢Å¢Å¢Å¢Å¢Å¢Å¢Å¢Å¢Å¢Å¢Å¢Å¢Å¢Å¢Å¢Å¢Å¢Å¢Å¢Å¢Å¢Å¢Å¢Å¢Å¢Å¢Å¢Å¢Å¢Å¢Å¢Å¢Å¢Å¢Å¢Å¢Å¢Å¢Å¢Å¢Å¢Å¢Å¢Å¢Å¢Å¢Å¢Å¢Å¢Å¢Å¢Å¢Å¢Å¢Å¢Å¢Å¢Å¢Å¢Å¢Å¢Å¢Å¢Å¢Å¢Å¢Å¢Å¢Å¢Å¢Å¢Å¢Å¢Å¢Å¢Å¢Å¢Å¢Å¢Å¢Å¢Å¢Å¢Å¢Å¢Å¢Å¢Å¢Å¢Å¢Å¢Å¢Å¢Å¢Å¢Å¢Å¢Å¢Å¢Å¢Å¢Å¢Å¢Å¢Å¢Å¢Å¢Å¢Å¢Å¢Å¢Å¢Å¢Å¢Å¢Å¢Å¢Å¢Å¢Å¢Å¢Å¢Å¢Å¢Å¢Å¢Å¢Å¢Å¢Å¢Å¢Å¢Å¢Å¢Å¢Å¢Å¢Å¢Å¢Å¢Å¢Å¢Å¢Å¢Å¢Å¢Å¢Å¢Å¢Å¢Å¢Å¢Å¢Å¢Å¢Å¢Å¢Å¢Å¢Å¢Å¢Å¢Å¢Å¢Å¢Å¢Å¢Å¢Å¢Å¢Å¢Å¢Å¢Å¢Å¢Å¢Å¢Å¢Å¢Å¢Å¢Å¢Å¢Å¢Å¢Å¢Å¢Å¢Å¢Å¢Å¢Å¢Å¢Å¢Å¢Å¢Å¢Å¢Å¢Å¢Å¢Å¢Å¢Å¢Å¢Å¢Å¢Å¢Å¢Å¢Å¢Å¢Å¢Å¢Å¢Å¢Å¢Å¢Å¢Å¢Å¢Å¢Å¢Å¢Å¢Å¢Å¢Å¢Å¢Å¢Å¢Å¢Å¢Å¢Å¢Å¢Å¢Å¢Å¢Å¢Å¢Å¢Å¢Å¢Å¢Å¢Å¢Å¢Å¢Å¢Å¢Å¢Å¢Å¢Å¢Å¢Å¢Å¢Å¢Å¢Å¢Å¢Å¢Å¢Å¢Å¢Å¢Å¢Å¢Å¢Å¢Å¢Å¢Å¢Å¢Å¢Å¢Å¢Å¢Å¢Å¢Å¢Å¢Å¢Å¢Å¢Å¢Å¢Å¢Å¢Å¢Å¢Å¢Å¢Å¢Å¢Å¢Å¢Å¢Å¢Å¢Å¢Å¢Å¢Å¢Å¢Å¢Å¢Å¢Å¢Å¢Å¢Å¢Å¢Å¢Å¢Å¢Å¢Å¢Å¢Å¢Å¢Å¢Å¢Å¢Å¢Å¢Å¢Å¢Å¢Å¢Å¢Å¢Å¢Å¢Å¢Å¢Å¢Å¢Å¢Å¢Å¢Å¢Å¢Å¢Å¢Å¢Å¢Å¢Å¢Å¢Å¢Å¢Å¢Å¢Å¢Å¢Å¢Å¢Å¢Å¢Å¢Å¢Å¢Å¢Å¢Å¢Å¢Å¢Å¢Å¢Å¢Å¢Å¢Å¢Å¢Å¢Å¢Å¢Å¢Å¢Å¢Å¢Å¢Å¢Å¢Å¢Å¢Å¢Å¢Å¢Å¢Å¢Å¢Å¢Å¢Å¢Å¢Å¢Å¢Å¢Å¢Å¢Å¢Å¢Å¢Å¢Å¢Å¢Å¢Å¢Å¢Å¢Å¢Å¢Å¢Å¢Å¢Å¢Å¢Å¢Å¢Å¢Å¢Å¢Å¢Å¢Å¢Å¢Å¢Å¢Å¢Å¢Å¢Å¢Å¢Å¢Å¢Å¢Å¢Å¢Å¢Å¢Å¢Å¢Å¢Å¢Å¢Å¢Å¢Å¢Å¢Å¢Å¢Å¢Å¢Å¢Å¢Å¢Å¢Å¢Å¢Å¢Å¢Å¢Å¢Å¢Å¢Å¢Å¢Å¢Å¢Å¢Å¢Å¢Å¢Å¢Å¢Å¢Å¢Å¢Å¢Å¢Å¢Å¢Å¢Å¢Å¢Å¢Å¢Å¢Å¢Å¢Å¢": 947,
      "Å£Å¡Å¢Å¡": 948,
      "Å¢Å¢Å¢Å¢Å¢Å¢Å¢Å¢Å¢Å¢Å¢Å¢Å¤": 949,
      "Çī": 950,
      "Å¢Å¢Å¢Å¢Å¢Å¢Åł": 951,
      "Å«Å¡": 952,
      "Å¢Å¢Å¢Å¢Å¢Å¡Å¡": 953,
      "Å¢Å¥ÅŁ": 954,
      "Å¢ÅŁÅ¥": 955,
      "ÅĽÅ¦": 956,
      "Å¨Å¥": 957,
      "ÅŀÅĿ": 958,
      "Å¨ÅŁ": 959,
      "Å¢Å¢Å¢Å¢Å¢Å¢Å¢Å¢Å¢Å¢Å¢Å¢Å¢Å¢Å¢Å¢Å¢Å¢Å¢Å¢Å¢Å¢Å¢Å¢Å¢Å¢Å¢Å¢Å¢Å¢Å¢Å¢Å¢Å¢Å¢Å¢Å¢Å¢Å¢Å¢Å¢Å¢Å¢Å¢Å¢Å¢Å¢Å¢Å¢Å¢Å¢Å¢Å¢Å¢Å¢Å¢Å¢Å¢Å¢Å¢Å¢Å¢Å¢Å¢Å¢Å¢Å¢Å¢Å¢Å¢Å¢Å¢Å¢Å¢Å¢Å¢Å¢Å¢Å¢Å¢Å¢Å¢Å¢Å¢Å¢Å¢Å¢Å¢Å¢Å¢Å¢Å¢Å¢Å¢Å¢Å¢Å¢Å¢Å¢Å¢Å¢Å¢Å¢Å¢Å¢Å¢Å¢Å¢Å¢Å¢Å¢Å¢Å¢Å¢Å¢Å¢Å¢Å¢Å¢Å¢Å¢Å¢Å¢Å¢Å¢Å¢Å¢Å¢Å¢Å¢Å¢Å¢Å¢Å¢Å¢Å¢Å¢Å¢Å¢Å¢Å¢Å¢Å¢Å¢Å¢Å¢Å¢Å¢Å¢Å¢Å¢Å¢Å¢Å¢Å¢Å¢Å¢Å¢Å¢Å¢Å¢Å¢Å¢Å¢Å¢Å¢Å¢Å¢Å¢Å¢Å¢Å¢Å¢Å¢Å¢Å¢Å¢Å¢Å¢Å¢Å¢Å¢Å¢Å¢Å¢Å¢Å¢Å¢Å¢Å¢Å¢Å¢Å¢Å¢Å¢Å¢Å¢Å¢Å¢Å¢Å¢Å¢Å¢Å¢Å¢Å¢Å¢Å¢Å¢Å¢Å¢Å¢Å¢Å¢Å¢Å¢Å¢Å¢Å¢Å¢Å¢Å¢Å¢Å¢Å¢Å¢Å¢Å¢Å¢Å¢Å¢Å¢Å¢Å¢Å¢Å¢Å¢Å¢Å¢Å¢Å¢Å¢Å¢Å¢Å¢Å¢Å¢Å¢Å¢Å¢Å¢Å¢Å¢Å¢Å¢Å¢Å¢Å¢Å¢Å¢Å¢Å¢Å¢Å¢Å¢Å¢Å¢Å¢Å¢Å¢Å¢Å¢Å¢Å¢Å¢Å¢Å¢Å¢Å¢Å¢Å¢Å¢Å¢Å¢Å¢Å¢Å¢Å¢Å¢Å¢Å¢Å¢Å¢Å¢Å¢Å¢Å¢Å¢Å¢Å¢Å¢Å¢Å¢Å¢Å¢Å¢Å¢Å¢Å¢Å¢Å¢Å¢Å¢Å¢Å¢Å¢Å¢Å¢Å¢Å¢Å¢Å¢Å¢Å¢Å¢Å¢Å¢Å¢Å¢Å¢Å¢Å¢Å¢Å¢Å¢Å¢Å¢Å¢Å¢Å¢Å¢Å¢Å¢Å¢Å¢Å¢Å¢Å¢Å¢Å¢Å¢Å¢Å¢Å¢Å¢Å¢Å¢Å¢Å¢Å¢Å¢Å¢Å¢Å¢Å¢Å¢Å¢Å¢Å¢Å¢Å¢Å¢Å¢Å¢Å¢Å¢Å¢Å¢Å¢Å¢Å¢Å¢Å¢Å¢Å¢Å¢Å¢Å¢Å¢Å¢Å¢Å¢Å¢Å¢Å¢Å¢Å¢Å¢Å¢Å¢Å¢Å¢Å¢Å¢Å¢Å¢Å¢Å¢Å¢Å¢Å¢Å¢Å¢Å¢Å¢Å¢Å¢Å¢Å¢Å¢Å¢Å¢Å¢Å¢Å¢Å¢Å¢Å¢Å¢Å¢Å¢Å¢Å¢Å¢Å¢Å¢Å¢Å¢Å¢Å¢Å¢Å¢Å¢Å¢Å¢Å¢Å¢Å¢Å¢Å¢Å¢Å¢Å¢Å¢Å¢Å¢Å¢Å¢Å¢Å¢Å¢Å¢Å¢Å¢Å¢Å¢Å¢Å¢Å¢Å¢Å¢Å¢Å¢Å¢Å¢Å¢Å¢Å¢Å¢Å¢Å¢Å¢Å¢Å¢Å¢Å¢Å¢Å¢Å¢Å¢Å¢Å¢Å¢Å¢Å¢Å¢Å¢Å¢Å¢Å¢Å¢Å¢Å¢Å¢Å¢Å¢Å¢Å¢Å¢Å¢Å¢Å¢Å¢Å¢Å¢Å¢Å¢Å¢Å¢Å¢Å¢Å¢Å¢Å¢Å¢Å¢Å¢Å¢Å¢Å¢Å¢Å¢Å¢Å¢Å¢Å¢Å¢Å¢Å¢Å¢Å¢Å¢Å¢Å¢Å¢Å¢Å¢Å¢Å¢Å¢Å¢Å¢Å¢Å¢Å¢Å¢Å¢Å¢Å¢Å¢Å¢Å¢Å¢Å¢Å¢Å¢Å¢Å¢Å¢Å¢Å¢Å¢Å¢Å¢Å¢Å¢Å¢Å¢Å¢Å¢Å¢Å¢Å¢Å¢Å¢Å¢Å¢Å¢Å¢Å¢Å¢Å¢Å¢Å¢Å¢Å¢Å¢Å¢Å¢Å¢Å¢Å¢Å¢Å¢Å¢Å¢Å¢Å¢Å¢Å¢Å¢Å¢Å¢Å¢Å¢Å¢Å¢Å¢Å¢Å¢Å¢Å¢Å¢Å¢Å¢Å¢Å¢Å¢Å¢Å¢Å¢Å¢Å¢Å¢Å¢Å¢Å¢Å¢Å¢Å¢Å¢Å¢Å¢Å¢Å¢Å¢Å¢Å¢Å¢Å¢Å¢Å¢Å¢Å¢Å¢Å¢Å¢Å¢Å¢Å¢Å¢Å¢Å¢Å¢Å¢Å¢Å¢Å¢Å¢Å¢Å¢Å¢Å¢Å¢Å¢Å¢Å¢Å¢Å¢Å¢Å¢Å¢Å¢Å¢Å¢Å¢Å¢Å¢Å¢Å¢Å¢Å¢Å¢Å¢Å¢Å¢Å¢Å¢Å¢Å¢Å¢Å¢Å¢Å¢Å¢Å¢Å¢Å¢Å¢Å¢Å¢Å¢Å¢Å¢Å¢Å¢Å¢Å¢Å¢Å¢Å¢Å¢Å¢Å¢Å¢Å¢Å¢Å¢Å¢Å¢Å¢Å¢Å¢Å¢Å¢Å¢Å¢Å¢Å¢Å¢Å¢Å¢Å¢Å¢Å¢Å¢Å¢Å¢Å¢Å¢Å¢Å¢Å¢Å¢Å¢Å¢Å¢Å¢Å¢Å¢Å¢Å¢Å¢Å¢Å¢Å¢Å¢Å¢Å¢Å¢Å¢Å¢Å¢Å¢Å¢Å¢Å¢Å¢Å¢Å¢Å¢Å¢Å¢Å¢Å¢Å¢Å¢Å¢Å¢Å¢Å¢Å¢Å¢Å¢Å¢Å¢Å¢Å¢Å¢Å¢Å¢Å¢Å¢Å¢Å¢Å¢Å¢Å¢Å¢Å¢Å¢Å¢Å¢Å¢Å¢Å¢Å¢Å¢Å¢Å¢Å¢Å¢Å¢Å¢Å¢Å¢Å¢Å¢Å¢Å¢Å¢Å¢": 960,
      "Å£Å¡Å¢Å£": 961,
      "Å¢Å¢Å¢Å£Å¢Å¡": 962,
      "Å¢Å¢ÅłÅ¤": 963,
      "Å¢Å¢Å¡Åł": 964,
      "Å¢Å¢Å¢Å¢Å¢Å¢Å¢Å¢Å¢Å¢Å¢Å¢Åł": 965,
      "Å¢Å¢Å¢Å¢Å¢Å¢Å¢Å¢Å¢Å¢Å¢Å¢Å¢Å¢Å¢Å¢Å¢Å¢Å¢Å£Å£": 966,
      "Ã·": 967,
      "Å¢Å¢Å¢Å¢Å¢Å¢Å¢Å¢Å¢Å¢Å¢Å¢Å¢Å¢Å¢Å¢Å¢Å¢Å¢Å¢Å¢Å¢Å¢Å¢Å¢Å¢Å¢Å¢Å¢Å¢Å¢Å¢Å¢Å¢Å¢Å¢Å¢Å¢Å¢Å¢Å¢Å¢Å¢Å¢Å¢Å¢Å¢Å¢Å¢Å¢Å¢Å¢Å¢Å¢Å¢Å¢Å¢Å¢Å¢Å¢Å¢Å¡": 968,
      "Å§Å§": 969,
      "Å¢Å¢Å¢Å¢Å¢Å¢Å¢Å¢Å¢Å¢Å¢Å¢Å¢Å¢Å¢Å¢Å¢Å¢Å¢Å¢Å¢Å¢Å¢Å¢Å¢Å¢ÅŁ": 970,
      "Å¤Å¡Å¤": 971,
      "ÅłÅ£Å¤": 972,
      "Å¤Å£Åł": 973,
      "Å¡Å¥": 974,
      "ÅľÅŀ": 975,
      "Å¢Å±": 976,
      "ÅłÅ£Åł": 977,
      "Å¢Å¡ÅŁ": 978,
      "ÅªÅ¤": 979,
      "ÅľÅ©": 980,
      "ÅĽÅ©": 981,
      "Å¢Åĵ": 982,
      "Å¢Å¢Å¢Å¢Å¢Å¢Å¢Å¢Å¢Å¢Å¢Å¢Å¢Å¢Å¢Å¢Å¢Å¢Å¢Å¢Å¢Å¢Å¢Å¢Å¢Å¢Å¢Å¢Å¢Å¢Å¢Å¢Å¢Å¢Å¢Å¢Å¢Å¢Å¢Å¢Å¢Å¢Å¢Å¢Å¢Å¢Å¢Å¢Å¢Å¢Å¢Å¢Å¢Å¢Å¢Å¢Å¢Å¢Å¢Å¢Å¢Å¢Å¢Å¡Å¢Å¢Å¢Å¢Å¢Å¢Å¢Å¢Å¢Å¢Å¢Å¢Å¢Å¢Å¢Å¢Å¢Å¢Å¢Å¢Å¢Å¢Å¢Å¢Å¢Å¢Å¢Å¢Å¢Å¢Å¢Å¡": 983,
      "Å¢Å¢Å¢Å¢Å¢Å¢Å¢Å¢Å¢Å¢Å¢Å¢Å¢Å¢Å¢Å¢Å¢Å¢Å¢Å¢Å¢Å¢Å¢Å¢Å¢Å¢Å¥": 984,
      "Å¢Å¢Å¢Å¢Å¢Å¢Å¢Å¢Å¢Å¢Å¢Å¢Å¢Å¢Å¢Å¢Å¢Å¢Å¢Å¢Å¢Å¤": 985,
      "Ã½": 986,
      "Å¢Å¢Å¢Å¢Å¢Å¢Å¢Å¢Å¢Å¢Å¢Å¢Å¢Å¢Å¢Å¢Å¢Å¢Å¢Å¢Å£Å£": 987,
      "ÅĺÅ£": 988,
      "Çĭ": 989,
      "Å¢Å¢Å¢Å¢Å¢Å¢Å¢Å¢Å¢Å¢Å¢Å¢Å¢Å¢Å¢Å¢Å¢Å¢Å¢Å¢Å¢Å¢Å¢Å¢Å¢Å¢Å¢Å¢Å¢Å¢Å¢Å¢Å¢Å¢Å¢Å¢Å¢Å¢Å¢Å¢Å¢Å¢Å¢Å¢Å¢Å¢Å¢Å¢Å¢Å¢Å¢Å¢Å¢Å¢Å¢Å¢Å¢Å¢Å¢Å¢Å¢Å£": 990,
      "ÅĿÅĿ": 991,
      "Å¢Å¢Å¢Å¢Å¢Å¢Å¢Å¢Å¢Å¢Å¢Å¢Å¢Å¢Å¢Å¢Å¢Å¢Å¢Å¢Å¢Åł": 992,
      "Å¢Å¢Å¢Å¢Å¢Å¢Å¢Å¢Å¢Å¢Å¢Å¢Å¢Å¢Å¢Å¢Å¢Å¢Å¢Å¢Å¢Å¢Å¢Å¢Å¢Å¢Å¢Å¢Å¢Å¢Å¢Å¤Å¢Å¢Å¢Å¢Å¢Å¢Å¢Å¢Å¢Å¢Å¢Å¢Å¢Å¢Å¢Å¢Å¢Å¢Å¢Å¢Å¢Å¢Å¢Å¢Å¢Å¢Å¢Å¢Å¢Å¢Å¢Å¤": 993,
      "Å¬Å£": 994,
      "ÇĮ": 995,
      "Å¤Å£Å¤": 996,
      "Å¢Å¢Å¢Å¢Å¢Å¢Å¢Å¢Å¢Å¢Å¢Å¢Å¢Å¢Å¢Å¢Å¢Å¢Å¢Å¢Å¢Å¢Å¢Å¢Å¢Å¢Å¢Å¡Å¡": 997,
      "Å¨Åŀ": 998,
      "ÅªÅł": 999,
      "Å¢Å¢Å¢Å¢Å¢Å¢Å¢Å¢Å¢Å¢Å¢Å¢Å¢Å¢Å¢Å¢Å¢Å¢Å¢Å¢Å¢Å¢Å¢Å¢Å¢Å¢Å¢Å¢Å¢Å¢Å¢Å¢Å¢Å¢Å¢Å¢Å¢Å¢Å¢Å¢Å¢Å¢Å¢Å¢Å¢Å¢Å¢Å¢Å¢Å¢Å¢Å¢Å¢Å¢Å¢Å¢Å¢Å¢Å¢Å¢Å¢Å¢Å¢Å¢Å¢Å¢Å¢Å¢Å¢Å¢Å¢Å¢Å¢Å¢Å¢Å¢Å¢Å¢Å¢Å¢Å¢Å¢Å¢Å¢Å¢Å¢Å¢Å¢Å¢Å¢Å¢Å¢Å¢Å¢Å¢Å¢Å¢Å¢Å¢Å¢Å¢Å¢Å¢Å¢Å¢Å¢Å¢Å¢Å¢Å¢Å¢Å¢Å¢Å¢Å¢Å¢Å¢Å¢Å¢Å¢Å¢Å¢Å¢Å¢Å¢Å¢Å¢Å¢Å¢Å¢Å¢Å¢Å¢Å¢Å¢Å¢Å¢Å¢Å¢Å¢Å¢Å¢Å¢Å¢Å¢Å¢Å¢Å¢Å¢Å¢Å¢Å¢Å¢Å¢Å¢Å¢Å¢Å¢Å¢Å¡": 1000,
      "ÅłÅ¡Å¤": 1001,
      "Ãº": 1002,
      "Å¢Å¡Å£Å¢Å¡": 1003,
      "Å¡Å£Å¡Å¡": 1004,
      "Å¤Å¡Åł": 1005,
      "Å¢Å¤ÅŁ": 1006,
      "Å¨ÅĿ": 1007,
      "ÅļÅł": 1008,
      "Å¢Å£Å¢Å¢Å¢Å¡": 1009,
      "Å¨Åľ": 1010,
      "Å¢ÅŁÅ¤": 1011,
      "Å¡ÅŁ": 1012,
      "Å¢Å¥Åł": 1013,
      "Çį": 1014,
      "Å¨Å¦": 1015,
      "Å¢ÅłÅ¥": 1016,
      "Å¢Å¢Å¡Å£Å£": 1017,
      "Å¢Å£Å¡Å¢Å£": 1018,
      "Å¢Å¢Å¢Å¢Å¢Å¢Å¢Å¢Å¢Å¢Å¢Å¢Å¢Å¢Å¢Å¢Å¢Å¢Å¢Å¢Å¢Å¢Å¢Å¢Å¢Å¢Å¢Å¢Å¢Å¢Å¢Å£Å¢Å¢Å¢Å¢Å¢Å¢Å¢Å¢Å¢Å¢Å¢Å¢Å¢Å¢Å¢Å¢Å¢Å¢Å¢Å¢Å¢Å¢Å¢Å¢Å¢Å¢Å¢Å¢Å¢Å¢Å¢Å¢Å¢Å¢Å¢Å¢Å¢Å¢Å¢Å¢Å¢Å¢Å¢Å¢Å¢Å¢Å¢Å¢Å¢Å¢Å¢Å¢Å¢Å¢Å¢Å¢Å¢Å¢Å¢Å¢Å¢Å¢Å¢Å£": 1019,
      "ÅĽÅ§": 1020,
      "Å©ÅŁ": 1021,
      "Å¢Å²": 1022,
      "ÅķÅ¥Å¤Å¢Å¢Å¢Å¢Å¢Å¢Å¢Å¢": 1023,
      "Çİ": 1024,
      "Å©Å¥": 1025,
      "Å¢Å¡Å¡Å¡": 1026,
      "Å¢Å¡Å£Å¢Å£": 1027,
      "Å¡Å£Å¡Å£": 1028,
      "Å¢Å¢Å¢Å¢Å¢Å¢Å¢Å¢Å¢Å¢Å¢Å¢Å¢Å¢Å¢Å¢Å¢Å¢Å¢Å¢Å¢Å¢Å¢Å¢Å¢Å¢Å¢Å¢Å¢Å¢Å¢Å£Å¡": 1029,
      "Å¢Å¢Å¢Å¢Å¢Å¢Å¢Å¢Å¢Å¢Å¢Å¢Å¢Å¢Å¢Å¢Å¢Å¢Å¢Å¢Å¢Å¢Å¢Å¢Å¢Åľ": 1030,
      "ÅĽÅŁ": 1031,
      "Å¢Å¢Å¢Å¢Å¢Å¢Å¢Å¢Å¢Å¢Å¢Å¢Å¢Å¢Å¢Å¢Å¢Å¢Å¢Å¢Å¢Å¢Å¢Å¢Å¢Å¢Å¢Å¢Å¢Å¢Å¢Å¡Å£": 1032,
      "Å§Åľ": 1033,
      "Å¢Å¢Å¢Å¡Å¢Å£": 1034,
      "ÅłÅ¡Åł": 1035,
      "Å¢Å¢Å¤Åł": 1036,
      "Å¢Å¢Å¢Å£Å¢Å£": 1037,
      "Å¢Å¢Å¢Å¢Å¢Å¢Å¢Å¢Å¢Å¢Å¢Å¢Å¢Å¢Å¢Å¢Å¢Å¢Å¢Å¢Å¢Å¢Å¢Å¢Å¢Å¨": 1038,
      "Å¢Å¢Å¢Å¢Å¢Å¢Å¢Å¢Å¢Å¢Å¢Å¢Å¢Å¢Å¢Å¢Å¢Å¢Å¢Å¢Å¢Å¢Å¢Å¢Å¢Å¢Å¢Å¢Å¢Å¢Å¢Å¢Å¢Å¢Å¢Å¢Å¢Å¢Å¢Å¢Å¢Å¢Å¢Å¢Å¢Å¢Å¢Å¢Å¢Å¢Å¢Å¢Å¢Å¢Å¢Å¢Å¢Å¢Å¢Å¢Å¢Å¢Å¢Å¢Å¢Å¢Å¢Å¢Å¢Å¢Å¢Å¢Å¢Å¢Å¢Å¢Å¢Å¢Å¢Å¢Å¢Å¢Å¢Å¢Å¢Å¢Å¢Å¢Å¢Å¢Å¢Å¢Å¢Å¢Å¢Å£Å¢Å¢Å¢Å¢Å¢Å¢Å¢Å¢Å¢Å¢Å¢Å¢Å¢Å¢Å¢Å¢Å¢Å¢Å¢Å¢Å¢Å¢Å¢Å¢Å¢Å¢Å¢Å¢Å¢Å¢Å¢Å£": 1039,
      "Å¢Å£Å¡Å¢Å¡": 1040,
      "Å¡Å£ÅŁ": 1041,
      "Å¢Å¢Å¢Å¢Å¢Å¢Å¢Å¢Å¢Å¢Å¢Å¢Å¢Å¢Å¢Å¢Å¢Å¢Å¢Å¢Å¢Å¢ÅŁ": 1042,
      "Çı": 1043,
      "ÇĴ": 1044,
      "Å¢Å¢Å¢Å¢Å¢Å¢Å¢Å¢Å¢Å¢Å¢Å¢Å¢Å¢Å¢Å¢Å¢Å¢Å¢Å¢Å¢Å¢Å¢Å¢Å¢Å¢Å¢Å¢Å¢Å¢Å¢Å¢Å¢Å¢Å¢Å¢Å¢Å¢Å¢Å¢Å¢Å¢Å¢Å¢Å¢Å¢Å¢Å¢Å¢Å¢Å¢Å¢Å¢Å¢Å¢Å¢Å¢Å¢Å¢Å¢Å¢Å¢Å¢Å¢Å¢Å¢Å¢Å¢Å¢Å¢Å¢Å¢Å¢Å¢Å¢Å¢Å¢Å¢Å¢Å¢Å¢Å¢Å¢Å¢Å¢Å¢Å¢Å¢Å¢Å¢Å¢Å¢Å¢Å¢Å¢Å¢Å¢Å¢Å¢Å¢Å¢Å¢Å¢Å¢Å¢Å¢Å¢Å¢Å¢Å¢Å¢Å¢Å¢Å¢Å¢Å¢Å¢Å¢Å¢Å¢Å¢Å¢Å¢Å¢Å¢Å¢Å¢Å¢Å¢Å¢Å¢Å¢Å¢Å¢Å¢Å¢Å¢Å¢Å¢Å¢Å¢Å¢Å¢Å¢Å¢Å¢Å¢Å¢Å¢Å¢Å¢Å¢Å¢Å¢Å¢Å¢Å¢Å¢Å¢Å¢Å¢Å¢Å¢Å¢Å¢Å¢Å¢Å¢Å¢Å¢Å¢Å¢Å¢Å¢Å¢Å¢Å¢Å¢Å¢Å¢Å¢Å¢Å¢Å¢Å¢Å¢Å¢Å¢Å¢Å¢Å¢Å¢Å¢Å¢Å¢Å¢Å¢Å¢Å¢Å¢Å¢Å¢Å¢Å¢Å¢Å¢Å¢Å¢Å¢Å¢Å¢Å¢Å¢Å¢Å¢Å¢Å¢Å¢Å¢Å¢Å¢Å¢Å¢Å¢Å¢Å¢Å¢Å¢Å¢Å¢Å¢Å¢Å¢Å¢Å¢Å¢Å¢Å¢Å¢Å¢Å¢Å¢Å¢Å¢Å¢Å¢Å¢Å¢Å¢Å¢Å¢Å¢Å¢Å¢Å¢Å¢Å¢Å¢Å¢Å¢Å¢Å¢Å¢Å¢Å¢Å¢Å¢Å¢Å¢Å¢Å¢Å¢Å¢Å¢Å¢Å¢Å¢Å¢Å¢Å¢Å¢Å¢Å¢Å¢Å¢Å¢Å¢Å¢Å¢Å¢Å¢Å¢Å¢Å¢Å¢Å¢Å¢Å¢Å¢Å¢Å¢Å¢Å¢Å¢Å¢Å¢Å¢Å¢Å¢Å¢Å¢Å¢Å¢Å¢Å¢Å¢Å¢Å¢Å¢Å¢Å¢Å¢Å¢Å¢Å¢Å¢Å¢Å¢Å¢Å¢Å¢Å¢Å¢Å¢Å¢Å¢Å¢Å¢Å¢Å¢Å¢Å¢Å¢Å¢Å¢Å¢Å¢Å¢Å¢Å¢Å¢Å¢Å¢Å¢Å¢Å¢Å¢Å¢Å¢Å¢Å¢Å¢Å¢Å¢Å¢Å¢Å¢Å¢Å¢Å¢Å¢Å¢Å¢Å¢Å¢Å¢Å¢Å¢Å¢Å¢Å¢Å¢Å¢Å¢Å¢Å¢Å¢Å¢Å¢Å¢Å¢Å¢Å¢Å¢Å¢Å¢Å¢Å¢Å¢Å¢Å¢Å¢Å¢Å¢Å¢Å¢Å¢Å¢Å¢Å¢Å¢Å¢Å¢Å¢Å¢Å¢Å¢Å¢Å¢Å¢Å¢Å¢Å¢Å¢Å¢Å¢Å¢Å¢Å¢Å¢Å¢Å¢Å¢Å¢Å¢Å¢Å¢Å¢Å¢Å¢Å¢Å¢Å¢Å¢Å¢Å¢Å¢Å¢Å¢Å¢Å¢Å¢Å¢Å¢Å¢Å¢Å¢Å¢Å¢Å¢Å¢Å¢Å¢Å¢Å¢Å¢Å¢Å¢Å¢Å¢Å¢Å¢Å¢Å¢Å¢Å¢Å¢Å¢Å¢Å¢Å¢Å¢Å¢Å¢Å¢Å¢Å¢Å¢Å¢Å¢Å¢Å¢Å¢Å¢Å¢Å¢Å¢Å¢Å¢Å¢Å¢Å¢Å¢Å¢Å¢Å¢Å¢Å¢Å¢Å¢Å¢Å¢Å¢Å¢Å¢Å¢Å¢Å¢Å¢Å¢Å¢Å¢Å¢Å¢Å¢Å¢Å¢Å¢Å¢Å¢Å¢Å¢Å¢Å¢Å¢Å¢Å¢Å¢Å¢Å¢Å¢Å¢Å¢Å¢Å¢Å¢Å¢Å¢Å¢Å¢Å¢Å¢Å¢Å¢Å¢Å¢Å¢Å¢Å¢Å¢Å¢Å¢Å¢Å¢Å¢Å¢Å¢Å¢Å¢Å¢Å¢Å¢Å¢Å¢Å¢Å¢Å¢Å¢Å¢Å¢Å¢Å¢Å¢Å¢Å¢Å¢Å¢Å¢Å¢Å¢Å¢Å¢Å¢Å¢Å¢Å¢Å¢Å¢Å¢Å¢Å¢Å¢Å¢Å¢Å¢Å¢Å¢Å¢Å¢Å¢Å¢Å¢Å¢Å¢Å¢Å¢Å¢Å¢Å¢Å¢Å¢Å¢Å¢Å¢Å¢Å¢Å¢Å¢Å¢Å¢Å¢Å¢Å¢Å¢Å¢Å¢Å¢Å¢Å¢Å¢Å¢Å¢Å¢Å¢Å¢Å¢Å¢Å¢Å¢Å¢Å¢Å¢Å¢Å¢Å¢Å¢Å¢Å¢Å¢Å¢Å¢Å¢Å¢Å¢Å¢Å¢Å¢Å¢Å¢Å¢Å¢Å¢": 1045,
      "Å¢Å¢Å¢Å¢Å¢Å¢Å¢Å¢Å¢Å¢Å¢Å¢Å¢Å¢Å¡Å£": 1046,
      "Å¢Å¦Å£": 1047,
      "Å¢Å¢Å¢Å¢Å¢Å¢Å¢Å¢Å¢Å¢Å¢Å¢Å¢Å¢Å¢Å¢Å¢Å¢Å¢Å¢Å¢Å¢Å¢Å¢Å¢Å¢Å¢Å¢Å¢Å¢Å¢Å£Å£": 1048,
      "Å¢ÅĴ": 1049,
      "ÇĲ": 1050,
      "Çĳ": 1051,
      "Å¢Å¢Å£Å¢Å¢Å£": 1052,
      "Å¢Å¢Å¢Å¢Å¢Å¢Å¢Å¢Å¢Å¢Å¢Å¢Å¢Å¢Å¢Å¢Å¢Å¢Å¡Å£": 1053,
      "Å¢Å¢Å¢Å¢Å¢Å¢Å¢Å¢Å¢Å¢Å¢Å¢Å¢Å¢Å¢Å¢Å¢Å¢Å£Å¡": 1054,
      "Å¢ÅŀÅ£": 1055,
      "Ã¶": 1056,
      "Å¦Åľ": 1057,
      "Å¢Å¢Å¢Å¢Å¢Å¢Å¢Å¢Å¢Å¢Å¢Å¢Å¢Å¢Å¢Å¢Å¢Å¢Å¢Å¡Å£": 1058,
      "Å¥Åľ": 1059,
      "ÅĽÅ¨": 1060,
      "Å¢Å¡Å¢Åł": 1061,
      "Å¢Å¢Å¢Å¢Å¢Å¢Å¢Å¢Å¢Å¢Å¢Å¢Å¢Å¡Å£": 1062,
      "Å¢Å¢Å¡Å¢Å¢Å¡": 1063,
      "Å¢Å¢Å¢Å¢Å¢Å¢Å¢Å¢Å¢Å¢Å¢Å¢Å¢Å¢Å¢Å¢Å¢Å¢Å¢Å¢Å¢Å¢Å¢Å¢Å¢Å¢Å¢Å£Å¢Å¢Å¢Å£": 1064,
      "Å¦Å¨": 1065,
      "Å¢Å¢Å¢Å¡Å¢Å¡": 1066,
      "Å¢Å¢Å¢Å¢Å¢Å¢Å¢Å¢Å¢Å¢Å¢Å¢Å¢Å¢Å¢Å¢Å¢Å¢Å¢Å¢Å¢Å¢Å¢Å¢Å¢Å¢Å¢Å¢Å¢Å¢Å¢Å¢Å¢Å¢Å¢Å¢Å¢Å¢Å¢Å¢Å¢Å¢Å¢Å¢Å¢Å¢Å¢Å¢Å¢Å¢Å¢Å¢Å¢Å¢Å¢Å¢Å¢Å¢Å¢Å¢Å¢Å¢Å¢Å¢Å¢Å¢Å¢Å¢Å¢Å¢Å¢Å¢Å¢Å¢Å¢Å¢Å¢Å¢Å¢Å¢Å¢Å¢Å¢Å¢Å¢Å¢Å¢Å¢Å¢Å¢Å¢Å¢Å¢Å¢Å¢Å¢Å¢Å¢Å¢Å¢Å¢Å¢Å¢Å¢Å¢Å¢Å¢Å¢Å¢Å¢Å¢Å¢Å¢Å¢Å¢Å¢Å¢Å¢Å¢Å¢Å¢Å¢Å¢Å¢Å¢Å¢Å¢Å¢Å¢Å¢Å¢Å¢Å¢Å¢Å¢Å¢Å¢Å¢Å¢Å¢Å¢Å¢Å¢Å¢Å¢Å¢Å¢Å¢Å¢Å¢Å¢Å¢Å¢Å¢Å¢Å¢Å¢Å¢Å¢Å¢Å¢Å¢Å¢Å¢Å¢Å¢Å¢Å¢Å¢Å¢Å¢Å¢Å¢Å¢Å¢Å¢Å¢Å¢Å¢Å¢Å¢Å¢Å¢Å¢Å¢Å¢Å¢Å¢Å¢Å¢Å¢Å¢Å¢Å¢Å¢Å¢Å¢Å¢Å¢Å¢Å¢Å¢Å¢Å¢Å¢Å¢Å¢Å¢Å¢Å¢Å¢Å¢Å¢Å¢Å¢Å¢Å¢Å¢Å¢Å¢Å¢Å¢Å¢Å¢Å¢Å¢Å¢Å¢Å¢Å¢Å¢Å¢Å¢Å¢Å¢Å¢Å¢Å¢Å¢Å¢Å¢Å¢Å¢Å¢Å¢Å¢Å¢Å¢Å¢Å¢Å¢Å¢Å¢Å¢Å¢Å¢Å¢Å¢Å¢Å¢Å¢Å¢Å¢Å¢Å¢Å¢Å¢Å¢Å¢Å¢Å¢Å¢Å¢Å¢Å¢Å¢Å¢Å¢Å¢Å¢Å¢Å¢Å¢Å¢Å¢Å¢Å¢Å¢Å¢Å¢Å¢Å¢Å¢Å¢Å¢Å¢Å¢Å¢Å¢Å¢Å¢Å¢Å¢Å¢Å¢Å¢Å¢Å¢Å¢Å¢Å¢Å¢Å¢Å¢Å¢Å¢Å¢Å¢Å¢Å¢Å¢Å¢Å¢Å¢Å¢Å¢Å¢Å¢Å¢Å¢Å¢Å¢Å¢Å¢Å¢Å¢Å¢Å¢Å¢Å¢Å¢Å¢Å¢Å¢Å¢Å¢Å¢Å¢Å¢Å¢Å¢Å¢Å¢Å¢Å¢Å¢Å¢Å¢Å¢Å¢Å¢Å¢Å¢Å¢Å¢Å¢Å¢Å¢Å¢Å¢Å¢Å¢Å¢Å¢Å¢Å¢Å¢Å¢Å¢Å¢Å¢Å¢Å¢Å¢Å¢Å¢Å¢Å¢Å¢Å¢Å¢Å¢Å¢Å¢Å¢Å¢Å¢Å¢Å¢Å¢Å¢Å¢Å¢Å¢Å¢Å¢Å¢Å¢Å¢Å¢Å¢Å¢Å¢Å¢Å¢Å¢Å¢Å¢Å¢Å¢Å¢Å¢Å¢Å¢Å¢Å¢Å¢Å¢Å¢Å¢Å¢Å¢Å¢Å¢Å¢Å¢Å¢Å¢Å¢Å¢Å¢Å¢Å¢Å¢Å¢Å¢Å¢Å¢Å¢Å¢Å¢Å¢Å¢Å¢Å¢Å¢Å¢Å¢Å¢Å¢Å¢Å¢Å¢Å¢Å¢Å¢Å¢Å¢Å¢Å¢Å¢Å¢Å¢Å¢Å¢Å¢Å¢Å¢Å¢Å¢Å¢Å¢Å¢Å¢Å¢Å¢Å¢Å¢Å¢Å¢Å¢Å¢Å¢Å¢Å¢Å¢Å¢Å¢Å¢Å¢Å¢Å¢Å¢Å¢Å¢Å¢Å¢Å¢Å¢Å¢Å¢Å¢Å¢Å¢Å¢Å¢Å¢Å¢Å¢Å¢Å¢Å¢Å¢Å¢Å¢Å¢Å¢Å¢Å¢Å¢Å¢Å¢Å¢Å¢Å¢Å¢Å¢Å¢Å¢Å¢Å¢Å¢Å¢Å¢Å¢Å¢Å¢Å¢Å¢Å¢Å¢Å¢Å¢Å¢Å¢Å¢Å¢Å¢Å¢Å¢Å¢Å¢Å¢Å¢Å¢Å¢Å¢Å¢Å¢Å¢Å¢Å¢Å¢Å¢Å¢Å¢Å¢Å¢Å¢Å¢Å¢Å¢Å¢Å¢Å¢Å¢Å¢Å¢Å¢Å¢Å¢Å¢Å¢Å¢Å¢Å¢Å¢Å¢Å¢Å¢Å¢Å¢Å¢Å¢Å¢Å¢Å¢Å¢Å¢Å¢Å¢Å¢Å¢Å¢Å¢Å¢Å¢Å¢Å¢Å¢Å¢Å¢Å¢Å¢Å¢Å¢Å¢Å¢Å¢Å¢Å¢Å¢Å¢Å¢Å¢Å¢Å¢Å¢Å¢Å¢Å¢Å¢Å¢Å¢Å¢Å¢Å¢Å¢Å¢Å¢Å¢Å¢Å¢Å¢Å¢Å¢Å¢Å¢Å¢Å¢Å¢Å¢Å¢Å¢Å¢Å¢Å¢Å¢Å¢Å¢Å¢Å¢Å¢Å¢Å¢Å¢Å¢Å¢Å¢Å¢Å¢Å¢Å¢Å¢Å¢Å¢Å¢Å¢Å¢Å¢Å¢Å¢Å¢Å¢Å¢Å¢Å¢Å¢Å¢Å¢Å¢Å¢Å¢Å¢Å¢Å¢Å¢Å¢Å¢Å¢Å¢Å¢Å¢Å¢Å¢Å¢Å¢Å¢Å¢Å¢Å¢Å¢Å¢Å¢Å¢Å¢Å¢Å¢Å¢Å¢Å¢Å¢Å¢Å¢Å¢Å¢Å¢Å¢Å¢Å¢Å¢Å¢Å¢Å¢Å¢Å¢Å¢Å¢Å¢Å¢Å¢Å¢Å¢Å¢Å¢Å¢Å¢Å¢Å¢Å¢Å¢Å¢Å¢Å¢Å¢Å¢Å¢Å¢Å¢Å¢Å¢Å¢Å¢Å¢Å¢Å¢Å¢Å¢Å¢Å¢Å¢Å¢Å¢Å¢Å¢Å¢Å¢Å¢Å¢Å¢Å¢Å¢Å¢Å¢Å¢Å¢Å¢Å¢Å¢Å¢Å¢Å¢Å¢Å¢Å¢Å¢Å¢Å¢Å¢Å¢Å¢Å¢Å¢Å¢Å¢Å¢Å¢Å¢Å¢Å¢Å¢Å¢Å¢Å¢Å¢Å¢Å¢Å¢Å¢Å¢Å¢Å¢Å¢Å¢Å¢Å¢Å¢Å¢Å¢Å¢Å¢Å¢Å¢Å¢Å¢Å¢Å¢Å¢Å¢Å¢Å¢Å¢Å¢Å¢Å¢Å¢Å¢Å¢Å¢Å¢Å¢Å¢Å¢Å¢Å¢Å¢Å¢Å¢Å¢Å¢Å¢Å¢Å¢Å¢Å¢Å¢Å¢Å¢Å¢Å¢Å¢Å¢Å¢Å¢Å¢Å¢Å¢Å¢Å¢Å¢Å¢Å¢Å¢Å¢Å¢Å¢Å¢Å¢Å¢Å¢Å¢Å¢Å¢Å¢Å¢Å¢Å¢Å¢Å¢Å¢Å¢Å¢Å¢Å¢Å¢Å¢Å¢Å¢Å¢Å¢Å¢Å¢Å¢Å¢Å¢Å¢Å¢Å¢Å¢Å¢Å¢Å¢Å¢Å¢Å¢Å¢Å¢Å¢Å¢Å¢Å¢Å¢Å¢Å¢Å¢Å¢Å¢Å¢Å¢Å¢Å¢Å¢Å¢Å¢Å¢Å¢Å¢Å¢Å¢Å¢Å¢Å¢Å¢Å¢Å¢Å¢Å¢Å¢Å¢Å¢Å¢Å¢Å¢Å¢Å¢Å¢Å¢Å¢Å¢Å¢Å¢Å¢Å¢Å¢Å¢Å¢Å¢Å¢Å¢Å¢Å¢Å¢Å¢Å¢Å¢Å¢Å¢Å¢Å¢Å¢Å¢Å¢Å¢Å¢Å¢Å¢Å¢Å¢Å¢Å¢Å¢Å¢Å¢Å¢Å¢Å¢Å¢Å¢Å¢Å¢Å¢Å¢Å¢Å¢Å¢Å¢Å¢Å¢Å¢Å¢Å¢Å¢Å¢Å¢Å¢Å¢Å¢Å¢Å¢Å¢Å¢Å¢Å¢Å¢Å¢Å¢Å¢Å¢Å¢Å¢Å¢Å¢Å¢Å¢Å¢Å¢Å¢Å¢Å¢Å¢Å¢Å¢Å¢Å¢Å¢Å¢Å¢Å¢Å¢Å¢Å¢Å¢Å¢Å¢Å¢Å¢Å¢Å¢Å¢Å¢Å¢Å¢Å¢Å¢Å¢Å¢Å¢Å¢Å¢Å¢Å¢Å¢Å¢Å¢Å¢Å¢Å¢Å¢Å¢Å¢Å¢Å¢Å¢Å¢Å¢Å¢Å¢Å¢Å¢Å¢Å¢Å¢Å¢Å¢Å¢Å¢Å¢Å¢Å¢Å¢Å¢Å¢Å¢Å¢Å¢Å¢Å¢Å¢Å¢Å¢Å¢Å¢Å¢Å¢Å¢Å¢Å¢Å¢Å¢Å¢Å¢Å¢Å¢Å¢Å¢Å¢Å¢Å¢Å¢Å¢Å¢Å¢Å¢Å¢Å¢Å¢Å¢Å¢Å¢Å¢Å¢Å¢Å¢Å¢Å¢Å¢Å¢Å¢Å¢Å¢Å¢Å¢Å¢Å¢Å¢Å¢Å¢Å¢Å¢Å¢Å¢Å¢Å¢Å¢Å¢Å¢Å¢Å¢Å¢Å¢Å¢Å¢Å¢Å¢Å¢Å¢Å¢Å¢Å¢Å¢Å¢Å¢Å¢Å¢Å¢Å¢Å¢Å¢Å¢Å¢Å¢Å¢Å¢Å¢Å¢Å¢Å¢Å¢Å¢Å¢Å¢Å¢Å¢Å¢Å¢Å¢Å¢Å¢Å¢Å¢Å¢Å¢Å¢Å¢Å¢Å¢Å¢Å¢Å¢Å¢Å¢Å¢Å¢Å¢Å¢Å¢Å¢Å¢Å¢Å¢Å¢Å¢Å¢Å¢Å¢Å¢Å¢Å¢Å¢Å¢Å¢Å¢Å¢Å¢Å¢Å¢Å¢Å¢Å¢Å¢Å¢Å¢Å¢Å¢Å¢Å¢Å¢Å¢Å¢Å¢Å¢Å¢Å¢Å¢Å¢Å¢Å¢Å¢Å¢Å¢Å¢Å¢Å¢Å¢Å¢Å¢Å¢Å¢Å¢Å¢Å¢Å¢Å¢Å¢Å¢Å¢Å¢Å¢Å¢Å¢Å¢Å¢Å¢Å¢Å¢Å¢Å¢Å¢Å¢Å¢Å¢Å¢Å¢Å¢Å¢Å¢Å¢Å¢Å¢Å¢Å¢Å¢Å¢Å¢Å¢Å¢Å¢Å¢Å¢Å¢Å¢Å¢Å¢Å¢Å¢Å¢Å¢Å¢Å¢Å¢Å¢Å¢Å¢Å¢Å¢Å¢Å¢Å¢Å¢Å¢Å¢Å¢Å¢Å¢Å¢Å¢Å¢Å¢Å¢Å¢Å¢Å¢Å¢Å¢Å¢Å¢": 1067,
      "Å¢Å¢Å£Å¡Å£": 1068,
      "Å¢Å¢Å¢Å¢Å¢Å¢Å¢Å¢Å¢Å¢Å¢Å¢Å¢Å¢Å¢Å¢Å¢Å¢Å¢Å¢Å¢Å¢Å¢Å¢Å¢Å¢Å¢Å¢Å¡Å¡": 1069,
      "Å¢Å¢Å¢Å¢Å¢Å¢Å¢Å¢Å¢Å¢Å¢Å¢Å¢Å¢Å¢Å¢Å¢Å¢Å¢Å¢Å¢Å¢Å¢Å¢Å¢Å¢Å¢Å¢Å¢Å¡Å¡": 1070,
      "ÅļÅ§": 1071,
      "Å¢Å¢Å¢Å¢Å¢Å¢Å¢Å¢Å¢Å¢Å¢Å¢Å¢Å¢Å£Å¡": 1072,
      "Å¢Å£Å¢Åł": 1073,
      "Å¢Å£Å¢Å¤": 1074,
      "Å¢Å¢Å¢Å¢Å¢Å¢Å¢Å¢Å¢Å¢Å¢Å¢Å¢Å¢Å¢Å¢Å¢Å¢Å¢Å¢Å¢Å¢Å¢Å¢Å¢Å¢Å¢Å¡Å¢Å¢Å¢Å¡": 1075,
      "ÅĻÅ¤": 1076,
      "Ãµ": 1077,
      "Å¢Å¡Å¢Å¤": 1078,
      "Å©Åŀ": 1079,
      "Å¢Å¥Å¤": 1080,
      "Å«Å¤": 1081,
      "ÅĺÅ¡": 1082,
      "Å¢Å¢Å¢Å¢Å¢Å¢Å¢Å¢Å¢Å¢Å¢Å¢Å¢Å¢Å¢Å¢Å¢Å¢Å¢Å¢Å¢Å¢Å¥": 1083,
      "Å¢Å¢Å£Å¢Å¢Å¡": 1084,
      "Å¢Å¢Å¢Å¢Å¢Å¢Å¢Å¢Å¢Å¢Å¢Å¢Å¢Å¢Å¢Å¢Å¢Å¢Å¢Å¢Å¢Å¢Å¢Å¢Å¢Å¢Å¢Å¢Å¢Å¢Å¢ÅłÅ¢Å¢Å¢Å¢Å¢Å¢Å¢Å¢Å¢Å¢Å¢Å¢Å¢Å¢Å¢Å¢Å¢Å¢Å¢Å¢Å¢Å¢Å¢Å¢Å¢Å¢Å¢Å¢Å¢Å¢Å¢Åł": 1085,
      "Å¬Å¡": 1086,
      "Å¢Å¢Å¢Å¢Å¢Å¢Å¢Å¢Å¢Å¢Å¢Å¢Å¢Å¢Å¢Å¢Å¢Å¢Å¢Å¢Å¢Å¢Å¢Å¢Å¢Å¢Å¢Å¢Å¢Å¢Å¢Å¢Å¢Å¢Å¡": 1087,
      "Å¢Å¢Å¢Å¢Å¢Å¢Å¢Å¢Å¢Å¢Å¢Å¢Å¢Å¢Å¢Å¢Å£Å¡": 1088,
      "Å¢Å¢Å¢Å¢Å¢Å¢Å¢Å¢Å¢Å¢Å¢Å¢Å¢Å¢Å¢Å¢Å¡Å£": 1089,
      "ÅĽÅŀ": 1090,
      "Å¢Å¢Å¢Å¢Å¢Å¢Å¢Å¢Å¢Å¢Å¢Å¢Å¢Å¢Å¢Å¢Å¢Å¢Å¢Å¢Å¢Å¢Å¢Å¢Å¢Å¢Å¢Å¢Å¢Å¢Å¢Å¢Å¢Å¢Å£": 1091,
      "Å¡Å£Å¥": 1092,
      "Å¢Å¢Å¢Å¢Å¢Å¢Å¢Å¢Å¢Å¢Å¢Å¢Å¢Å¢Å¢Å¢Å¢Å¢Å¢Å¢Å¢Å¢Å¢Å¢Å¢Å¢Å¢Å¢Å¢Å¢Å¢Å¡Å¡": 1093,
      "Å¢Å¢Å¨": 1094,
      "Å¢Å¢Å¢Å¢Å¢Å¢Å¢Å¢Å¢Å¢Å¢Å¢Å¢Å¢Å¢Å¢Å¢Å¢Å¢Å¢Å¢Å¢Å¢Å¢Å¢Å¢Å¢Å£Å¢Å¢Å¢Å¡": 1095,
      "Å¢Å¢Å¢Å¢Å¢Å¢Å¢Å¢Å¢Å¢Å¢Å¢Å¢Å¢Å¢Å¢Å¢Å¢Å¢Åŀ": 1096,
      "Å¢Å¢Å¢Å¢Å¢Å¢Å¢Å¢Å¢Å¢Å¢Å¢Å¢Å¢Å¢Å¢Å¢Å¢Å¢Å¢Å¢Å¢Å¢Å¢Å¢Å¢Å¢Å¢Å¢Å¢Å¢Å¦": 1097,
      "Å¢Å¢Å¢Å¢Å¢Å¢Å¢Å¢Å¢Å¢Å¢Å¢Å¢Å¢Å¢Å¢Å¢Å¢Å¢Å¡Å¡": 1098,
      "Å¢Å³": 1099,
      "Å¢Å¢Å¢Å¢Å¢Å¢Å¢Å¢Å¢Å¢Å¢Å¢Å¢Å£Å£": 1100,
      "ÅĹÅ£": 1101,
      "ÅłÅ§": 1102,
      "ÅľÅĿ": 1103,
      "Å¢Å¢Å¢Å¢Å¢Å¢Å¢Å¢Å¢Å¢Å¢Å¢Å¢Å¢Å¢Å¢Å¢Å¢Å¢Å¢Å¢Å¢Å¢Å¢Å¢Å¢Å¡Å¢Å¢Å¢Å¢Å¡": 1104,
      "Å¢Å¢Å¢Å¢Å¢Å¢Å¢Å¢Å¢Å¢Å¢Å¢Å¢Å¢Å¢Å¢Å¢Å¢Å¢Å¢Å¢Å¢Å¢Å¢Å¢Å¢Å¢Å¢Å¢Å¢Å¢Å¤Å¢Å¢Å¢Å¢Å¢Å¢Å¢Å¢Å¢Å¢Å¢Å¢Å¢Å¢Å¢Å¢Å¢Å¢Å¢Å¢Å¢Å¢Å¢Å¢Å¢Å¢Å¢Å¢Å¢Å¢Å¢Å¡": 1105,
      "Å¢Å¢Å¢Å¢Å¢Å¢Å¢Å¢Å¢Å¢Å¢Å¢Å¢Å¢Å¢Å¢Å¢Å¢Å¢Å¢Å¢Å¢Å¢Å¢Å¢Å¢Å¡Å¢Å¢Å¢Å¢Å£": 1106,
      "Çĵ": 1107,
      "ÅŃÅ£": 1108,
      "Å¢Åĳ": 1109,
      "Å¡Å£Å£Å¡": 1110,
      "Å¢Å¢Å¢Å¢Å¢Å¢Å¢Å¢Å¢Å¢Å¢Å¢Å¢Å¢Å¢Å¢Å¢Å¢Å¢Å¢Å¢Å¢Å¢Å¢Å¢Å¢Å¢Å¢Å¢Å¢Å¢Å¢Å¢Å¢Å¢Å¢Å¢Å¢Å¢Å¢Å¢Å¢Å¢Å¢Å¢Å¢Å¢Å¢Å¢Å¢Å¢Å¢Å¢Å¢Å¢Å¢Å¢Å¢Å¢Å¢Å¢Å¢Å¢Å¡Å¢Å¢Å¢Å¢Å¢Å¢Å¢Å¢Å¢Å¢Å¢Å¢Å¢Å¢Å¢Å¢Å¢Å¢Å¢Å¢Å¢Å¢Å¢Å¢Å¢Å¢Å¢Å¢Å¢Å¢Å¢Å¢Å¢Å¢Å¢Å¢Å¢Å¢Å¢Å¢Å¢Å¢Å¢Å¢Å¢Å¢Å¢Å¢Å¢Å¢Å¢Å¢Å¢Å¢Å¢Å¢Å¢Å¢Å¢Å¢Å¢Å¢Å¢Å¡": 1111,
      "Å¢Å¢Å¢Å¢Å¢Å¢Å¢Å¢Å¢Å¢Å¢Å¢Å¢Å¢Å¢Å¢Å¢Å¢Å¢Å¢Å¢Å¢Å¢Å¢Å¢Å¡Å¢Å¢Å¢Å¢Å¢Å£": 1112,
      "Å¢Å¢Å¢Å¢Å¢Å¢Å¢Å¢Å¢Å¢Å¢Å¢Å¢Å¢Å¢Å¢Å¢Å¢Å¢Å¦": 1113,
      "Ã³": 1114,
      "Å©Å¦": 1115,
      "Å¢Å¢Å¢Å¢Å¢Å¢Å¢Å¢Å¢Å¢Å¢Å¢Å¢Å¡Å¡": 1116,
      "ÇĶ": 1117,
      "Å¢Å¡Å¢Å¢Å¢Å£": 1118,
      "Å©ÅĿ": 1119,
      "Å¢Å¢Å¢Å¢Å¢Å¢Å¢Å¢Å¢Å¢Å¢Å¢Å¢Å¢Å¢Å¢Å¢Å¢Å¢Å¢Å¢Å¢Å¢Å¢Å¢Å¢Å¢Å¢Å¢Å¢Å¢Åŀ": 1120,
      "Ã´": 1121,
      "ÅļÅª": 1122,
      "Å¢Å¢Å¢Å¢Å¢Å¢Å¢Å¢Å¢Å¢Å¢Å¢Å¢Å¢Å¢Å¢Å¢Å¢Å¢Å¢Å¡Å¡": 1123,
      "Å¢Å¢Å¢Å¢Å¢Å¢Å¢Å¢Å¢Å¢Å¢Å¢Å¢Å¢Å¢Å¢Å¢Å¢Å¢Å¢Å¢Å¢Å¢Å¢Å¢Å£Å¢Å¢Å¢Å¢Å¢Å¡": 1124,
      "Å¢Å¢Å¢Å¢Å¢Å¢Å¢Å¢Å¢Å¢Å¢Å¢Å¢Å¢Å¢Å¢Å¢Å¢Å¢Å¢Å¤": 1125,
      "Å¢Å¢Å¢Å¢Å¢Å¢Å¢Å¢Å¢Å¢Å¢Å¢Å¢Å¢Å¢Å¢Å¢Å¢Å¢Å¢Å£Å¡": 1126,
      "Å¨Å§": 1127,
      "Å¢Å¢Å¢Å¢Å¢Å¢Å¡Å£": 1128,
      "Å¢Å¢Å¢Å¢Å¢Å¢Å¢Å¢Å¢Å¢Å¢Å¢Å¢Å¢Å¢Å¢Å¢Å¢Å¢Å¢Å¢Å¢Å¢Å¢Å¢Å¢Å¢Å¡Å¢Å¢Å¢Å£": 1129,
      "Å¢Å¢Å¡Å¢Å¢Å£": 1130,
      "Å©ÅĽ": 1131,
      "Å¢Å¢Å¢Å¢Å¢Å¢Å¢Å¢Å¢Å¢Å¢Å¢Å¢Å¢Å¢Å¢Å¢Å¢Å¢Å¢Å¢Å¢Å¢Å¢Å¢Å¢Å£Å¢Å¢Å¢Å¢Å£": 1132,
      "ÅļÅŁ": 1133,
      "Å«Åł": 1134,
      "Å¢Å¢Å¢Å¢Å¢Å¢Å¢Å¢Å¢Å¢Å¢Å¢Å¢Å£Å¡": 1135,
      "Å¢ÅŁÅł": 1136,
      "Å¢Å¢Å¢Å¢Å¢Å¢Å¢Å¢Å¢Å¢Å¢Å¢Å¢Å¢Å¢Å¢Å¢Å¢Å¢Å¢Å¢Å¢Å¢Å¢Å¡Å¢Å¢Å¢Å¢Å¢Å¢Å¡": 1137,
      "Å¢Å¢Å¡Å£Å¡": 1138,
      "Å¢Å¢Å¢Å¢Å¢Å¢Å£Å¡": 1139,
      "Å©Åľ": 1140,
      "Å¢Å¢Å¢Å¢Å¢Å¢Å¢Å¢Å¢Å¢Å¢Å¢Å¢Å¢Å¢Å¢Å¢Å¢Å¢Å¢Å¢Å¢Å¢Å¢Å¢Å¢Å¢Å¢Å¢Å¢Å¢Å¤Å¢Å¢Å¢Å¢Å¢Å¢Å¢Å¢Å¢Å¢Å¢Å¢Å¢Å¢Å¢Å¢Å¢Å¢Å¢Å¢Å¢Å¢Å¢Å¢Å¢Å¢Å¢Å¢Å¢Å¢Å¢Åł": 1141,
      "Å¢Å¢Å¢Å¢Å¢Å¢Å¢Å¢Å¢Å¢Å¢Å¢Å¢Å¢Å¢Å¢Å¢Å¢Å¢Å¢Å¢Å£Å£": 1142,
      "Å¢Å¢Å¢Å¢Å¢Å¢Å¢Å¢Å¢Å¢Å¢Å¢Å¢Å¢Å¢Å¢Å¢Å¢Å¢Å¢Å¢Å¢Å¢Å¢Å¢Å¢Å¡Å¢Å£": 1143,
      "Å¢Å¢Å¢Å¢Å¢Å¢Å¢Å¢Å¢Å¢Å¢Å¢Å¢Å¢Å¢Å¢Å¢Å¢Å¢Å¢Å¢Å¢Å¢Å¢Å¢Å¢Å£Å¢Å¢Å¢Å¢Å¡": 1144,
      "Å¢Å¢Åľ": 1145,
      "ÅªÅŁ": 1146,
      "ÅĻÅł": 1147,
      "ÅŀÅľ": 1148,
      "ÅªÅ¥": 1149,
      "Å£ÅŁ": 1150,
      "Å¢Å¦Å¡": 1151,
      "Å¢Å¤Å¥": 1152,
      "Å¢ÅŀÅ¡": 1153,
      "Å¢Å¤Å¢Å¡": 1154,
      "Å¢Å¢Å¢Å§": 1155,
      "Ã¯": 1156,
      "Å¢Å¢Å¢Å¢Å¢Å¢Å¢Å¢Å¢Å¢Å¢Å¢Å¢Å¢Å¢Å¢Å¢Å¢Å¢Å¢Å¢Å¢Å¢Å¢Å¢Å¢Å¢Å¢Å¢Å¢Å¢Å£Å¢Å¢Å¢Å¢Å¢Å¢Å¢Å¢Å¢Å¢Å¢Å¢Å¢Å¢Å¢Å¢Å¢Å¢Å¢Å¢Å¢Å¢Å¢Å¢Å¢Å¢Å¢Å¢Å¢Å¢Å¢Å£Å¢Å¢Å¢Å¢Å¢Å¢Å¢Å¢Å¢Å¢Å¢Å¢Å¢Å¢Å¢Å¢Å¢Å¢Å¢Å¢Å¢Å¢Å¢Å¢Å¢Å¢Å¢Å¢Å¢Å¢Å¢Å£": 1157,
      "Å¢Å¢Å¢Å¢Å¢Å¢Å¢Å¢Å¢Å¢Å¢Å¢Å¢Å¢Å¢Å¢Å¢Å¢Å¢Å¢Å¢Å¢Å¢Å¢Å¡Å¢Å¢Å¢Å¢Å¢Å¢Å£": 1158,
      "Å¢Å¢Å¢Å¢Å¢Å¢Å¢Å¢Å¢Å¢Å¢Å¢Å¢Å¢Å¢Å¢Å¢Å¢Å¢Å¢Åł": 1159,
      "Çķ": 1160,
      "Å¢Å¢Å¢Å¢Å¢Å¢Å¢Å¢Å¢Å¢Å¢Å¢Å¢Å¢Å¢Å¢Å¢Å¢Å¢Å¢Å¢Å¢Å¢Å¢Å¢Å¢Å¢Å¢Å¢Å¢Å¢Å¢Å¢Å¢Å¢Å¢Å¢Å¢Å¢Å¢Å¢Å¢Å¢Å¢Å¢Å¢Å¢Å¢Å¢Å¢Å¢Å¢Å¢Å¢Å¢Å¢Å¢Å¢Å¢Å¢Å¢Å¢Å¢Å¢Å¢Å¢Å¢Å¢Å¢Å¢Å¢Å¢Å¢Å¢Å¢Å¢Å¢Å¢Å¢Å¢Å¢Å¢Å¢Å¢Å¢Å¢Å¢Å¢Å¢Å¢Å¢Å¢Å¢Å¢Å¢Å¢Å¢Å¢Å¢Å¢Å¢Å¢Å¢Å¢Å¢Å¢Å¢Å¢Å¢Å¢Å¢Å¢Å¢Å¢Å¢Å¢Å¢Å¢Å¢Å¢Å¢Å¢Å¢Å¢Å¢Å¢Å¢Å¢Å¢Å¢Å¢Å¢Å¢Å¢Å¢Å¢Å¢Å¢Å¢Å¢Å¢Å¢Å¢Å¢Å¢Å¢Å¢Å¢Å¢Å¢Å¢Å¢Å¢Å¢Å¢Å¢Å¢Å¢Å¢Å¢Å¢Å¢Å¢Å¢Å¢Å¢Å¢Å¢Å¢Å¢Å¢Å¢Å¢Å¢Å¢Å¢Å¢Å¢Å¢Å¢Å¢Å¢Å¢Å¢Å¢Å¢Å¢Å¢Å¢Å¢Å¢Å£": 1161,
      "Å¢Å¢Å¢Å¢Å¢Å¢Å¢Å¢Å¢Å¢Å¢Å¢Å¢Å¢Å¢Å¢Å¢Å¢Å¢Å¢Å¢Å¢Å¢Å¢Å¢Å¢Å¢Å¢Å¢Å¢Å¢Å¢Å¢Å¢Å¢Å¢Å¢Å¢Å¢Å¢Å¢Å¢Å¢Å¢Å¢Å¢Å¢Å¢Å¢Å¢Å¢Å¢Å¢Å¢Å¢Å¢Å¢Å¢Å¢Å¢Å¢Å¢Å¢Å¢Å¢Å¢Å¢Å¢Å¢Å¢Å¢Å¢Å¢Å¢Å¢Å¢Å¢Å¢Å¢Å¢Å¢Å¢Å¢Å¢Å¢Å¢Å¢Å¢Å¢Å¢Å¢Å¢Å¢Å¢Å¢Å¢Å¢Å¢Å¢Å¢Å¢Å¢Å¢Å¢Å¢Å¢Å¢Å¢Å¢Å¢Å¢Å¢Å¢Å¢Å¢Å¢Å¢Å¢Å¢Å¢Å¢Å¢Å¢Å¢Å¢Å¢Å¢Å¢Å¢Å¢Å¢Å¢Å¢Å¢Å¢Å¢Å¢Å¢Å¢Å¢Å¢Å¢Å¢Å¢Å¢Å¢Å¢Å¢Å¢Å¢Å¢Å¢Å¢Å¢Å¢Å¢Å¢Å¢Å¢Å¢Å¢Å¢Å¢Å¢Å¢Å¢Å¢Å¢Å¢Å¢Å¢Å¢Å¢Å¢Å¢Å¢Å¢Å¢Å¢Å¢Å¢Å¢Å¢Å¢Å¢Å¢Å¢Å¢Å¢Å¢Å¢Å¢Å¢Å¢Å¢Å¢Å¢Å¢Å¢Å¢Å¢Å¢Å¢Å¢Å¢Å¢Å¢Å¢Å¢Å¢Å¢Å¢Å¢Å¢Å¢Å¢Å¢Å¢Å¢Å¢Å¢Å¢Å¢Å¢Å¢Å¢Å¢Å¢Å¢Å¢Å¢Å¢Å¢Å¢Å¢Å¢Å¢Å¢Å¢Å¢Å¢Å¢Å¢Å¢Å¢Å¢Å¢Å¢Å¢Å¢Å¢Å¢Å¢Å¢Å¢Å¢Å¢Å¢Å¢Å¢Å¢Å¢Å¢Å¢Å¢Å¢Å¢Å¢Å¢Å¢Å¢Å¢Å¢Å¢Å¢Å¢Å¢Å¢Å¢Å¢Å¢Å¢Å¢Å¢Å¢Å¢Å¢Å¢Å¢Å¢Å¢Å¢Å¢Å¢Å¢Å¢Å¢Å¢Å¢Å¢Å¢Å¢Å¢Å¢Å¢Å¢Å¢Å¢Å¢Å¢Å¢Å¢Å¢Å¢Å¢Å¢Å¢Å¢Å¢Å¢Å¢Å¢Å¢Å¢Å¢Å¢Å¢Å¢Å¢Å¢Å¢Å¢Å¢Å¢Å¢Å¢Å¢Å¢Å¢Å¢Å¢Å¢Å¢Å¢Å¢Å¢Å¢Å¢Å¢Å¢Å¢Å¢": 1162,
      "Å¢ÅłÅ¢Å£": 1163,
      "Å¢Å¢Å¢Å¢Å¢Å¢Å¢Å¢Å¢Å¢Å¢Å¢Å¢Å¢Å¢Å¢Å¢Å¢Å¢Å¢Å¢Å¢Å¢Å¢Å£Å¢Å¢Å¢Å¢Å¢Å¢Å£": 1164,
      "Ã²": 1165,
      "Ã°": 1166,
      "Å¢Å¢Å¢Å¢Å¢Å¢Å¢Å¢Å¢Å¢Å¢Å¢Å¢Å¢Å¢Å¢Å¢Å¢Å¢Å¢Å¢Å¢Å¢Å¢Å¢Å¢Å¢Å¢Å¢Å¢Å¢Å¢Å¢Å¢Å¢Å¢Å¢Å¢Å¢Å¢Å¢Å¢Å¢Å¢Å¢Å¢Å¢Å¢Å¢Å¢Å¢Å¢Å¢Å¢Å¢Å¢Å¢Å¢Å¢Å¢Å¢Å¢Å¢Å¢Å¢Å¢Å¢Å¢Å¢Å¢Å¢Å¢Å¢Å¢Å¢Å¢Å¢Å¢Å¢Å¢Å¢Å¢Å¢Å¢Å¢Å¢Å¢Å¢Å¢Å¢Å¢Å¢Å¢Å¢Å¢Å¢Å¢Å¢Å¢Å¢Å¢Å¢Å¢Å¢Å¢Å¢Å¢Å¢Å¢Å¢Å¢Å¢Å¢Å¢Å¢Å¢Å¢Å¢Å¢Å¢Å¢Å¢Å¢Å¢Å¢Å¢Å¢Å¢Å¢Å¢Å¢Å¢Å¢Å¢Å¢Å¢Å¢Å¢Å¢Å¢Å¢Å¢Å¢Å¢Å¢Å¢Å¢Å¢Å¢Å¢Å¢Å¢Å¢Å¢Å¢Å¢Å¢Å¢Å¢Å¢Å¢Å¢Å¢Å¢Å¢Å¢Å¢Å¢Å¢Å¢Å¢Å¢Å¢Å¢Å¢Å¢Å¢Å¢Å¢Å¢Å¢Å¢Å¢Å¢Å¢Å¢Å¢Å¢Å¢Å¢Å¢Å¢Å¢Å¢Å¢Å¢Å¢Å¢Å¢Å¢Å¢Å¢Å¢Å¢Å¢Å¢Å¢Å¢Å¢Å¢Å¢Å¢Å¢Å¢Å¢Å¢Å¢Å¢Å¢Å¢Å¢Å¢Å¢Å¢Å¢Å¢Å¢Å¢Å¢Å¢Å¢Å¢Å¢Å¢Å¢Å¢Å¢Å¢Å¢Å¢Å¢Å¢Å¢Å¢Å¢Å¢Å¢Å¢Å¢Å¢Å¢Å¢Å¢Å¢Å¢Å¢Å¢Å¢Å¢Å¢Å¢Å¢Å¢Å¢Å¢Å¢Å¢Å¢Å¢Å¢Å¢Å¢Å¢Å¢Å¢Å¢Å¢Å¢Å¢Å¢Å¢Å¢Å¢Å¢Å¢Å¢Å¢Å¢Å¢Å¢Å¢Å¢Å¢Å¢Å¢Å¢Å¢Å¢Å¢Å¢Å¢Å¢Å¢Å¢Å¢Å¢Å¢Å¢Å¢Å¢Å¢Å¢Å¢Å¢Å¢Å¢Å¢Å¢Å¢Å¢": 1167,
      "Å¢ÅłÅŁ": 1168,
      "Å¢Å¢Å¢ÅĿ": 1169,
      "Å¤ÅĿ": 1170,
      "Å¢Å´": 1171,
      "Å§Å¨": 1172,
      "Ã±": 1173,
      "Å¢Å¢Å¢Å¢Å¢Å¢Å¢Å¢Å¢Å¢Å¢Å¢Å¢Å¢Å¢Å¢Å¢Å¢Å¢Å¢Å¢Å¢Å¢Å¢Å¢Å¢Å¢Å¢Å¢Å¢Å£Åł": 1174,
      "Å¢Å¢Å¢Å¢Å¢Å¢Å¢Å¢Å¢Å¢Å¢Å¢Å¢Å¢Å¢Å¢Å¢Å¢Å¢Å¢Å¢Å¢Å¢Å¢Å¢Å¡Å¢Å£": 1175,
      "Å¢Å¢Å£Å£Å¡": 1176,
      "Å¢Å¢Å¢Å¢Å¢Å¢Å¢Å¢Å¢Å¢Å¢Å¢Å¢Å¢Å¢Å¢Å¢Å¢ÅŁ": 1177,
      "Å¢Å¢Å¢Å¢Å¢Å¢Å¢Å¢Å¢Å¢Å¢Å¢Å¢Å¢Å¢Å¢Å¢Å¢Å¢Å¢Å¢Å¢Å¢Å¢Å¢ÅĽ": 1178,
      "Å£Å¥": 1179,
      "Å¢Å¢Å£Å¡Å¡": 1180,
      "Å¢Å¢Å¢Å¢Å¢Å¢Å¢Å¢Å¢Å¢Å¢Å¢Å¢Å¢Å¢Å¢Å¢Å¢Å¢Å¢Å¢Å¡Å¡": 1181,
      "Å¢Å¢Å¢Å¢Å¢Å¢Å¢Å¢Å¢Å¢Å¢Å¢Å¢Å¢Å¢Å¢Å¢Å¢Å¢Å¢Å¢Å¢Å¢Å¢Å¢Å©": 1182,
      "Çĸ": 1183,
      "Å¢ÅĲ": 1184,
      "Å£Å£Å¢Å¡": 1185,
      "ÅĺÅ¤": 1186,
      "Å¢Å¢Å¢Å¢Å¢Å¢Å¢Å¢Å¢Å¢Å¢Å¢Å¢Å¢Å¢Å¢Å¢Å¢Å¢Å¢Å¢Å¢Å¢Å¢Å¢Å¢Å¢Å¢Å¢Å¢Å¢Å¢Å¢Å¢Å¢Å¢Å¢Å¢Å¢Å¢Å¢Å¢Å¢Å¢Å¢Å¢Å¢Å¢Å¢Å¢Å¢Å¢Å¢Å¢Å¢Å¢Å¢Å¢Å¢Å¢Å¢Å¢Å¢Å¡Å¢Å¢Å¢Å¢Å¢Å¢Å¢Å¢Å¢Å¢Å¢Å¢Å¢Å¢Å¢Å¢Å¢Å¢Å¢Å¢Å¢Å¢Å¢Å¢Å¢Å¢Å¢Å¢Å¢Å¢Å¢Å¢Å¢Å¢Å¢Å¢Å¢Å¢Å¢Å¢Å¢Å¢Å¢Å¢Å¢Å¢Å¢Å¢Å¢Å¢Å¢Å¢Å¢Å¢Å¢Å¢Å¢Å¢Å¢Å¢Å¢Å¢Å¢Å£": 1187,
      "Å¢Å¢Å¢Å¢Å¢Å¢Å¢Å¢Å¢Å¢Å¢Å¢Å¢Å¢Å¢Å¢Å¢Å¢Å¢Å¢Å¢Å¢Å¢Å¢Å¢Å¢Å£Å¢Å¡": 1188,
      "ÅļÅ¨": 1189,
      "Å¢Å¢Å¢Å¢Å¢Å¢Å¢Å¢Å¢Å¢Å¢Å¢Å¢Å¢Å¢Å¢Å¢Å¢Å¥": 1190,
      "Å¢Å¢Å¢Å¢Å¢Å¢Å¢Å¢Å¢Å¢Å¢Å¢Å¢Å¢Å¢Å¢Å¢Å¢Å¢Å¢Å¢Å¢Å¢Å¢Å£Å¢Å¢Å¢Å¢Å¢Å¢Å¡": 1191,
      "Å©Å§": 1192,
      "Å¢Å¢Å¢Å¢ÅŁ": 1193,
      "Å¢Å¢Å¢Å¢Å¥": 1194,
      "Å¢Å¢Å¢Å¢Å¢Å¢Å¢Å¢Å¢Å¢Å¢Å¢Å¢Å¢Å¢Å¢Å¢Å¢Å¢Å¢Å¢Å¢Å¢Å¢Å¢Å¢Å¢Å¢Å¢Å¢Å¢Å¢Å¢Å¢Å¢Å¢Å¢Å¢Å¢Å¢Å¢Å¢Å¢Å¢Å¢Å¢Å¢Å¢Å¢Å¢Å¢Å¢Å¢Å¢Å¢Å¢Å¢Å¢Å¢Å¢Å¢Å¢Å¢Å¢Å£": 1195,
      "ÅĽÅª": 1196,
      "ÅĹÅ¡": 1197,
      "ÇĹ": 1198,
      "ÅĽÅĿ": 1199,
      "Å¢Å¢Å¢Å¢Å¢Å¢Å¢Å¢Å¢Å¢Å¢Å¢Å¢Å¢Å¢Å¢Å¢Å¢Å¢Å¢Å¡Å£": 1200,
      "Å¢Å¢Å¢Å¢Å¢Å¢Å¢Å¢Å¢Å¢Å¢Å¢Å¢Å¢Å¢Å¢Å¢Å¢Å¢Å¢Å¢Å¢Å¢Å¢Å¢Å£Å¢Å¡": 1201,
      "Å¢Å¢Å¢Å¢Å¢Å¢Å¢Å¢Å¢Å¢Å¢Å¢Å¢Å¢Å¢Å¢Å¢Å¢Å¢Å¢Å¢Å¢Å¢Å¢Å¢Å¢Å¢Å¢Å¢Å¢Å¢Å¢Å¢Å¢Å¢Å¢Å¢Å¢Å¢Å¢Å¢Å¢Å¢Å¢Å¢Å¢Å¢Å¢Å¢Å¢Å¢Å¢Å¢Å¢Å¢Å¢Å¢Å¢Å¢Å¢Å¢Å¢Å¢Å¢Å¡": 1202,
      "Å¡Å¡Å¥": 1203,
      "Å¢Å¢Å¢Å¢Å¢Å¢Å¢Å¢Å¢Å¢Å¢Å¢Å¢Å¢Å¢Å¢Å¢Å¢Å¢Å¢Å¢Å¢Å¢Å¢Å¢Å¢Å¢Å¢Å¢Å¢Å¡Å¤": 1204,
      "Å¢Å¢Å¢Å¢Å¢Å¢Å¢Å¢Å¢Å¢Å¢Å¢Å¢Å¢Å¢Å¢Å¢Å¢Å¢Å¢Å¢Å¢Å¢Å¢Å¢Å¢Å¢Å¢Å¢Å¢Å¢Å¢Å¢Å¢Å¢Å¢Å¢Å¢Å¢Å¢Å¢Å¢Å¢Å¢Å¢Å¢Å¢Å¢Å¢Å¢Å¢Å¢Å¢Å¢Å¢Å¢Å¢Å¢Å¢Å¢Å¢Å¢Å¢Åł": 1205,
      "Å¢Å¤Å¢Å£": 1206,
      "Å¢Å¢Å¢Å¢Å¢Å¢Å¢Å¢Å¢Å¢Å¤": 1207,
      "Å¢ÅłÅ¢Å¡": 1208,
      "Å¤Å§": 1209,
      "Ã®": 1210,
      "ÅłÅ¤Åł": 1211,
      "ÅŃÅ¡": 1212,
      "Å¢Å¢Å¢Å¢Å£Å¢Å£": 1213,
      "Å¢Å¢Å¢Å¢Å¢Å¢Å¢Å¢Å¢Å¢Å¢Å¢Å¢Å¢Å¢Å¢Å¢Å¢Å¢Å£Å¡": 1214,
      "ÅŀÅ©": 1215,
      "Å¢Å¢Å¢Å¢Å¢Å¢Å¢Å¢Å¢Å¢Å¢Å¢Å£Å¡": 1216,
      "Å¢Å¢Å¢Å¢Å¢Å¢Å¢Å¢Å¢Å¢Å¢Å¢Å¢Å¢Å¢Å¢Å¢Å¢Å£Å£": 1217,
      "ÅŁÅľ": 1218,
      "Å¢Å¢Å¢Å¢Å¢Å¢Å¢Å¢Å¢Å¢Å¢Å¢Å¢Å¢Å¢Å¢Å¢Å¢Å¢Å¢Å¢Å¢Å¢Å¢Å¢Å¢Å¢Å¢Å¢Å¢Å¢Å¢Å¢Å¢Å¢Å¢Å¢Å¢Å¢Å¢Å¢Å¢Å¢Å¢Å¢Å¢Å¢Å¢Å¢Å¢Å¢Å¢Å¢Å¢Å¢Å¢Å¢Å¢Å¢Å¢Å¢Å¢Å¢Å¢Å¢Å¢Å¢Å¢Å¢Å¢Å¢Å¢Å¢Å¢Å¢Å¢Å¢Å¢Å¢Å¢Å¢Å¢Å¢Å¢Å¢Å¢Å¢Å¢Å¢Å¢Å¢Å¢Å¢Å¢Å¢Å¢Å¢Å¢Å¢Å¢Å¢Å¢Å¢Å¢Å¢Å¢Å¢Å¢Å¢Å¢Å¢Å¢Å¢Å¢Å¢Å¢Å¢Å¢Å¢Å¢Å¢Å¢Å¢Å¢Å¢Å¢Å¢Å¢Å¢Å¢Å¢Å¢Å¢Å¢Å¢Å¢Å¢Å¢Å¢Å¢Å¢Å¢Å¢Å¢Å¢Å¢Å¢Å¢Å¢Å¢Å¢Å¢Å¢Å¢Å¢Å¢Å¢Å¢Å¢Å¢Å¢Å¢Å¢Å¢Å¢Å¢Å¢Å¢Å¢Å¢Å¢Å¢Å¢Å¢Å¢Å¢Å¢Å¢Å¢Å¢Å¢Å¢Å¢Å¢Å¢Å¢Å¢Å¢Å¢Å¢Å¢Å¢Å¢Å¢Å¢Å¢Å¢Å¢Å¢Å¢Å¢Å¢Å¢Å¢Å¢Å¢Å¢Å¢Å¢Å¢Å¢Å¢Å¢Å¢Å¢Å¢Å¢Å¢Å¢Å¢Å¢Å¢Å¢Å¢Å¢Å¢Å¢Å¢Å¢Å¢Å¢Å¢Å¢Å¢Å¢Å¢Å¢Å¢Å¢Å¢Å¢Å¢Å¢Å¢Å¢Å¢Å¢Å¢Å¢Å¢Å¢Å¢Å¢Å¢Å¢Å¢Å¢Å¢Å¢Å¢Å¢Å¢Å¢Å¢Å¢Å¢Å¢Å¢Å¢Å¢Å¢Å¢Å¢Å¢Å¢Å¢Å¢Å¢Å¢Å¢Å¢Å¢Å¢Å¢Å¢Å¢Å¢Å¢Å¢Å¢Å¢Å¢Å¢Å¢Å¢Å¢Å¢Å¢Å¢Å¢Å¢Å¢Å¢Å¢Å¢Å¢Å¢Å¢Å¢Å¢Å¢Å¢Å¢Å¢Å¢Å¢Å¢Å¢Å¢Å¢Å¢Å¢Å¢Å¢Å¢Å¢Å¢Å¢Å¢Å¢Å¢Å¢Å¢Å¢Å¢Å¢Å¢Å¢Å¢Å¢Å¢Å¢Å¢Å¢Å¢Å¢Å¢Å¢Å¢Å¢Å¢Å¢Å¢Å¢Å¢Å¢Å¢Å¢Å¢Å¢Å¢Å¢Å¢Å¢Å¢Å¢Å¢Å¢Å¢Å¢Å¢Å¢Å¢Å¢Å¢Å¢Å¢Å¢Å¢Å¢Å¢Å¢Å¢Å¢Å¢Å¢Å¢Å¢Å¢Å¢Å¢Å¢Å¢Å¢Å¢Å¢Å¢Å¢Å¢Å¢Å¢Å¢Å¢Å¢Å¢Å¢Å¢Å¢Å¢Å¢Å¢Å¢Å¢Å¢Å¢Å¢Å¢Å¢Å¢Å¢Å¢Å¢Å¢Å¢Å¢Å¢Å¢Å¢Å¢Å¢Å¢Å¢Å¢Å¢Å¢Å¢Å¢Å¢Å¢Å¢Å¢Å¢Å¢Å¢Å¢Å¢Å¢Å¢Å¢Å¢Å¢Å¢Å¢Å¢Å¢Å¢Å¢Å¢Å¢Å¢Å¢Å¢Å¢Å¢Å¢Å¢Å¢Å¢Å¢Å¢Å¢Å¢Å¢Å¢Å¢Å¢Å¢Å¢Å¢Å¢Å¢Å¢Å¢Å¢Å¢Å¢Å¢Å¢Å¢Å¢Å¢Å¢Å¢Å¢Å¢Å¢Å¢Å¢Å¢Å¢Å¢Å¢Å¢Å¢Å¢Å¢Å¢Å¢Å¢Å¢Å¢Å¢Å¢Å¢Å¢Å¢Å¢Å¢Å¢Å¢Å¢Å¢Å¢Å¢Å¢Å¢Å¢Å¢Å¢Å¢Å¢Å¢Å¢Å¢Å¢Å¢Å¢Å¢Å¢Å¢Å¢Å¢Å¢Å¢Å¢Å¢Å¢Å¢Å¢Å¢Å¢Å¢Å¢Å¢Å¢Å¢Å¢Å¢Å¢Å¢Å¢Å¢Å¢Å¢Å¢Å¢Å¢Å¢Å¢Å¢Å¢Å¢Å¢Å¢Å¢Å¢Å¢Å¢Å¢Å¢Å¢Å¢Å¢Å¢Å¢Å¢Å¢Å¢Å¢Å¢Å¢Å¢Å¢Å¢Å¢Å¢Å¢Å¢Å¢Å¢Å¢Å¢Å¢Å¢Å¢Å¢Å¢Å¢": 1219,
      "Å¡Å£Å¢Å¢Å¡": 1220,
      "ÅłÅĿ": 1221,
      "ÃŃ": 1222,
      "Å¢Å¢Å¢Å¢Å¢Å¢Å¢Å¢Å¢Å¢Åł": 1223,
      "Çĺ": 1224,
      "Å¢Å¢Å¢Å¢Å¢Å¢Å¢Å¢Å¢Å¢Å¢Å¢Å¢Å¢Å¢Å¢Å¢Å¢Å¢Å¢Å¢Å¢Å¢Å¢Å¢Å¢Å¢Å¢Å¤": 1225,
      "Å¬Å¤": 1226,
      "ÅłÅ£Å£": 1227,
      "Å¢Å¢Å¢Å¢Å¢Å¢Å¢Å¢Å¢Å¢Å¢Å¢Å¢Å¢Å¢Å¢Å¢Å¢Å¢Å¢Å¢Å¢Å¢Å¢Å¢Å¢Å¢Å¢Å¢Å¢Å¢Å¢Å¢Å¢Å¢Å¢Å¢Å¢Å¢Å¢Å¢Å¢Å¢Å¢Å¢Å¢Å¢Å¢Å¢Å¢Å¢Å¢Å¢Å¢Å¢Å¢Å¢Å¢Å¢Å¢Å¢Å¢Å¢Å¢Å¢Å¢Å¢Å¢Å¢Å¢Å¢Å¢Å¢Å¢Å¢Å¢Å¢Å¢Å¢Å¢Å¢Å¢Å¢Å¢Å¢Å¢Å¢Å¢Å¢Å¢Å¢Å¢Å¢Å¢Å¢Å¢Å¢Å¢Å¢Å¢Å¢Å¢Å¢Å¢Å¢Å¢Å¢Å¢Å¢Å¢Å¢Å¢Å¢Å¢Å¢Å¢Å¢Å¢Å¢Å¢Å¢Å¢Å¢Å¢Å¢Å¢Å¢Å¢Å¢Å¢Å¢Å¢Å¢Å¢Å¢Å¢Å¢Å¢Å¢Å¢Å¢Å¢Å¢Å¢Å¢Å¢Å¢Å¢Å¢Å¢Å¢Å¢Å¢Å¢Å¢Å¢Å¢Å¢Å¢Å¢Å¢Å¢Å¢Å¢Å¢Å¢Å¢Å¢Å¢Å¢Å¢Å¢Å¢Å¢Å¢Å¢Å¢Å¢Å¢Å¢Å¢Å¢Å¢Å¢Å¢Å¢Å¢Å¢Å¢Å¢Å¢Å¡": 1228,
      "Å¢Å¢Å¢Å¢Å¢Å¢Å¢Å¢Å¢Å¢Å¢Å¢Å¢Å¢Å¢Å¢Å¢Å¢Å¢Å¢Å¢Å¢Å¢Å¢Å¢Å£Å¢Å¢Å¡": 1229,
      "Å¢Å¢Å¢Å¢Å¢Å¢Å¢Å¢Å¢Å¢Å¢Å¢Å¢ÅŁ": 1230,
      "ÇĻ": 1231,
      "Å®Å£": 1232,
      "ÅĻÅ¥": 1233,
      "Å¢Åµ": 1234,
      "ÅŁÅ¢Å£": 1235,
      "ÅĿÅľ": 1236,
      "Å¨Å¨": 1237,
      "ÅłÅ¤Å¤": 1238,
      "ÅªÅŀ": 1239,
      "Çļ": 1240,
      "Å¬Åł": 1241,
      "Å¦Å©": 1242,
      "Å¢Å¢Å¢Å¢Å¢Å¢Å¢Å¢Å¢Å¢Å¢Å¢Å¢Å¢Å¢Å¢Å¢Å¢Å¢Å¢Å¢Å¢Å¢Å¢Å¢Å¢Å£Å¢Å¢Å¡": 1243,
      "Å¢Å¢Å¢Å¢Å¢Å¢Å¢Å¢Å¢Å¢Å¢Åł": 1244,
      "Å¢Å¢Å¢Å¢Å£Å¢Å¡": 1245,
      "ÅŁÅ¢Å¡": 1246,
      "ÅļÅŀ": 1247,
      "ÇĽ": 1248,
      "ÅĸÅ£": 1249,
      "Å¢Å¢Å¢Å¢Å¢Å¢Å¢Å¢Å¢Å¢Å¢Å¢Å¢Å¢Å¢Å¢Å¢Å¢Å¢Å¢Å¢Å¢Å¢Å¢Å¢Å¢Å¢Å¢Å¢Å£Å¢Åł": 1250,
      "Å¦ÅĽ": 1251,
      "Ã¬": 1252,
      "Å£Å£Å¢Å£": 1253,
      "ÅļÅ©": 1254,
      "Å«Å¥": 1255,
      "Å¢Å¢Å¢Å¢Å¢Å¢Å¢Å¢Å¢Å¢Å¢Å¢Å¢Å¢Å¢Å¢Å¢Å¢Å¢Å¢Å¢Å¢Å¢Å¢Å¢Å¢Å¢Å¢Å¢Å¢Å¡Åł": 1256,
      "Å¢Å¢Å¢Å¢Å¢Å¢Å¢Å¢Å¢Å¢Å¢Å¢Å¢Å¢Å¢Å¢Å¢Å¢Å¢Å¢Å¢Å¢Å¢Å¢Å¢Å¢Å¢Å¢Å¢Å£Å¢Å¤": 1257,
      "Å¢Å¢Å¢Å¢Å¢Å¢Å¢Å¢Å¢Å¢Å¢Å¢Å¢Å¢Å¢Å¢Å¢Å¢Å¢Å¢Å¢Å¢Å¢Å¢Å¢Å¢Å¢Å¢Å¢Å¡Å¢Å¤": 1258,
      "ÇŁ": 1259,
      "Å¢Å¢Å¢Å¢Å¢Å¢Å¢Å¢Å¢Å¢Å¢Å¤": 1260,
      "Å¢Å¢Å¢Å¢Å¡Å¢Å¡": 1261,
      "Å¢Å¢Å¢Å¢Å¢Å¢Å¢Å¢Å¢Å¢Å¢Å¢Å¢Å¥": 1262,
      "Å¥Å¢Å£": 1263,
      "Çľ": 1264,
      "Å¢Åı": 1265,
      "Å¢Å¢Å¢Å¢Å¢Å¢Å¢Å¢Å¢Å¢Å¢Å¢Å¢Å¢Å¢Å¢Å¢Å¢Å¢Å¢Å¢Å¢Å¢Å¢Å¢Å¢Å¢Å¢Å¢Å¢Å¢Å¢Å¢Å¢Å¢Å¢Å¢Å¢Å¢Å¢Å¢Å¢Å¢Å¢Å¢Å¢Å¢Å¢Å¢Å¢Å¢Å¢Å¢Å¢Å¢Å¢Å¢Å¢Å¢Å¢Å¢Å¢Å¢Å¢Å¢Å¢Å¢Å¢Å¢Å¢Å¢Å¢Å¢Å¢Å¢Å¢Å¢Å¢Å¢Å¢Å¢Å¢Å¢Å¢Å¢Å¢Å¢Å¢Å¢Å¢Å¢Å¢Å¢Å¢Å¢Å¢Å¢Å¢Å¢Å¢Å¢Å¢Å¢Å¢Å¢Å¢Å¢Å¢Å¢Å¢Å¢Å¢Å¢Å¢Å¢Å¢Å¢Å¢Å¢Å¢Å¢Å¢Å¢Å¢Å¢Å¢Å¢Å¢Å¢Å¢Å¢Å¢Å¢Å¢Å¢Å¢Å¢Å¢Å¢Å¢Å¢Å¢Å¢Å¢Å¢Å¢Å¢Å¢Å¢Å¢Å¢Å¢Å¢Å¢Å¢Å¢Å¢Å¢Å¢Å£": 1266,
      "Å¢Å¢Å¢Å¢Å¢Å¢Å¢Å¢Å¢Å¢Å¢Å¢Å¢Å¢Å¢Å¢Å¢Å¢Å¢Å¢Å¢Å¢Å¢Å¢Å¢Å¢Å¢Å¢Å¢Å¢Å£Å¤": 1267,
      "Å¢Å¢Å¢Å¢Å¢Å¢Å¢Å¢Å¢Å¢Å¢Å¢Å¢Å¢Å¢Å¢Å¢Å¢Å¢Å¢Å¢Å¢Å¢Åŀ": 1268,
      "Å¢Å¢Å¢Å¢Å¡Å¢Å£": 1269,
      "Å¢Å¢Å¢Å¢Å¢Å¢Å¢Å¢Å¢Å¢Å¢Å¢Å¢Å¢Å¢Å¢Å¢Å¢Å¢Å¢Å¢Å¢Å¢Å¢Å¢Å¢Åŀ": 1270,
      "Å¢Å¢Å¢Å¢Å¢Å¢Å¢Å¢Å¢Å¢Å¢Å¢Å¢Å¢Å¤": 1271,
      "Å¢Å¢Å¢Å¢Å¢Å¢Å¢Å¢Å¢Å¢Å¢Å¢Å¢Å¢Å¢Å¢Å¢Å¢Å¢Å¢Å¢Å¢Å¢Å¢Å¢Å¢Å¢Å¢Å¢Å¢Å¢Å¢Å¢Å¢Å¢Å¢Å¢Å¢Å¢Å¢Å¢Å¢Å¢Å¢Å¢Å¢Å¢Å¢Å¢Å¢Å¢Å¢Å¢Å¢Å¢Å¢Å¢Å¢Å¢Å¢Å¢Å¢Å¢Å£Å¢Å¢Å¢Å¢Å¢Å¢Å¢Å¢Å¢Å¢Å¢Å¢Å¢Å¢Å¢Å¢Å¢Å¢Å¢Å¢Å¢Å¢Å¢Å¢Å¢Å¢Å¢Å¢Å¢Å¢Å¢Å£": 1272,
      "Å¥Å¢Å¡": 1273,
      "Å¢Å¢Å¢Å¢Å¢Å¢Å¢Å¢Å¢Å¢Å¢Å¢Å¢Å¢Å¢Å¢Å¢Å¢Å¢Å¢Å¢Å¢Å¡Å¢Å¡": 1274,
      "Å¢Å¢Å¢Å¢Å¢Å¢Å¢Å¢Å¢Å¢Å¢Å¢Å¢Å¢Å¢Å¢Å¢Å¢Å¢Å¢Å¢Å¢Å¢Å¢Å¢Å¢Å¢Å¢Åł": 1275,
      "Å¢Å¢Å¢Å¢Å¢Å¢Å¢Å¢Å¢Å¢Å¢Å¢Å¢Å¢Å¢Å¢Å¢Å¢Å¢Å¢Å¢Å¢Å¢Å¢Å¢Å¢Å¢Å¢Å¢Å¢Å¢Å¢Å¢Å¢Å¢Å¢Å¢Å¢Å¢Å¢Å¢Å¢Å¢Å¢Å¢Å¢Å¢Å¢Å¢Å¢Å¢Å¢Å¢Å¢Å¢Å¢Å¢Å¢Å¢Å¢Å¢Å¢Å¢Å¢Å¢Å¢Å¢Å¢Å¢Å¢Å¢Å¢Å¢Å¢Å¢Å¢Å¢Å¢Å¢Å¢Å¢Å¢Å¢Å¢Å¢Å¢Å¢Å¢Å¢Å¢Å¢Å¢Å¢Å¢Å¢Å¢Å¢Å¢Å¢Å¢Å¢Å¢Å¢Å¢Å¢Å¢Å¢Å¢Å¢Å¢Å¢Å¢Å¢Å¢Å¢Å¢Å¢Å¢Å¢Å¢Å¢Å¢Å¢Å¢Å¢Å¢Å¢Å¢Å¢Å¢Å¢Å¢Å¢Å¢Å¢Å¢Å¢Å¢Å¢Å¢Å¢Å¢Å¢Å¢Å¢Å¢Å¢Å¢Å¢Å¢Å¢Å¢Å¢Å¢Å¢Å¢Å¢Å¢Å¢Å¢Å¢Å¢Å¢Å¢Å¢Å¢Å¢Å¢Å¢Å¢Å¢Å¢Å¢Å¢Å¢Å¢Å¢Å¢Å¢Å¢Å¢Å¢Å¢Å¢Å¢Å¢Å¢Å¢Å¢Å¢Å¢Å¢Å¢Å¢Å¢Å¢Å¢Å¢Å¢Å¢Å¢Å¢Å¢Å¢Å¢Å¢Å¢Å¢Å¢Å¢Å¢Å¢Å¢Å¢Å¢Å¢Å¢Å¢Å¢Å¢Å¢Å¢Å¢Å¢Å¢Å¢Å¢Å¢Å¢Å¢Å¢Å¢Å¢Å¢Å¢Å¢Å¢Å¢Å¢Å¢Å¢Å¢Å¢Å¢Å¢Å¢Å¢Å¢Å¢Å¢Å¢Å¢Å¢Å¢Å¢Å¢Å¢Å¢Å¢Å¢Å¢Å¢Å¢Å¢Å¢Å¢Å¢Å¢Å¢Å¢Å¢Å¢Å¢Å¢Å¢Å¢Å¢Å¢Å¢Å¢Å¢Å¢Å¢Å¢Å¢Å¢Å¢Å¢Å¢Å¢Å¢Å¢Å¢Å¢Å¢Å¢Å¢Å¢Å¢Å¢Å¢Å¢Å¢Å¢Å¢Å¢Å¢Å¢Å¢Å¢Å¢Å¢Å¢Å¢Å¢Å¢Å¢Å¢Å¢Å¢Å¢Å¢Å¢Å¢Å¢Å¢Å¢Å¢Å¢Å¢Å¢Å¢Å¢Å¢Å¢Å¢Å¢Å¢Å¢Å¢Å¢Å¢Å¢Å¢Å¢Å¢Å¢Å¢Å¢Å¢Å¢Å¢Å¢Å¢Å¢Å¢Å¢Å¢Å¢Å¢Å¢Å¢Å¢Å¢Å¢Å¢Å¢Å¢Å¢Å¢Å¢Å¢Å¢Å¢Å¢Å¢Å¢Å¢Å¢Å¢Å¢Å¢Å¢Å¢Å¢Å¢Å¢Å¢Å¢Å¢Å¢Å¢Å¢Å¢Å¢Å¢Å¢Å¢Å¢Å¢Å¢Å¢Å¢Å¢Å¢Å¢Å¢Å¢Å¢Å¢Å¢Å¢Å¢Å¢Å¢Å¢Å¢Å¢Å¢Å¢Å¢Å¢Å¢Å¢Å¢Å¢Å¢Å¢Å¢Å¢Å¢Å¢Å¢Å¢Å¢Å¢Å¢Å¢Å¢Å¢Å¢Å¢Å¢Å¢Å¢Å¢Å¢Å¢Å¢Å¢Å¢Å¢Å¢Å¢Å¢Å¢Å¢Å¢Å¢Å¢Å¢Å¢Å¢Å¢Å¢Å¢Å¢Å¢Å¢Å¢Å¢Å¢Å¢Å¢Å¢Å¢Å¢Å¢Å¢Å¢": 1276,
      "ÅľÅľ": 1277,
      "Å¢Å¢Å¢Å¢Å¢Å¢Å¢Å¢Å¢Å¢Å¢Å¢Å¢Å¢Å¢Å¢Å¢Å¢Å¢Å¢Å¢Å¢Å¢Å¢Å¢Å¢Å¡Å¢Å¡": 1278,
      "Å¢Å¢Å¢Å¢Å¢Å¢Å¢Å¢Å¢Å¢Å¢Å¢Å¢Å¢Å¢Å¢Å¢Å¢Å¢Å¢Å¢Å¢Å¢Å¢Å¢Å¢Å¢Å¢Å¢Å¡Å¢Åł": 1279,
      "Å¢Å¢Å¢Å¢Å¢Å¢Å¢Å¢Å¢Å¢Å¢Å¢Å¢Å¢Å¢Å¢Å¢Å¢Å¢Å¢Å¢Å¢Å¢Å¦": 1280,
      "ÅĿÅ©": 1281,
      "Ã¨": 1282,
      "Å¢Å¢Å£Å£Å£": 1283,
      "Å¢Å¢Å¢Å¢Å¢Å¢Å¢Å¢Å¢Å¢Å¢Å¢Å¢Å¢Åł": 1284,
      "Å¢Å¢Å¢Å¢Å¢Å¢Å¢Å¢Å¢Å¢Å¢Å¢Å¢Å¢Å¢Å¢Å¢Å¢Å¢Å¢Å¢Å¢Å£Å¢Å¡": 1285,
      "ÅªÅ¦": 1286,
      "ÇĿ": 1287,
      "Å¢Å¢Å¢Å¢Å¢Å¢Å¢Å¢Å¢Å¢Å¢Å¢Å¢Å¢Å¢Å¢Å¢Å¢Å¢Å¢Å¢Å¢Å¢Å¢Å¢Å¢Å£Å¢Å£": 1288,
      "Çŀ": 1289,
      "Å¢Å¢Å¢Å¢Å¢Å¢Å¢Å¢Å¢Å¢Å¢Å¢Å¢Å¢Å¢Å¢Å¢Å¢Å¢Å¢Å¢Å¢Å¢Å¢Å¢Å¢Å¢Å¢Å¢Å¢Å¢Å¢Å¢Å¢Å¢Å¡": 1290,
      "Å¡Å¡Å¡Å£": 1291,
      "Å«ÅŁ": 1292,
      "Å¢Åİ": 1293,
      "Å§ÅĽ": 1294,
      "Å¢Å¢Å¢Å¢Å¢Å¢Å¢Å¢Å¢Å¢Å¢Å¢Å¢Å¢Å¢Å¢Å¢Å¢Å¢Å¢Å¢Å¢Å¢Å¢Å¢Å¢Å¢Å¢Å¢Å¢Å¢Å¢Å¢Å¢Å¢Å¢Å¢Å¢Å¢Å¢Å¢Å¢Å¢Å¢Å¢Å¢Å¢Å¢Å¢Å¢Å¢Å¢Å¢Å¢Å¢Å¢Å¢Å¢Å¢Å¢Å¢Å¢Å¢Å¢Å¢Å¢Å¢Å¢Å¢Å¢Å¢Å¢Å¢Å¢Å¢Å¢Å¢Å¢Å¢Å¢Å¢Å¢Å¢Å¢Å¢Å¢Å¢Å¢Å¢Å¢Å¢Å¢Å¢Å¢Å¢Å¢Å¢Å¢Å¢Å¢Å¢Å¢Å¢Å¢Å¢Å¢Å¢Å¢Å¢Å¢Å¢Å¢Å¢Å¢Å¢Å¢Å¢Å¢Å¢Å¢Å¢Å¢Å¢Å¢Å¢Å¢Å¢Å¢Å¢Å¢Å¢Å¢Å¢Å¢Å¢Å¢Å¢Å¢Å¢Å¢Å¢Å¢Å¢Å¢Å¢Å¢Å¢Å¢Å¢Å¢Å¢Å¢Å¢Å¢Å¢Å¢Å¢Å¢Å¢Å¢Å¢Å¢Å¢Å¢Å¢Å¢Å¢Å¢Å¢Å¢Å¢Å¢Å¢Å¢Å¢Å¢Å¢Å¢Å¢Å¢Å¢Å¢Å¢Å¢Å¢Å¢Å¢Å¢Å¢Å¢Å¢Å¢Å¢Å¢Å¢Å¢Å¢Å¢Å¢Å¢Å¢Å¢Å¢Å¢Å¢Å¢Å¢Å¢Å¢Å¢Å¢Å¢Å¢Å¢Å¢Å¢Å¢Å¢Å¢Å¢Å¢Å¢Å¢Å¢Å¢Å¢Å¢Å¢Å¢Å¢Å¢Å¢Å¢Å¢Å¢Å¢Å¢Å¢Å¢Å¢Å¢Å¢Å¢Å¢Å¢Å¢Å¢Å¢Å¢Å¢Å¢Å¢Å¢Å¢Å¢Å¢Å¢Å¢Å¢Å¢Å¢Å¢Å¢Å¢Å¢Å¢Å¢Å¢Å¢Å¢Å¢Å¢Å¢Å¢Å¢Å¢Å¢Å¢Å¢Å¢Å¢Å¢Å¢Å¢Å¢Å¢Å¢Å¢Å¢Å¢Å¢Å¢Å¢Å¢Å¢Å¢Å¢Å¢Å¢Å¢Å¢Å¢Å¢Å¢Å¢Å¢Å¢Å¢Å¢Å¢Å¢Å¢Å¢Å¢Å¢Å¢Å¢Å¢Å¢Å¢Å¢Å¢Å¢Å¢Å¢Å¢Å¢Å¢Å¢Å¢Å¢Å¢Å¢Å¢Å¢Å¢Å¢Å¢Å¢Å¢Å¢Å¢Å¢Å¢Å¢Å¢Å¢Å¢Å¢Å¢Å¢Å¢Å¢Å¢Å¢Å¢Å¢Å¢Å¢Å¢Å¢Å¢Å¢Å¢Å¢Å¢Å¢Å¢Å¢Å¢Å¢Å¢Å¢Å¢Å¢Å¢Å¢Å¢Å¢Å¢Å¢Å¢Å¢Å¢Å¢Å¢Å¢Å¢Å¢Å¢Å¢Å¢Å¢Å¢Å¢Å¢Å¢Å¢Å¢Å¢Å¢Å¢Å¢Å¢Å¢Å¢Å¢Å¢Å¢Å¢Å¢Å¢Å¢Å¢Å¢Å¢Å¢Å¢Å¢Å¢Å¢Å¢Å¢Å¢Å¢Å¢Å¢Å¢Å¢Å¢Å¢Å¢Å¢Å¢Å¢Å¢Å¢Å¢Å¢Å¢Å¢Å¢Å¢Å¢Å¢Å¢Å¢Å¢Å¢Å¢Å¢Å¢Å¢Å¢Å¢Å¢Å¢Å¢Å¢Å¢Å¢Å¢Å¢Å¢Å¢Å¢Å¢Å¢Å¢Å¢Å¢Å¢Å¢Å¢Å¢Å¢Å¢Å¢Å¢Å¢Å¢Å¢Å¢Å¢Å¢Å¢Å¢Å¢Å¢Å¢Å¢Å¢Å¢Å¢Å¢Å¢Å¢Å¢Å¢Å¢Å¢Å¢Å¢Å¢Å¢Å¢Å¢Å¢Å¢Å¢Å¢Å¢Å¢Å¢Å¢Å¢Å¢Å¢Å¢Å¢Å¢Å¢Å¢Å¢Å¢Å¢Å¢Å¢Å¢Å¢Å¢Å¢Å¢Å¢Å¢Å¢Å¢Å¢Å¢Å¢Å¢Å¢Å¢Å¢Å¢Å¢Å¢Å¢Å¢Å¢Å¢Å¢Å¢Å¢Å¢Å¢Å¢Å¢Å¢Å¢Å¢Å¢Å¢Å¢Å¢Å¢Å¢Å¢Å¢Å¢Å¢Å¢Å¢Å¢Å¢Å¢": 1295,
      "Ãª": 1296,
      "Å¡Å¡ÅŁ": 1297,
      "Ã«": 1298,
      "Å¢Å£Å¡Å¤": 1299,
      "Å¢Å¡Å£Å¤": 1300,
      "Å¢Å¢Å¢Å¢Å¢Å¢Å¢Å¢Å¢Å¢Å¢Å¢Å¢Å¢Å¢Å¢Å¢Å¢Å¢Å¢Å¢Å¢Å¢Å¢Å¢Å¢Å¦": 1301,
      "Å¢Å¢Å¢Å¢Å¢Å¢Å¢Å¢Å¢Å¢Å¢Å¢Å¢Å¢Å¢Å¢Å¢Å¢Å¢Å¢Å¢Å¢Å¢Å¢Å¢Å¢Å¢Å¢Å¢Å¢Å¢Å¢Å¢Å¢Å¢Å£": 1302,
      "Ã¦": 1303,
      "Å¨ÅĽ": 1304,
      "Å¢Å¢Å¢Å¢Å¢Å¢Å¢Å¢Å¢Å¢Å¢Å¢Å¢Å¢Å¢Å¢Å¢Å¢Å¢Å¢Å¢Å¢Å¢Å¢Å¢Å¢Å¢Å¢Å¢Å¢Å¢Å¢Å¢Å¢Å¢Å¢Å¢Å¢Å¢Å¢Å¢Å¢Å¢Å¢Å¢Å¢Å¢Å¢Å¢Å¢Å¢Å¢Å¢Å¢Å¢Å¢Å¢Å¢Å¢Å¢Å¢Å¢Å¢Å¢Å¢Å¢Å¢Å¢Å¢Å¢Å¢Å¢Å¢Å¢Å¢Å¢Å¢Å¢Å¢Å¢Å¢Å¢Å¢Å¢Å¢Å¢Å¢Å¢Å¢Å¢Å¢Å¢Å¢Å¢Å¢Å¡Å¢Å¢Å¢Å¢Å¢Å¢Å¢Å¢Å¢Å¢Å¢Å¢Å¢Å¢Å¢Å¢Å¢Å¢Å¢Å¢Å¢Å¢Å¢Å¢Å¢Å¢Å¢Å¢Å¢Å¢Å¢Å¡": 1305,
      "ÅĺÅł": 1306,
      "Å¢Å¢Å¢Å¢Å¢Å¢Å¢Å¢Å¢Å¢Å¢Å¢Å¢Å¢Å¢Å¢Å¢Å¢Å¢Å¢Å¢Å¢Å¢Å¢Å¢Å¢Å¢ÅŁ": 1307,
      "ÅĻÅŁ": 1308,
      "Å¢Å¢Å¢Å¢Å¢Å¢Å¢Å¢Å¢Å¢Å¢Å¢Å¢Å¢Å¢Å¢Å¢Å¢Å¢Å¢Å¢Å¢Å¢Å¢Å¢Å¢Å¡Å¢Å¢Å¡": 1309,
      "ÅĸÅ¡": 1310,
      "ÅªÅĿ": 1311,
      "Ã©": 1312,
      "Å¢Å¢Å¢Å¢Å¢Å¢Å¢Å¢Å¢Å¢Å¢Å¢Å¢Å¢Å¢Å¢Å¢Å¢Å¢Å¢Å¢Å¢Å¢Å¢Å¢Å¢Å¢Å¢Å¢Å¢Å¢Å¡Å¢Å¢Å¢Å¢Å¢Å¢Å¢Å¢Å¢Å¢Å¢Å¢Å¢Å¢Å¢Å¢Å¢Å¢Å¢Å¢Å¢Å¢Å¢Å¢Å¢Å¢Å¢Å¢Å¢Å¢Å¢Å£Å¢Å¢Å¢Å¢Å¢Å¢Å¢Å¢Å¢Å¢Å¢Å¢Å¢Å¢Å¢Å¢Å¢Å¢Å¢Å¢Å¢Å¢Å¢Å¢Å¢Å¢Å¢Å¢Å¢Å¢Å¢Å¡": 1313,
      "Å¢Å¢Å¢Å¢Å¢Å¢Å¢Å¢Å¢Å¢Å¢Å¢Å¢Å¢Å¢Å¢Å¢Å¢Å¢Å¢Å¢Å¢Å¢Å¢Å¢Å¢Å¢Å¥": 1314,
      "Å¢Å¢Å¢Å¢Å¢Å¢Å¢Å¢Å¢Å¢Å¢Å¢Å¡Å£": 1315,
      "ÅªÅļ": 1316,
      "ÅĻÅ«": 1317,
      "Å¢Å¢Å¢Å¢Å¢Å¢Å¢Å¢Å¢Å¢Å¢Å¢Å¢Å¢Å¢Å¢Å¢Å¢Å¢Å¢Å¢Å¢Å¡Å¢Å£": 1318,
      "Å¢Å¢Å¢Å¢Å¢Å¢Å¢Å¢Å¢Å¢Å¢Å¢Å£Å£": 1319,
      "Å¢Å¢Å¢Å¢Å¢Å¢Å¢Å¢Å¢Å¢Å¢Å¢Å¢Å¢Å¢Å¢Å¢Å¢Å¢Å¢Å¢Å£Å¡": 1320,
      "Å¢Å¢Å¢Å¢Å¢Å¢Å¢Å¢Å¢Å¢Å¢Å¢Å¢Å¢Å¢Å¢Å¢Å¡Å£": 1321,
      "Å¢Å¢Å¢Å¢Å¢Å¢Å¢Å¢Å¢Å¢Å¢Å¢Å¢Å¢Å¢Å¢Å¢Å¢Å¢Å¢Å¢Å¢Å¢Å¢Å¢Åļ": 1322,
      "Å¢Å¢Å¢Å¢Å¢Å¢Å¢Å¢Å¢Å¢Å¢Å¢Å¢Å¢Å¢Å¢Å¢Å¢Å¢Å¢Å¢Å¢Å¢Å¢Å¢Å¢Å¢Å¢Å¢Å¢Å¢Å¢Å¢Å¢Å¢Å¢Å¢Å¢Å¢Å¢Å¢Å¢Å¢Å¢Å¢Å¢Å¢Å¢Å¢Å¢Å¢Å¢Å¢Å¢Å¢Å¢Å¢Å¢Å¢Å£": 1323,
      "Å®Å¡": 1324,
      "ÄĲÅ¢Å¢Å¢Å¢Å¢Å¢Å¢Å¢Å¢Å¢Å¢Å¢Å¢Å¢Å¢Å¢Å¢Å¢Å¢Å¢Å¢Å¢": 1325,
      "Å¢Å¢Å¢Å¢Å¢Å¢Å¢Å¢Å¢Å¤": 1326,
      "Å¢Å¢Å¢Å¢Å¢Å¢Å¢Å¢Å¢Å¢Å¢Å¢Å¢Å¢Å¢Å¢Å¢Å¢Å¢Å¢Å¢Å¢Å¢Å¢Å¢Å¢Å¢Å¢Å¢Å¢Å¢Å¢Å¢Å¢Å¢Å¢Å¢Å¢Å¢Å¢Å¢Å¢Å¢Å¢Å¢Å¢Å¢Å¢Å¢Å¢Å¢Å¢Å¢Å¢Å¢Å¢Å¢Å¢Å¢Å¢Å¢Å¢Å¢Å£Å¢Å¢Å¢Å¢Å¢Å¢Å¢Å¢Å¢Å¢Å¢Å¢Å¢Å¢Å¢Å¢Å¢Å¢Å¢Å¢Å¢Å¢Å¢Å¢Å¢Å¢Å¢Å¢Å¢Å¢Å¢Å¢Å¢Å¢Å¢Å¢Å¢Å¢Å¢Å¢Å¢Å¢Å¢Å¢Å¢Å¢Å¢Å¢Å¢Å¢Å¢Å¢Å¢Å¢Å¢Å¢Å¢Å¢Å¢Å¢Å¢Å¢Å¢Å£": 1327,
      "ÅªÅĽ": 1328,
      "Å¢Å¶": 1329,
      "Å¢Å¢Å¢Å¢Å¢Å¢Å¢Å¢Å¢Å¢Å¢Å¢Å¢Å¢Å¢Å¢Å¢Å¢Å¢Å¢Å¢Å¢Å¢Å¢Å¢Åª": 1330,
      "Å¢Å¢Å¢Å¢Å¢Å¢Å¢Å¢Å¢Å¢Å¢Å¢Å¢Å¢Å¢Å¢Å¢Å¢Å¢Å¢Å¢Å¢Å¢Å¢Å¢Å¢Å¢Å¢Å¢Å¢Å¢Å¢Å¢Å¢Å¢Å¢Å¢Å¢Å¢Å¢Å¢Å¢Å¢Å¢Å¢Å¢Å¢Å¢Å¢Å¢Å¢Å¢Å¢Å¢Å¢Å¢Å¢Å¢Å¢Å¡": 1331,
      "Å¢Å¢Å¢Å¢Å¢Å¢Å¢Å¢Å¢Å¢Å¢Å¢Å¢Å¢Å¢Å¢Å¢Å¢Å¢Å¢Å¢Å¢Å¢Å¢Å¢Å¢Å¢Å¢Å¢Å¢Å¢Å¢Å¢Å¢Å¢Å¢Å¢Å¢Å¢Å¢Å¢Å¢Å¢Å¢Å¢Å¢Å¢Å¢Å¢Å¢Å¢Å¢Å¢Å¢Å¢Å¢Å¢Å¢Å¢Å¢Å¢Å¢Å¢Å¤": 1332,
      "Å¢Å¢Å¢Å¢Å¢Å¢Å¢Å¢Å¢Å¢Å¢Å¢Å¢Å¢Å¢Å¢Å¢Å¢Å¢Å¢Å¢Å¡Å£": 1333,
      "Å¢Å¢Å¢Å¢Å¢Å¢Å¢Å¢Å¢Å¢Å¢Å¢Å¢Å¢Å¢Å¢Å¢Å£Å¡": 1334,
      "ÅĻÅ¦": 1335,
      "Å¥Å©": 1336,
      "ÅªÅ§": 1337,
      "Ã§": 1338,
      "Å¢Å¢Å¢Å¢Å¢Å¢Å¢Å¢Å¢Å¢Å¢Å¢Å¢Å¢Å¢Å¢Å¢Å¢Å¢Å¢Å¢Å¢Å¢Å¢Å¢Å¢Å¡Å¢Å¢Å£": 1339,
      "Å¢Å¢Å¢Å¢Å¢Å¢Å¢Å¢Å¢Å¢Å¢Å¢Å¢Å¢Å¢Å¢Å¢Å¢Å¢Å¢Å¢Å¢Å¢Å¢Å¢Å¡Å¢Å¢Å£": 1340,
      "ÅŀÅĽ": 1341,
      "ÅĹÅ¤": 1342,
      "Ç¡": 1343,
      "Å¢Å¢Å¢Å¢Å¢Å¢Å¢Å¢Å¢Åł": 1344,
      "Å¢Å¢Å¢Å¢Å¢Å¢Å¢Å¢Å¢Å¢Å¢Å¢Å¢Å¢Å¢Å¢Å¢Å¢Å¢Å¢Å¢Å¢Å¢Å¢Å¢Å¢Å¢Å¢Å¢Å¢Å¢Å¢Å¢Å¢Å¢Å¢Å¢Å¢Å¢Å¢Å¢Å¢Å¢Å¢Å¢Å¢Å¢Å¢Å¢Å¢Å¢Å¢Å¢Å¢Å¢Å¢Å¢Å¢Å¢Å¢Å£": 1345,
      "Å¢Å¢Å¢Å¢Å¢Å¢Å¢Å¢Å¢Å¢Å¢Å¢Å¢Å¢Å¢Å¢Å¢Å¢Å¢Å¢Å¢Å¢Å£Å¢Å£": 1346,
      "Å¢Å¢Å©": 1347,
      "Çł": 1348,
      "Å¯Å£": 1349,
      "Å§Å©": 1350,
      "Å¢Å¢Å¢Å¢Å¢Å¢Å¢Å¢Å¢Å¢Å¢Å¢Å¢Å¢Å¢Å¢Å¢Å¢Å¢Å§": 1351,
      "Å¥ÅĽ": 1352,
      "ÅķÅ£": 1353,
      "ÅŃÅ¤": 1354,
      "ÅŁÅ©": 1355,
      "ÅªÅľ": 1356,
      "Å¢Å£Å¡Åł": 1357,
      "Å¢Å¢Å¢Å¢Å¢Å¢Å¢Å¢Å¢Å¢Å¢Å¢Å¢Å¢Å¢Å¢Å¢Å¢Å¢ÅĿ": 1358,
      "Å¢Å¢Å¢Å¢Å¢Å¢Å¢Å¢Å¢Å¢Å¢Å¢Å¢Å¢Å¢Å¢Å¢Å¢Å¢Å¢Å¢Å¢Å¢Å¢Å£Å¢Å¢Å¢Å¢": 1359,
      "Å¢Å¢Å¢ÅłÅ£": 1360,
      "Å¢Å¢Å¢Å¢Å¢Å¢Å¢Å¢Å¢Å¢Å¢Å¢Å¢Å¢Å¢Å¢Å¢Å¢Å¢Å¢Å¢Å¢Å¢Å¢Å¢Å¢Å¢Å¢Å¢Å¢Å¢Å¢Å¢Å¢Å¢Å¢Å¢Å¢Å¢Å¢Å¢Å¢Å¢Å¢Å¢Å¢Å¢Å¢Å¢Å¢Å¢Å¢Å¢Å¢Å¢Å¢Å¢Å¢Å¢Å¢Å¢Å¢Å¢Å¢Å¢Å¢Å¢Å¢Å¢Å¢Å¢Å¢Å¢Å¢Å¢Å¢Å¢Å¢Å¢Å¢Å¢Å¢Å¢Å¢Å¢Å¢Å¢Å¢Å¢Å¢Å¢Å¢Å¢Å¢Å¢Å¢Å¢Å¢Å¢Å¢Å¢Å¢Å¢Å¢Å¢Å¢Å¢Å¢Å¢Å¢Å¢Å¢Å¢Å¢Å¢Å¢Å¢Å¢Å¢Å¢Å¢Å¢Å¢Å¢Å¢Å¢Å¢Å¢Å¢Å¢Å¢Å¢Å¢Å¢Å¢Å¢Å¢Å¢Å¢Å¢Å¢Å¢Å¢Å¢Å¢Å¢Å¢Å¢Å¢Å¢Å¢Å¢Å¢Å¢Å¢Å¢Å¢Å¢Å¢Å¢Å¢Å¢Å¢Å¢Å¢Å¢Å¢Å¢Å¢Å¢Å¢Å¢Å¢Å¢Å¢Å¢Å¢Å¢Å¢Å¢Å¢Å¢Å¢Å¢Å¢Å¢Å¢Å¢Å¢Å¢Å¢Å¢Å¢Å¢Å¢Å¢Å¢Å¢Å¢Å¢Å¢Å¢Å¢Å¢Å¢Å¢Å¢Å¢Å¢Å¢Å¢Å¢Å¢Å¢Å¢Å¢Å¢Å¢Å¢Å¢Å¢Å¢Å¢Å¢Å¢Å¢Å¢Å¢Å¢Å¢Å¢Å¢Å¢Å¢Å¢Å¢Å¢Å¢Å¢Å¢Å¢Å¢Å¢Å¢Å¢Å¢Å¢Å¢Å¢Å¢Å¢Å¢Å¢Å¢Å¢Å¢Å¢Å¢Å¢Å¢Å¢Å¢Å¢Å¢Å¢Å¢Å¢Å¢Å¢Å¢Å¢Å¢Å¢Å¢Å¢Å¢Å¢Å¢Å¢Å¢Å¢Å¢Å¢Å¢Å¢Å¢Å¢Å¢Å¢Å¢Å¢Å¢Å¢Å¢Å¢Å¢Å¢Å¢Å¢Å¢Å¢Å¢Å¢Å¢Å¢Å¢Å¢Å¢Å¢Å¢Å¢Å¢Å¢Å¢Å¢Å¢Å¢Å¢Å¢Å¢Å¢Å¢Å¢Å¢Å¢Å¢Å¢Å¢Å¢Å¢Å¢Å¢Å¢Å¢Å¢Å¢Å¢Å¢Å¢Å¢Å¢Å¢Å¢Å¢Å¢Å¢Å¢Å¢Å¢Å¢Å¢Å¢Å¢Å¢Å¢Å¢Å¢Å¢Å¢Å¢Å¢Å¢Å¢Å¢Å¢Å¢Å¢Å¢Å¢Å¢Å¢Å¢Å¢Å¢Å¢Å¢Å¢Å¢Å¢Å¢Å¢Å¢Å¢Å¢Å¢Å¢Å¢Å¢Å¢Å¢Å¢Å¢Å¢Å¢Å¢Å¢Å¢Å¢Å¢Å¢Å¢Å¢Å¢Å¢Å¢Å¢Å¢Å¢Å¢Å¢Å¢Å¢Å¢Å¢Å¢Å¢Å¢Å¢Å¢Å¢Å¢Å¢Å¢Å¢Å¢Å¢Å¢Å¢Å¢Å¢Å¢Å¢Å¢Å¢Å¢Å¢Å¢Å¢Å¢Å¢Å¢Å¢Å¢Å¢Å¢Å¢Å¢Å¢": 1361,
      "Å¢Å¢ÅĽ": 1362,
      "ÅļÅ«": 1363,
      "Å¢ÅłÅ£Å£": 1364,
      "Å¤Å£ÅŁ": 1365,
      "Å¢Å·": 1366,
      "Å¢Å¢Å¢Å¢Å¢Å¢Å¢Å¢Å¢Å¢Å¢Å¢Å¢Å¢Å¢Å¢Å¢Å¢Å¢Å¢Å¢Å¢Å¢Å¢Å¢Å¢Å¢Å¢Å¢Å¢Å¢Å¢Å¢Å¢Å¢Å¢Å¢Å¢Å¢Å¢Å¢Å¢Å¢Å¢Å¢Å¢Å¢Å¢Å¢Å¢Å¢Å¢Å¢Å¢Å¢Å¢Å¢Å¢Å¢Å¢Å¡": 1367,
      "Å¢Å£Åŀ": 1368,
      "Å¢Å¡Å£Åł": 1369,
      "ÅłÅ£ÅŁ": 1370,
      "ÅļÅĿ": 1371,
      "Å¡Å£Å¢Å¢Å£": 1372,
      "Å¢Å£Å£Åł": 1373,
      "Å¢Å¢Å¢Å¢Å¢Å¢Å¢Å¤": 1374,
      "Å¢Å¢Å¢Å¢Å¢Å¢Å¢Å¢Å¢Å¢Å¢Å¢Å¢Å¢Å¢Å¢Å¢Å¢Å¢Å¢Å¢Å¢Å¢Å¢Å¡Å¢Å¢Å¢Å¢": 1375,
      "Å¢Å¢Å¢Å¢Å¢Å¢Å¢Å¢Å¢Å¢Å¢Å¢Å¢Å¢Å¢Å¢Å¢Å¢Å¢Å¢Å¢Å¢Å¢Å¢Å¢Å¢Å¢Å¢Å¢Å¢Å¢Å¡Å¢Å¢Å¢Å¢Å¢Å¢Å¢Å¢Å¢Å¢Å¢Å¢Å¢Å¢Å¢Å¢Å¢Å¢Å¢Å¢Å¢Å¢Å¢Å¢Å¢Å¢Å¢Å¢Å¢Å¢Å¢Å¢Å¢Å¢Å¢Å¢Å¢Å¢Å¢Å¢Å¢Å¢Å¢Å¢Å¢Å¢Å¢Å¢Å¢Å¢Å¢Å¢Å¢Å¢Å¢Å¢Å¢Å¢Å¢Å¢Å¢Å¢Å¢Å¢": 1376,
      "Å¢Å¢Å¢Å¢Å¢Å¢Å¢Å¢Å¢Å¢Å¢Å¢Å¢Å¢Å¢Å¢Å¢Å¢Å¢Å¢Å¢Å¢Å¢Å¢Å¢Å¡Å¢Å¢Å¢Å¢Å¢Å¡": 1377,
      "Ç¢": 1378,
      "Å¢Å¢Å¢Å¢Å¢Å¢Å¢Å¢Å¢Å¢Å¢Å¢Å¢Å¢Å¢Å¢Å¢Å¢Å¢Å¢Å¢Å¢Å¢Å¢Å¢Å¢Å¢Å¢Å¢Å¢Å¢Å¢Å¢Å¢Å¢Å¢Å¢Å¢Å¢Å¢Å¢Å¢Å¢Å¢Å¢Å¢Å¢Å¢Å¢Å¢Å¢Å¢Å¢Å¢Å¢Å¢Å¢Å¢Å¢Å¢Å¢Å¢Å¢Å¢Å¢Å¢Å¢Å¢Å¢Å¢Å¢Å¢Å¢Å¢Å¢Å¢Å¢Å¢Å¢Å¢Å¢Å¢Å¢Å¢Å¢Å¢Å¢Å¢Å¢Å¢Å¢Å¢Å¢Å¢Å¢Å¢Å¢Å¢Å¢Å¢Å¢Å¢Å¢Å¢Å¢Å¢Å¢Å¢Å¢Å¢Å¢Å¢Å¢Å¢Å¢Å¢Å¢Å¢Å¢Å¢Å¢Å¢Å¢Å¢Å¢Å¢Å¢Å¢Å¢Å¢Å¢Å¢Å¢Å¢Å¢Å¢Å¢Å¢Å¢Å¢Å¢Å¢Å¢Å¢Å¢Å¢Å¢Å¢Å¢Å¢Å¢Å¢Å¢Å¢Å¢Å¢Å¢Å¢Å¢Å¢Å¢Å¢Å¢Å¢Å¢Å¢Å¢Å¢Å¢Å¢Å¢Å¢Å¢Å¢Å¢Å¢Å¢Å¢Å¢Å¢Å¢Å¢Å¢Å¢Å¢Å¢Å¢Å¢Å¢Å¢Å¢Å¢Å¢Å¢Å¢Å¢Å¢Å¢Å¢Å¢Å¢Å¢Å¢Å¢Å¢Å¢Å¢Å¢Å¢Å¢Å¢Å¢Å¢Å¢Å¢Å¢Å¢Å¢Å¢Å¢Å¢Å¢Å¢Å¡": 1379,
      "Å¤Å£Å£": 1380,
      "Å¢Å¢Å¢Å¢Å¢Å¢Å¢Å¢Å¢Å¢Å¢Å¢Å¢Å¢Å¢Å¢Å¢Å¢Å¢Å¢Å¢Å¢Å¢Å¢Å¢Å£Å¢Å¢Å¢Å¢Å¢Å£": 1381,
      "Å¤ÅłÅł": 1382,
      "Å¢Å¢Å¢Å¢Å¢Å¢Å¢Å¢Å¢Å¢Å¢Å¢Å¢Å¢Å¢Å¢Å¢Å¢Å¢Å¢Å¢Å¢Å¢Å¢Å¢Å¢Å¢Å¢Å¢Å¢Å¢Å¢Å¢Å¢Å¢Å¢Å¢Å¢Å¢Å¢Å¢Å¢Å¢Å¢Å¢Å¢Å¢Å¢Å¢Å¢Å¢Å¢Å¢Å¢Å¢Å¢Å¢Å¢Å£": 1383,
      "Å¤Å¡ÅŁ": 1384,
      "ÅŃÅł": 1385,
      "Å¢Å¢Å¢Å¢Å¢Å¢Å¢Å¢Å¢Å¢Å¢Å¢Å¢Å¢Å¢Å¢Å¢Å¢Å¢Å¢Å¢Å¢Åŀ": 1386,
      "Å¢Å¢Å¢Å¢Å¢Å¢Å¢Å¢Å¢Å¢Å¢Å¢Å¢Å¢Å£Å£": 1387,
      "Å¨Å©": 1388,
      "Å¢Å¢Å¢Å¢Å¢Å¢Å¢Å¢Å¢Å¢Å¢Å¢Å¢Å¢Å¢Å¢Å¢Å¢Å¢Å¢Å¢Å¢Å¢Å¢Å¥": 1389,
      "ÅłÅ£Å¥": 1390,
      "Å¢Å¡Å¦": 1391,
      "Å¤Å£Å¥": 1392,
      "ÅĻÅŀ": 1393,
      "Ç£": 1394,
      "Å«Å¦": 1395,
      "Å£Å¡Å¥": 1396,
      "Ç¤": 1397,
      "Å¡Å¦": 1398,
      "ÅĻÅ§": 1399,
      "Å¡Å£Å¢Å¤": 1400,
      "Å«Åŀ": 1401,
      "Å¢Å¢Å¢Å¢Å¢Å¢Å¢Å¢Å¢Å¢Å¢Å¢Å¢Å¢Å¢Å¢Å¢Å¢Åŀ": 1402,
      "Å¬Å¥": 1403,
      "Å¢Å¢Å¢Å¢Å¢Å¢Å¢Å¢Å¢Å¢Å¢Å¢Å¢Å¢Å¢Å¢Å¢Å¢Å¢Å¢Å¢Å¢Å¢Å¢Å¢Å£Å¢Å£": 1404,
      "Ç¥": 1405,
      "Å¢Å¢Å¢Å¢Å¢Å¢Å¢Å¢Å¢Å¢Å¢Å¢Å¢Å¢Å¢Å¢Å¢Å¢Å¦": 1406,
      "Å¢Å¡Å¡Å¤": 1407,
      "ÅĺÅ¥": 1408,
      "Å¢Å¢Å¢Å¢Å¢Å¢Å¢Å¢Å¢Å¢Å¢Å¢Å¢Å¢Å¢Å¢Å¢Å¢Å¡Å¡": 1409,
      "Ã¤": 1410,
      "Å¢Å¢Å¢Å¢Å¢Å¢Å¢Å¢Å¢Å¢Å¢Å¢Å¢Å¢Å¢Å¢Å¢Å¢Å¢Å¢Å¢Å¢Å¢Å¢Å¢Å¢Å¢Å¢Å¢Å¢Å¢Å¢Å¢Å¢Å¢Å¢Å¢Å¢Å¢Å¢Å¢Å¢Å¢Å¢Å¢Å¢Å¢Å¢Å¢Å¢Å¢Å¢Å¢Å¢Å¢Å¢Å¢Å¢Å¢Å¢Å¢Å¢Å¢Å¢Å¢Å¢Å¢Å¢Å¢Å¢Å¢Å¢Å¢Å¢Å¢Å¢Å¢Å¢Å¢Å¢Å¢Å¢Å¢Å¢Å¢Å¢Å¢Å¢Å¢Å¢Å¢Å¢Å¢Å¢Å¢Å¢Å¢Å¢Å¢Å¢Å¢Å¢Å¢Å¢Å¢Å¢Å¢Å¢Å¢Å¢Å¢Å¢Å¢Å¢Å¢Å¢Å¢Å¢Å¢Å¢Å¢Å¢Å¢Å¢Å¢Å¢Å¢Å¢Å¢Å¢Å¢Å¢Å¢Å¢Å¢Å¢Å¢Å¢Å¢Å¢Å¢Å¢Å¢Å¢Å¢Å¢Å¢Å¢Å¢Å¢Å¢Å¢Å¢Å¢Å¢Å¢Å¢Å¢Å¢Å¢Å¢Å¢Å¢Å¢Å¢Å¢Å¢Å¢Å¢Å¢Å¢Å¢Å¢Å¢Å¢Å¢Å¢Å¢Å¢Å¢Å¢Å¢Å¢Å¢Å¢Å¢Å¢Å¢Å¢Å¢Å¢Å¢Å¢Å¢Å¢Å¢Å¢Å¢Å¢Å¢Å¢Å¢Å¢Å¢Å¢Å¢Å¢Å¢Å¢Å¢Å¢Å¢Å¢Å¢Å¢Å¢Å¢Å¢Å¢Å¢Å¢Å¢Å¢Å¢Å¢Å¢Å¢Å¢Å¢Å¢Å¢Å¢Å¢Å¢Å¢Å¢Å¢Å¢Å¢Å¢Å¢Å¢Å¢Å¢Å¢Å¢Å¢Å¢Å¢Å¢Å¢Å¢Å¢Å¢Å¢Å¢Å¢Å¢Å¢Å¢Å¢Å¢Å¢Å¢Å¢Å¢Å¢Å¢Å¢Å¢Å¢Å¢Å¢Å¢Å¢Å¢Å¢Å¢Å¢Å¢Å¢Å¢Å¢Å¢Å¢Å¢Å¢Å¢": 1411,
      "Å¢Å¢Å¢Å¢Å¢Å¢Å¢Å¢Å¢Å¢Å¢Å¢Å¢Å¢Å¢Å¢Å¢Å¢Å¢Å¢Å¢Å¢Å¢Å¢Å¢Å¢Å¢Å¢Å¢Å¢Å¢ÅłÅ¢Å¢Å¢Å¢Å¢Å¢Å¢Å¢Å¢Å¢Å¢Å¢Å¢Å¢Å¢Å¢Å¢Å¢Å¢Å¢Å¢Å¢Å¢Å¢Å¢Å¢Å¢Å¢Å¢Å¢Å¢Å¡": 1412,
      "Å¢Å¢Å¢Å¢Å¢Å¢Å¢Åł": 1413,
      "Å¢Å¢Å¢Å¢Å¢Å¢Å¢Å¢Å¢Å¢Å¢Å¢Å¢Å¢Å¢Å¢Å¢Å¢Å¢Å¢Å¢Å¢Å¦": 1414,
      "Å£Å¡ÅŁ": 1415,
      "ÅłÅ¡Å¥": 1416,
      "Å¢Å¢Å¢Å¢Å¢Å¢Å¢Å¢Å¢Å¢Å¢Å¢Å¢Å¢Å¢Å¢Å¢Å¢Å¢Å¢Å¢Å¢Å¢Å¢Å¢Å¡Å¢Å¡": 1417,
      "Å¢Å¢Å¢Å¢Å¢Å¢Å¢Å¢Å¢Å¢Å¢Å¢Å¢Å¢Å¢Å¢Å¢Å¢Å¢Å¢Å¢Å¢Å¢Å¢ÅŁ": 1418,
      "Ã¥": 1419,
      "Å¢Å£Å¦": 1420,
      "Å¤Å¡Å¥": 1421,
      "Å¡Åŀ": 1422,
      "ÅĽÅľ": 1423,
      "ÅĹÅł": 1424,
      "ÅĸÅ¤": 1425,
      "Å¢Å¡Å£Å¢Å¢Å¡": 1426,
      "Å¢Å¢Å¢Å¢Å¢Å¢Å¢Å¢Å¢Å¢Å¢Å¢Å¢Å¢Å¢Å¢Å¢Å¢Å¢Å¢Å¢Å¢Å¢Å£Å¢Å£": 1427,
      "Å¢Å¢Å¢Å¢Å¢Å¢Å¢Å¢Å¢Å¢Å¢Å¢Å¢Å¢Å¢Å¢Å¢Å¢Å¢Å¢Å¢Å¢Å¢Å¡Å¢Å¡": 1428,
      "Å¢Å¢Å¢Å¢Å¢Å¢Å¢Å¢Å¢Å¢Å¢Å¢Å¢Å¢Å¢Å¢Å¢Å¢Å¢Å¢Å¢Å¢Å¢Å¢Å¢Å¢Å¢Å¢Å¢Å¢Å¢Å£Å¢Å¢Å¢Å¢Å¢Å¢Å¢Å¢Å¢Å¢Å¢Å¢Å¢Å¢Å¢Å¢Å¢Å¢Å¢Å¢Å¢Å¢Å¢Å¢Å¢Å¢Å¢Å¢Å¢Å¢Å¢Å¡Å¢Å¢Å¢Å¢Å¢Å¢Å¢Å¢Å¢Å¢Å¢Å¢Å¢Å¢Å¢Å¢Å¢Å¢Å¢Å¢Å¢Å¢Å¢Å¢Å¢Å¢Å¢Å¢Å¢Å¢Å¢Å¡": 1429,
      "Å¢Åį": 1430,
      "ÅªÅ¨": 1431,
      "Å¢Å¸": 1432,
      "Å¬ÅŁ": 1433,
      "Å¢Å§Å£": 1434,
      "Å¢ÅłÅ¦": 1435,
      "Å¢Å£Å£Å¢Å£": 1436,
      "Å¢Å¢Å¢Å¢Å¢Å¢Å¢Å¢Å¢Å¢Å¢Å¢ÅŁ": 1437,
      "Å¢ÅŀÅ¦": 1438,
      "ÅªÅĻ": 1439,
      "Å¢Å¢Å¢Å¢Å¢Å¢Å¢Å¢Å¢Å¢Å¢Å¢Å¢Å¢Å¢Å¢Å¢Å¢Å¢Å¢Å¢Å¢Å¢Å¢Å¢Å¢Å¢Å¢Å¢Å¢Å¢Å¢Å¢Å¢Å¢Å¢Å¢Å¢Å¢Å¢Å¢Å¢Å¢Å¢Å¢Å¢Å¢Å¢Å¢Å¢Å¢Å¢Å¢Å¢Å¢Å¢Å¢Å¢Å¡": 1440,
      "Å¢Å¢Å¢Å¢Å¢Å¢Å¢Å¢Å¢Å¢Å¢Å¢Å¢Å¢Å¢Å¢Å¢Å¢Å¢Å¢Å¢Å¢Å¢Å¢Å¢Å¢Å¢Å¢Å¢Å£Å¡Å¡": 1441,
      "Å«ÅĻ": 1442,
      "ÅŁÅ£Å¤": 1443,
      "Å¢Å£Å£Å¤": 1444,
      "Å¢Å¦Åŀ": 1445,
      "ÅĺÅŁ": 1446,
      "Å¢Å¢Å¢Å¢Å¢Å¢Å¢Å¢Å¢Å¢Å¢Å¢Å¢Å¢Å¢": 1447,
      "Ç¦": 1448,
      "Å¢Å¡Å£Å¢Å¢Å£": 1449,
      "Ç§": 1450,
      "Å¢Å£Å¡Å¢Å¢Å¡": 1451,
      "Å¢Å¢Å¢Å¢Å¢Å¢Å¢Å¢Å¢Å¢Å¢Å¢Å¢Å¢Å¢Å¢Å¢Å¢Å¢Å¢Å¢Å¢Å¢Å¢Å¢Å¡Å¢Å¢Å¡": 1452,
      "Å¢Å¢Å¢Å¢Å¢Å¢Å¢Å¢Å¢Å¢Å¢Å¢Å¢Å¢Å¢Å¢Å¢Å¢Å¢Å¢Å¢Å¢Å¢Å¢Å¢ÅĻ": 1453,
      "Ç¨": 1454,
      "ÅłÅ¡ÅŁ": 1455,
      "Å¢Å£Å¡Å¢Å¢Å£": 1456,
      "ÅĿÅĽ": 1457,
      "Å¢Å¢Å¢Å¢Å¢Å¢Å¢Å¢Å¢Å¢Å¢Å¢Å¢Å¢Å¢Å¢Å¢Å¢Å¢Å¢Å¢Å¢Å¢Å¢Å¢Å¢Å¢Å¢Å¢Å¡Å£Å£": 1458,
      "Å©Å¨": 1459,
      "ÅĶÅ£": 1460,
      "Å£Å£ÅŁ": 1461,
      "ÄŀÅ¢Å¢Å¢Å¢Å¢Å¢Å¢Å¢Å¢Å¢Å¢Å¢": 1462,
      "Å¢Å¡Å¡Å¢Å¡": 1463,
      "Å¢Å¤Åŀ": 1464,
      "ÅļÅľ": 1465,
      "Å¥Å£Åł": 1466,
      "Ã£": 1467,
      "Å¢Å¢Å¢Å¢Å¢Å¢Å¢Å¢Å¢Å¢Å¢Å¢Å¢Å¢Å¢Å¢Å¢Å¢Å¢Å¢Å¢Å¢Å¢Å¢Å¢Å«": 1468,
      "Å°Å£": 1469,
      "Å¢Å¢Å¢Å¢Å¢Å¢Å¢Å¢Å¢Å¢Å¢Å¢Å¢Å¢Å¢Å¢Å¢Å¢Å¢Å¢Å¢Å¢Å¢Å¢Å¢Å¢Å¢Å¢Å¢Å£Å£Å¡": 1470,
      "Å¢ÅĿÅ£": 1471,
      "Å®Å¤": 1472,
      "Å¢Å¢Å¢Å¢Å¢Å¢Å¢Å¢Å¢Å¢Å¢Å¢Å¢Å¢Å¢Å¢Å¢Å¢Å¢Å¢Å¢Å¢Å¢Å¢Å¢Å¢Å¢Å¢Å¢Å¢Å¢Å¡Å¢Å¢Å¢Å¢Å¢Å¢Å¢Å¢Å¢Å¢Å¢Å¢Å¢Å¢Å¢Å¢Å¢Å¢Å¢Å¢Å¢Å¢Å¢Å¢Å¢Å¢Å¢Å¢Å¢Å¢Å¢Å¢Å¢Å¢Å¢Å¢Å¢Å¢Å¢Å¢Å¢Å¢Å¢Å¢Å¢Å¢Å¢Å¢Å¢Å¢Å¢Å¢Å¢Å¢Å¢Å¢Å¢Å¢Å¢Å¢Å¢Å¢Å¢Å¡": 1473,
      "ÅĺÅ¦": 1474,
      "Å¥Å¡Å¤": 1475,
      "Ã¡": 1476,
      "Å¢Å¢Å¢Å¢Å¢Å¢Å¢Å¢Å¢Å¢Å¢Å¢Å¥": 1477,
      "Å¢Å¢Å¢Å¢Å¢Å¢Å¢Å¢Å¢Å¢Å¢Å¢Å¢Å¢Å¢Å¢Å¢Å¢Å¢Å¢Å¢Å¢Å¢Å¢Å¢Å¢Å¢Å¢Å¢Å¢Å¢Å£Å¢Å¢Å¢Å¢Å¢Å¢Å¢Å¢Å¢Å¢Å¢Å¢Å¢Å¢Å¢Å¢Å¢Å¢Å¢Å¢Å¢Å¢Å¢Å¢Å¢Å¢Å¢Å¢Å¢Å¢Å¢Å¢Å¢Å¢Å¢Å¢Å¢Å¢Å¢Å¢Å¢Å¢Å¢Å¢Å¢Å¢Å¢Å¢Å¢Å¢Å¢Å¢Å¢Å¢Å¢Å¢Å¢Å¢Å¢Å¢Å¢Å¢Å¢Å¢Å¢Å¢Å¢Å¢Å¢Å¢Å¢Å¢Å¢Å¢Å¢Å¢Å¢Å¢Å¢Å¢Å¢Å¢Å¢Å¢Å¢Å¢Å¢Å¢Å¢Å¢Å¢Å¢Å¢Å¢Å¢Å¡": 1478,
      "Å¯Å¡": 1479,
      "Å¢Å¢Å¢Å¢Å¢Å¢Å¢Å¢Å¢Å¢Å¢Å¢Å¢Å¢Å¢Å¢Å¢Å¢Å¢Å¢Å¢Å¢Å¢Å¢Å¢Å¢Å¢Å¢Å¢Å¢Å¢Å£Å¢Å¡": 1480,
      "Å¢Å¢Å¢Å¢Å¢Å¢Å¢Å¢Å¢Å¢Å¢Å¢Å¡Å¡": 1481,
      "Å¢Å¢Å¢Å¢Å¢Å¢Å¢Å¢Å¢Å¢Å¢Å¢Å¢Å¢Å¢Å¢Å¢Å¢Å¢Å¢Å¢Å¢Å¢Å¢Å¢Å¢ÅłÅ£": 1482,
      "Å¢Å¢Å¢Å¢Å¢Å¢Å¢Å¢Å¢Å¢Å¢Å¢Å¢Å¢Å¢Å¢Å¢Å¢Å¢Å¢Å¢Å¢Å¢Å¢Å¢Å¢Å¢Å¢Å¢Å£Å¡Å£": 1483,
      "Ç©": 1484,
      "Å©Å©": 1485,
      "ÅķÅ¡": 1486,
      "ÅĺÅ¬": 1487,
      "Å¢Å¢Å¢Å¢Å¢Å¢Å¢Å¢Å¢Å¢Å¢Å¢Å¢Å¢Å¢Å¢Å¢Å¢Å¢Å¢Å¢Å¢Å¢Å¢Å¢Å¢Å¢Å¢Å¢Å¢Å¢Å¢Å¢Å¢Å¢Å¢Å¢Å¢Å¢Å¢Å¢Å¢Å¢Å¢Å¢Å¢Å¢Å¢Å¢Å¢Å¢Å¢Å¢Å¢Å¢Å¢Å¢Å¢Å¢Å¢Å¢Å¢Å¢Å¢Å¢Å¢Å¢Å¢Å¢Å¢Å¢Å¢Å¢Å¢Å¢Å¢Å¢Å¢Å¢Å¢Å¢Å¢Å¢Å¢Å¢Å¢Å¢Å¢Å¢Å¢Å¢Å¢Å¢Å¢Å¢Å¢Å¢Å¢Å¢Å¢Å¢Å¢Å¢Å¢Å¢Å¢Å¢Å¢Å¢Å¢Å¢Å¢Å¢Å¢Å¢Å¢Å¢Å¢Å¢Å¢Å¢Å¢Å¢Å¢Å¢Å¢Å¢Å¢Å¢Å¢Å¢Å¢Å¢Å¢Å¢Å¢Å¢Å¢Å¢Å¢Å¢Å¢Å¢Å¢Å¢Å¢Å¢Å¢Å¢Å¢Å¢Å¢Å¢Å¢Å¢Å¢Å¢Å¢Å¢Å¢Å¢Å¢Å¢Å¢Å¢Å¢Å¢Å¢Å¢Å¢Å¢Å¢Å¢Å¢Å¢Å¢Å¢Å¢Å¢Å¢Å¢Å¢Å¢Å¢Å¢Å¢Å¢Å¢Å¢Å¢Å¢Å¢Å¢Å¢Å¢Å¢Å¢Å¢Å¢Å¢Å¢Å¢Å¢Å¢Å¢Å¢Å¢Å¢Å¢Å¢Å¢Å¢Å¢Å¢Å¢Å¢Å¢Å¢Å¢Å¢Å¢Å¢Å¢Å£": 1488,
      "Å¢Å¢Å¢Å¢Å¢Å¢Å¢Å¢Å¢Å¢Å¢Å¢Å¢Å¢Å¢Å¢Å¢Å¢Å¢Å¢Å¡Å¢Å¡": 1489,
      "Å¢Å¢Å¢Å¡Å¤": 1490,
      "Å¢Å¢Å¢Å¢Å¢Å¢Å¢Å¢Å¢Å¢Å¢Å¢Å¢Å¢Å¢Å¢Å¢Å¢Å¢Å¢Å¢Å¡Å¢Å¢Å¢Å¢Å¢Å¢Å¢Å¢Å¢Å¡": 1491,
      "Çª": 1492,
      "Å«ÅĿ": 1493,
      "ÅľÅĽ": 1494,
      "Å¢ÅĮ": 1495,
      "ÅłÅ¨": 1496,
      "Å¢Å¢Å¢Å¢Å¢Å¢Å¢Å¢Å¢Å¢Å¢Å¢Å¢Å¢Å¢Å¢Å¢Å¢Å¢Å¢Å¢Å¢Å¢Å¢Å¢Å¢Å¢Å¢Å¢Å¡Å£Å¡": 1497,
      "Å¢Å¢Å¢Å¨": 1498,
      "ÅŁÅ¡Å¤": 1499,
      "Å¡Å£Å¢Åł": 1500,
      "Å¢Å¢Å¢Å¢Å¢Å¢Å¢Å¢Å¢Å¢Å¢Å¢Å¢Å¢Å¢Å¢Å¢Å¢Å¢Å¢Å¢Å¢Å¢Å¢Å¢Å¢Å¢Å£Å¢Å¡": 1501,
      "Å¢Å¢Å¢Å¢Å¢Å¢Å£Å£": 1502,
      "Å«Å§": 1503,
      "Å¢Å¢Å¢Å¢Å¢Å¢Å¢Å¢Å¢Å¢Å¢Å¢Å¢Å¢Å¢Å¢Å¢Å¢Å¢Å¢Å¢Å¢Å¢Å¢Å¢Å¢Å¢Å¡Å¢Å£": 1504,
      "Å¢Å¢Å¢Å¢Å¢Å¢Å¢Å¢Å¢Å¢Å¢Å¢Å¢Å¢Å¢Å¢Å¢Å¢Å¢Å¢Å¢Å¢Å¢Å¡Å¢Å£": 1505,
      "Å¢Å¢Å¢Åľ": 1506,
      "Ã¢": 1507,
      "Å¢Å¢Å¢Å¢Å¢Å¢Å¢Å¢Å¢Å¢Å¢Å¢Å¢Åŀ": 1508,
      "Å¡Å¡Å¢Å¢Å£": 1509,
      "Å¢Å¢Å¢Å¢Å¢Å¢Å¢Å¢Å¢Å¢Å¢Å¢Å¢Å¢Å¢Å¢Å¢Å¢Å¢Å¢Å¢Å¢Å¢Å¢Å¢Å¢Å¢Å¢Å¢Å¢Å¢Å¡Å¢Å£": 1510,
      "Å¢Å¢Å¢Å£Åł": 1511,
      "Å¢Å£Å£Å¢Å¡": 1512,
      "ÅŁÅ£Åł": 1513,
      "ÅĻÅ¨": 1514,
      "Å£Å£Å¥": 1515,
      "Å¢Å¡Å¡Åł": 1516,
      "Å¢Å¢Å¢Å¢Å¢Å¢Å¢Å¢Å¢Å¢Å¢Å¢Å¢Å¢Å¢Å¢Å¢Å¢Å¢Å¢Å¢Å¢Å¢Å¢Å£Å¢Å¢Å¢Å¢Å¢Å¡": 1517,
      "ÅľÅª": 1518,
      "Å¡Å£Åŀ": 1519,
      "Å¢Å¢Å¢Å¢Å¢Å¢Å¢Å¢Å¢Å¢Å¢Å¢Å¢Å¢Å¢Å¢Å¢Å¢Å¢Å¢Å¢Å¢Å¢Å¢Å¢Å¢Å£Å¢Å¢Å£": 1520,
      "Å¢Å¢Å¢Å¢Å¢Å¢Å¢Å¢Å¢Å¢Å¢Å¢Å¢Å¢Å¢Å¢Å¢Å¢Å¢Å¢Å¢Å¢Å¢Å¢Å¢Å¢Å¢Å¢Å¢Å¢Å¢Å¢Å¢Å¢Å¢Å¢Å¢Å¢Å¢Å¢Å¢Å¢Å¢Å¢Å¢Å¢Å¢Å¢Å¢Å¢Å¢Å¢Å¢Å¢Å¢Å¢Å¢Å¢Å¢Å¢Å¢Å¢Å¢Å¢Å¢Å¢Å¢Å¢Å¢Å¢Å¢Å¢Å¢Å¢Å¢Å¢Å¢Å¢Å¢Å¢Å¢Å¢Å¢Å¢Å¢Å¢Å¢Å¢Å¢Å¢Å¢Å¢Å¢Å¢Å¢Å¢Å¢Å¢Å¢Å¢Å¢Å¢Å¢Å¢Å¢Å¢Å¢Å¢Å¢Å¢Å¢Å¢Å¢Å¢Å¢Å¢Å¢Å¢Å¢Å¢Å¢Å¢Å¢Å¢Å¢Å¢Å¢Å¢Å¢Å¢Å¢Å¢Å¢Å¢Å¢Å¢Å¢Å¢Å¢Å¢Å¢Å¢Å¢Å¢Å¢Å¢Å¢Å¢Å¢Å¢Å¢Å¢Å¢Å¢Å¢Å¢Å¢Å¢Å¢Å¢Å¢Å¢Å¢Å¢Å¢Å¢Å¢Å¢Å¢Å¢Å¢Å¢Å¢Å¢Å¢Å¢Å¢Å¢Å¢Å¢Å¢Å¢Å¢Å¢Å¢Å¢Å¢Å¢Å¢Å¢Å¢Å¢Å¢Å¢Å¢Å¢Å¢Å¢Å¢Å¢Å¢Å¢Å¢Å¢Å¢Å¢Å¢Å¢Å¢Å¢Å¢Å¢Å¢Å¢Å¢Å¢Å¢Å¢Å¢Å¢Å¢Å¢Å¢Å¢Å¢Å¢Å¢Å¢Å¢Å¢Å¢Å¢Å¢Å¢Å¢Å¢Å¢Å¢Å¢Å¢Å¢Å¢Å¢Å¢Å¢Å¢Å¢Å¢Å¢Å¢Å¢Å¢Å¢Å¢Å¢Å¢Å¢Å¢Å¢Å¢Å¢Å¢Å¢Å¢Å¢Å¢Å¢Å¢Å¢Å¢Å¢Å¢Å¢Å¢Å¢Å¢Å¢Å¢Å¢Å¢Å¢Å¢Å¢Å¢Å¢Å¢Å¢Å¢Å¢Å¢Å¢Å¢Å¢Å¢Å¢Å¢Å¢Å¢Å¢Å¢Å¢Å¢Å¢Å¢Å¢Å¢Å¢Å¢Å¢Å¢Å¢Å¢Å¢Å¢Å¢Å¢Å¢Å¢Å¢Å¢Å¢Å¢Å¢Å¢Å¢Å¢Å¢Å¢Å¢Å¢Å¢Å¢Å¢Å¢Å¢Å¢Å¢Å¢Å¢Å¢Å¢Å¢Å¢Å¢Å¢Å¢Å¢Å¢Å¢Å¢Å¢Å¢Å¢Å¢Å¢Å¢Å¢Å¢Å¢Å¢Å¢Å¢Å¢Å¢Å¢Å¢Å¢Å¢Å¢Å¢Å¢Å¢Å¢Å¢Å¢Å¢Å¢Å¢Å¢Å¢Å¢Å¢Å¢Å¢Å¢Å¢Å¢Å¢Å¢Å¢Å¢Å¢Å¢Å¢Å¢Å¢Å¢Å¢Å¢Å¢Å¢Å¢Å¢Å¢Å¢Å¢Å¢Å¢Å¢Å¢Å¢Å¢Å¢Å¢Å¢Å¢": 1521,
      "Å¢Å¹": 1522,
      "Å¥Å¡Åł": 1523,
      "ÃŁ": 1524,
      "Ãł": 1525,
      "Å¢Å¢Å¢Å¢Å¢Å¢Å¢Å¢Å¢Å¢Å¢Å¢Å¢Å¢Å¢Å¢Å¢Å¢Å¢Å¢Å¢Å¢Å¢Å¢Å¢Å£Å¤": 1526,
      "Å¬Å¦": 1527,
      "Å¢Å¢Å¢Å¤Å£": 1528,
      "Å¢Å¢Å¢Å¢Å¢Å¢Å¢Å¢Å¢Å¢Å¢Å¢Å¢Å¢Å¢Å¢Å¢Å¢Å¢Å¢Å¢Å¢Å¢Å¢Å¢Å¢Å¤Å¡": 1529,
      "ÅĺÅ§": 1530,
      "Å¢Å¢Å¢Å¢Å¢Å¢Å¢Å¢Å¢Å¢Å¢Å¢Å¢Å¢Å¢Å¢Å¢Å¢Å¢Å¢Å¢Å¢Å¢Å¢Å¢Å¢Å¢Å¢Å¢Å¢Å¢Å¢Å¢Å¢Å¢Å¢Å¢Å¢Å¢Å¢Å¢Å¢Å¢Å¢Å¢Å¢Å¢Å¢Å¢Å¢Å¢Å¢Å¢Å¢Å¢Å¢Å¢Å¢Å¢Å¢Å¢Å¢Å¢Å¢Å¢Å¢Å¢Å¢Å¢Å¢Å¢Å¢Å¢Å¢Å¢Å¢Å¢Å¢Å¢Å¢Å¢Å¢Å¢Å¢Å¢Å¢Å¢Å¢Å¢Å¢Å¢Å¢Å¢Å¢Å¢Å£Å¢Å¢Å¢Å¢Å¢Å¢Å¢Å¢Å¢Å¢Å¢Å¢Å¢Å¢Å¢Å¢Å¢Å¢Å¢Å¢Å¢Å¢Å¢Å¢Å¢Å¢Å¢Å¢Å¢Å¢Å¢Å¡": 1531,
      "ÅĻÅª": 1532,
      "Å¢Å¢Å¢Å¢Å¢Å¢Å¢Å¢Å¢Å¢Å¢Å¢Å¢Å¢Å¢Å¢Å¢Å¢Å¢Å¢Å¢Å¢Å¢Å¢Å¢Å¢Å¢Å¢Å¢Å¡Å¡Å£": 1533,
      "Å¥Å£Å¤": 1534,
      "Å¢Å¢Å¢Å¢Å¢Å¢Å¢Å¢Å¢Å¢Å¢Å¢Å¢Å¢Å¢Å¢Å¢Å¢Å¢Å¢Å¢Å¢Å¢Å£Å¢Å¡": 1535,
      "Å©Åļ": 1536,
      "Å¢Å¥Å¥": 1537,
      "Å¢Å¢Å¢Å¢Å¢Å¢Å¢Å¢Å¢Å¢Å¢Å¢Å¢Å¢Å¢Å¢Å¢Å¢Å¢Å¢Å¢Å£Å¢Å¢Å¢Å¢Å¢Å¢Å¢Å¢Å¢Å£": 1538,
      "ÄŁÅ¢Å¢Å¢Å¢Å¢Å¢Å¢Å¢Å¢Å¢Å¢Å¢Å¢Å¢Å¢Å¢Å¢Å¢": 1539,
      "Ç«": 1540,
      "Å¢Å¢Å¡Å¡Å£": 1541,
      "Å¢Å¢Å¢Å¢Å¢Å¢Å¢Å¢Å¢Å¢Å¢Å¢Å¢Å¢Å¢Å¢Å¢Å¢Å¢Å¢Å¢Å¢Å¢Å¢Å¢Å¤Å£": 1542,
      "Å¤Å¤Å¤": 1543,
      "Å¢Å¢Å¢Å¢Å¢Å¢Å¢Å¢Å¢Å¢Å¢Å¢Å¢Å¦": 1544,
      "ÅŁÅĽ": 1545,
      "Å¢Å¡Å¡Å¢Å£": 1546,
      "Å¢Å¤Å¦": 1547,
      "ÅĿÅª": 1548,
      "Å¬Åŀ": 1549,
      "ÅłÅ£Å¢Å£": 1550,
      "Å¢Å¢Å¢Å¤Å¡": 1551,
      "Å¢Å¡Åŀ": 1552,
      "Å¢Åº": 1553,
      "Å¢Å¢Å¢Å¢Å¢Å¢Å¢Å¢Å¢Å¢Å¢Å¢Å¢Å¢Å¢Å¢Å¢Å¢Å¢Å¢Å¢Å¢Å¢Å¢Å¢Å¢Å¢Å¢Å¢Å¢Å¢Å£Å¢Å¢Å¢Å¢Å¢Å¢Å¢Å¢Å¢Å¢Å¢Å¢Å¢Å¢Å¢Å¢Å¢Å¢Å¢Å¢Å¢Å¢Å¢Å¢Å¢Å¢Å¢Å¢Å¢Å¢Å¢Å¢Å¢Å¢Å¢Å¢Å¢Å¢Å¢Å¢Å¢Å¢Å¢Å¢Å¢Å¢Å¢Å¢Å¢Å¢Å¢Å¢Å¢Å¢Å¢Å¢Å¢Å¢Å¢Å¢Å¢Å¢Å¢Å¢Å¢Å¢Å¢Å¢Å¢Å¢Å¢Å¢Å¢Å¢Å¢Å¢Å¢Å¢Å¢Å¢Å¢Å¢Å¢Å¢Å¢Å¢Å¢Å¢Å¢Å¢Å¢Å¢Å¢Å¢Å¢Å£": 1554,
      "ÅĹÅ¥": 1555,
      "Å¢Å¢Å¢Å¢Å¢Å¢Å¢Å¢Å¢Å¢Å¢Å¢Å¢Å¢Å¢Å¢Å¢Å¢Å¢Å¢Å¢Å¢Å¢Å¢Å¢Å£Å¢Å¢Å¢Å£": 1556,
      "Å¢Å¢Å¢Å¢Å¢Å¢Å¢Å¢Å¢Å¢Å¢Å¢Å¢Å¢Å¢Å¢Å¢Å¢Å¢Å¢Å¢Å¢Å¢Å¢Å¡Å¢Å¢Å¢Å¢Å¢Å£": 1557,
      "Å¡Å£Å¦": 1558,
      "Å¢Å¼": 1559,
      "ÇŃ": 1560,
      "Å¢Å¢Å¢Å¢Å¢Å¢Å¢Å¢Å¢Å¢Å¢Å¢Å¢Å¢Å¢Å¢Å¢Å¢Å¢Å¢Å¢Å¢Å¢Å¢Å¢Å£Å¢Å¢Å£": 1561,
      "ÅŃÅ¥": 1562,
      "Å¢Å¢Å¢Å¢Å¢Å¢Å¢Å¢Å¢Å¢Å¢Å¢Å¢Å¢Å¢Å¢Å¢Å¢Å¢Å¢Å¢Å¢Å¢Å¢Å¢Å¢Å¢Å¢Å¢Å¢Å¢Å¢Å¢Å¢Å¢Å¢Å¢Å¢Å¢Å¢Å¢Å¢Å¢Å¢Å¢Å¢Å¢Å¢Å¢Å¢Å¢Å¢Å¢Å¢Å¢Å¢Å¢Å¢Å¢Å¢Å¢Å¢Å¢Å¢Å¢Å¢Å¢Å¢Å¢Å¢Å¢Å¢Å¢Å¢Å¢Å¢Å¢Å¢Å¢Å¢Å¢Å¢Å¢Å¢Å¢Å¢Å¢Å¢Å¢Å¢Å¢Å¢Å¢Å¢Å¢Å¢Å¢Å¢Å¢Å¢Å¢Å¢Å¢Å¢Å¢Å¢Å¢Å¢Å¢Å¢Å¢Å¢Å¢Å¢Å¢Å¢Å¢Å¢Å¢Å¢Å¢Å¢Å¢Å¢Å¢Å¢Å¢Å¢Å¢Å¢Å¢Å¢Å¢Å¢Å¢Å¢Å¢Å¢Å¢Å¢Å¢Å¢Å¢Å¢Å¢Å¢Å¢Å¢Å¢Å¢Å¢Å¢Å¢Å¢Å¢Å¢Å¢Å¢Å¢Å¢Å¢Å¢Å¢Å¢Å¢Å¢Å¢Å¢Å¢Å¢Å¢Å¢Å¢Å¢Å¢Å¢Å¢Å¢Å¢Å¢Å¢Å¢Å¢Å¢Å¢Å¢Å¢Å¢Å¢Å¢Å¢Å¢Å¢Å¢Å¢Å¢Å¢Å¢Å¢Å¢Å¢Å¢Å¢Å¢Å¢Å¢Å¢Å¢Å¢Å¢Å¢Å¢Å¢Å¢Å¢Å¢Å¢Å¢Å¢Å¢Å¢Å¢Å¢Å¢Å¢Å¢Å¢Å¢Å¢Å¢Å¢Å¢Å¢Å¢Å¢Å¢Å¢Å¢Å¢Å¢Å¢Å¢Å¢Å¢Å¢Å¢Å¢Å¢Å¢Å¢Å¢Å¢Å¢Å¢Å¢Å¢Å¢Å¢Å¢Å¢Å¢Å¢Å¢Å¢Å¢Å¢Å¢Å¢Å¢Å¢Å¢Å¢Å¢Å¢Å¢Å¢Å¢Å¢Å¢Å¢Å¢Å¢Å¢Å¢Å¢Å¢Å¢Å¢Å¢Å¢Å¢Å¢Å¢Å¢Å¢Å¢Å¢Å¢Å¢Å¢Å¢Å¢Å¢Å¢Å¢Å¢Å¢Å¢Å¢Å¢Å¢Å¢Å¢Å¢Å¢Å¢Å¢Å¢Å¢Å¢Å¢Å¢Å¢Å¢Å¢Å¢Å¢Å¢Å¢Å¢Å¢Å¢Å¢Å¢Å¢Å¢Å¢Å¢Å¢Å¢Å¢Å¢Å¢Å¢Å¢Å¢Å¢Å¢Å¢Å¢Å¢Å¢Å¢Å¢Å¢Å¢Å¢Å¢Å¢Å¢Å¢Å¢Å¢Å¢Å¢Å¢Å¢Å¢Å¢Å¢Å¢Å¢Å¢Å¢Å¢Å¢Å¢Å¢Å¢Å¢Å¢Å¢Å¢Å¢Å¢Å¢Å¢Å¢Å¢Å¢Å¢Å¢Å¢Å¢Å¢Å¢Å¢Å¢Å¢Å¢Å¢Å¢Å¢Å¢Å¢Å¢Å¢Å¢Å¢Å¢Å¢Å¢Å¢Å¢Å¢Å¢Å¢Å¢Å¢Å¢Å¢Å¢Å¢Å¢Å¢Å¢Å¢Å¢Å¢Å¢Å¢Å¢Å¢Å¢Å¢Å¢Å¢Å¢Å¢Å¢Å¢Å¢Å¢Å¢Å¢Å¢Å¢Å¢Å¢Å¢Å¢Å¢Å¢Å¢Å¢Å¢Å¢Å¢Å¢Å¢Å¢Å¢Å¢Å¢Å¢Å¢Å¢Å¢Å¢Å¢Å¢Å¢Å¢Å¢Å¢Å¢Å¢Å¢Å¢Å¢Å¢Å¢Å¢Å¢Å¢Å¢Å¢Å¢Å¢Å¢Å¢Å¢Å¢Å¢Å¢Å¢Å¢Å¢Å¢Å¢Å¢Å¢Å¢Å¢Å¢Å¢Å¢Å¢Å¢Å¢Å¢Å¢Å¢Å¢Å¢Å¢Å¢Å¢Å¢Å¢Å¢Å¢Å¢Å¢Å¢Å¢Å¢Å¢Å¢Å¢Å¢Å¢Å¢Å¢Å¢Å¢Å¢Å¢Å¢Å¢Å¢Å¢Å¢Å¢Å¢Å¢Å¢Å¢Å¢Å¢Å¢Å¢Å¢Å¢Å¢Å¢Å¢Å¢Å¢Å¢Å¢Å¢Å¢Å¢Å¢Å¢Å¢Å¢Å¢Å¢Å¢Å¢Å¢Å¢Å¢Å¢Å¢Å¢Å¢Å¢Å¢Å¢Å¢Å¢Å¢Å¢Å¢Å¢Å¢Å¢Å¢Å¢Å¢Å¢Å¢Å¢Å¢Å¢Å¢Å¢Å¢Å¢Å¢Å¢Å¢Å¢Å¢Å¢Å¢Å¢Å¢Å¢Å¢Å¢Å¢Å¢Å¢Å¢Å¢Å¢Å¢Å¢Å¢Å¢Å¢Å¢Å¢Å¢Å¢Å¢Å¢Å¢Å¢Å¢Å¢Å¢Å¢Å¢Å¢Å¢Å¢Å¢Å¢Å¢Å¢Å¢Å¢Å¢Å¢Å¢Å¢Å¢Å¢Å¢Å¢Å¢Å¢Å¢Å¢Å¢Å¢Å¢Å¢Å¢Å¢Å¢Å¢Å¢Å¢Å¢Å¢Å¢Å¢Å¢Å¢Å¢Å¢Å¢Å¢Å¢Å¢Å¢Å¢Å¢Å¢Å¢Å¢Å¢Å¢Å¢Å¢Å¢Å¢Å¢Å¢Å¢Å¢Å¢Å¢Å¢Å¢Å¢Å¢Å¢Å¢Å¢Å¢Å¢Å¢Å¢Å¢Å¢Å¢Å¢Å¢Å¢Å¢Å¢Å¢Å¢Å¢Å¢Å¢Å¢Å¢Å¢Å¢Å¢Å¢Å¢Å¢Å¢Å¢Å¢Å¢Å¢Å¢Å¢Å¢Å¢Å¢Å¢Å¢Å¢Å¢Å¢Å¢Å¢Å¢Å¢Å¢Å¢Å¢Å¢Å¢Å¢Å¢Å¢Å¢Å¢Å¢Å¢Å¢Å¢Å¢Å¢Å¢Å¢Å¢Å¢Å¢Å¢Å¢Å¢Å¢Å¢Å¢Å¢Å¢Å¢Å¢Å¢Å¢Å¢Å¢Å¢Å¢Å¢Å¢Å¢Å¢Å¢Å¢Å¢Å¢Å¢Å¢Å¢Å¢Å¢Å¢Å¢Å¢Å¢Å¢Å¢Å¢Å¢Å¢Å¢Å¢Å¢Å¢Å¢Å¢Å¢Å¢Å¢Å¢Å¢Å¢Å¢Å¢Å¢Å¢Å¢Å¢Å¢Å¢Å¢Å¢Å¢Å¢Å¢Å¢Å¢Å¢Å¢Å¢Å¢Å¢Å¢Å¢Å¢Å¢Å¢Å¢Å¢Å¢Å¢Å¢Å¢Å¢Å¢Å¢Å¢Å¢Å¢Å¢Å¢Å¢Å¢Å¢Å¢Å¢Å¢Å¢Å¢Å¢Å¢Å¢Å¢Å¢Å¢Å¢Å¢Å¢Å¢Å¢Å¢Å¢Å¢Å¢Å¢Å¢Å¢Å¢Å¢Å¢Å¢Å¢Å¢Å¢Å¢Å¢Å¢Å¢Å¢Å¢Å¢Å¢Å¢Å¢Å¢Å¢Å¢Å¢Å¢Å¢Å¢Å¢Å¢Å¢Å¢Å¢Å¢Å¢Å¢Å¢Å¢Å¢Å¢Å¢Å¢Å¢Å¢Å¢Å¢Å¢Å¢Å¢Å¢Å¢Å¢Å¢Å¢Å¢Å¢Å¢Å¢Å¢Å¢Å¢Å¢Å¢Å¢Å¢Å¢Å¢Å¢Å¢Å¢Å¢Å¢Å¢Å¢Å¢Å¢Å¢Å¢Å¢Å¢Å¢Å¢Å¢Å¢Å¢Å¢Å¢Å¢Å¢Å¢Å¢Å¢Å¢Å¢Å¢Å¢Å¢Å¢Å¢Å¢Å¢Å¢Å¢Å¢Å¢Å¢Å¢Å¢Å¢Å¢Å¢Å¢Å¢Å¢Å¢Å¢Å¢Å¢Å¢Å¢Å¢Å¢Å¢Å¢Å¢Å¢Å¢Å¢Å¢Å¢Å¢Å¢Å¢Å¢Å¢Å¢Å¢Å¢Å¢Å¢Å¢Å¢Å¢Å¢Å¢Å¢Å¢Å¢Å¢Å¢Å¢Å¢Å¢Å¢Å¢Å¢Å¢Å¢Å¢Å¢Å¢Å¢Å¢Å¢Å¢Å¢Å¢Å¢Å¢Å¢Å¢Å¢Å¢Å¢Å¢Å¢Å¢Å¢Å¢Å¢Å¢Å¢Å¢Å¢Å¢Å¢Å¢Å¢Å¢Å¢Å¢Å¢Å¢Å¢Å¢Å¢Å¢Å¢Å¢Å¢Å¢Å¢Å¢Å¢Å¢Å¢Å¢Å¢Å¢Å¢Å¢Å¢Å¢Å¢Å¢Å¢Å¢Å¢Å¢Å¢Å¢Å¢Å¢Å¢Å¢Å¢Å¢Å¢Å¢Å¢Å¢Å¢Å¢Å¢Å¢Å¢Å¢Å¢Å¢Å¢Å¢Å¢Å¢Å¢Å¢Å¢Å¢Å¢Å¢Å¢Å¢Å¢Å¢Å¢Å¢Å¢Å¢Å¢Å¢Å¢Å¢Å¢Å¢Å¢Å¢Å¢Å¢Å¢Å¢Å¢Å¢Å¢Å¢Å¢Å¢Å¢Å¢Å¢Å¢Å¢Å¢Å¢Å¢Å¢Å¢Å¢Å¢Å¢Å¢Å¢Å¢Å¢Å¢Å¢Å¢Å¢Å¢Å¢Å¢Å¢Å¢Å¢Å¢Å¢Å¢Å¢Å¢Å¢Å¢Å¢Å¢Å¢Å¢Å¢Å¢Å¢Å¢Å¢Å¢Å¢Å¢Å¢Å¢Å¢Å¢Å¢Å¢Å¢Å¢Å¢Å¢Å¢Å¢Å¢Å¢Å¢Å¢Å¢Å¢Å¢Å¢Å¢Å¢Å¢Å¢Å¢Å¢Å¢Å¢Å¢Å¢Å¢Å¢Å¢Å¢Å¢Å¢Å¢Å¢Å¢Å¢Å¢Å¢Å¢Å¢Å¢Å¢Å¢Å¢Å¢Å¢Å¢Å¢Å¢Å¢Å¢Å¢Å¢Å¢Å¢Å¢Å¢Å¢Å¢Å¢Å¢Å¢Å¢Å¢Å¢Å¢Å¢Å¢Å¢Å¢Å¢Å¢Å¢Å¢Å¢Å¢Å¢Å¢Å¢Å¢Å¢Å¢Å¢Å¢Å¢Å¢Å¢Å¢Å¢Å¢Å¢Å¢Å¢Å¢Å¢Å¢Å¢Å¢Å¢Å¢Å¢Å¢Å¢Å¢Å¢Å¢Å¢Å¢Å¢Å¢Å¢Å¢Å¢Å¢Å¢Å¢Å¢Å¢Å¢Å¢Å¢Å¢Å¢Å¢Å¢Å¢Å¢Å¢Å¢Å¢Å¢Å¢Å¢Å¢Å¢Å¢Å¢Å¢Å¢Å¢Å¢Å¢Å¢Å¢Å¢Å¢Å¢Å¢Å¢Å¢Å¢Å¢Å¢Å¢Å¢Å¢Å¢Å¢Å¢Å¢Å¢Å¢Å¢Å¢Å¢Å¢Å¢Å¢Å¢Å¢Å¢Å¢Å¢Å¢Å¢Å¢Å¢Å¢Å¢Å¢Å¢Å¢Å¢Å¢Å¢Å¢Å¢Å¢Å¢Å¢Å¢Å¢Å¢Å¢Å¢Å¢Å¢Å¢Å¢Å¢Å¢Å¢Å¢Å¢Å¢Å¢Å¢Å¢Å¢Å¢Å¢Å¢Å¢Å¢Å¢Å¢Å¢Å¢Å¢Å¢Å¢Å¢Å¢Å¢Å¢Å¢Å¢Å¢Å¢Å¢Å¢Å¢Å¢": 1563,
      "Å¢ÅŁÅŁ": 1564,
      "Å«Åļ": 1565,
      "ÅĻÅĿ": 1566,
      "Ç¬": 1567,
      "ÅĺÅŀ": 1568,
      "ÅĻÅ©": 1569,
      "Ãŀ": 1570,
      "Å¢Å¢Å¢Å¢Å¢Å¢Å¢Å¢Å¢Å¢Å¢Å¢Å¢Å¢Å¢Å¢Å¢Å¢Å¢Å¢Å¢Å¢Å¢Å¢Å¢Å¢Å¢Å¢Å¢Å¢Å¢Å£Å¢Å¢Å¢Å¢Å¢Å¢Å¢Å¢Å¢Å¢Å¢Å¢Å¢Å¢Å¢Å¢Å¢Å¢Å¢Å¢Å¢Å¢Å¢Å¢Å¢Å¢Å¢Å¢Å¢Å¢Å¢Å£Å¢Å¢Å¢Å¢Å¢Å¢Å¢Å¢Å¢Å¢Å¢Å¢Å¢Å¢Å¢Å¢Å¢Å¢Å¢Å¢Å¢Å¢Å¢Å¢Å¢Å¢Å¢Å¢Å¢Å¢Å¢Å¢Å¢Å¢Å¢Å¢Å¢Å¢Å¢Å¢Å¢Å¢Å¢Å¢Å¢Å¢Å¢Å¢Å¢Å¢Å¢Å¢Å¢Å¢Å¢Å¢Å¢Å¢Å¢Å¢Å¢Å¢Å¢Å¡": 1571,
      "Å®Åł": 1572,
      "Å¢Å¢Å¢Å¢Å¢Å¢Å¢Å¢Å¢Å¢Å¢Å¢Å¢Å¢Å¢Å¢Å¢Å¢Å¢Å¢Å¢Å¢Å¢Å¢Å¡Å¢Å£": 1573,
      "Å§Åļ": 1574,
      "Å¢Å¢Å¢Å¢Å¢Å¢Å¢Å¢Å¢Å¢Å¢Å¢Å¢Å¢Å¢Å¢Å¢Å¢Å¢Å¢Å¢Å¢Å¢Å¢Å¢Å¢Å¢Å¢Å¢Å¢Å¢Å£Å¢Å¢Å¢Å¢Å¢Å¢Å¢Å¢Å¢Å¢Å¢Å¢Å¢Å¢Å¢Å¢Å¢Å¢Å¢Å¢Å¢Å¢Å¢Å¢Å¢Å¢Å¢Å¢Å¢Å¢Å¢Åł": 1575,
      "Å«ÅĽ": 1576,
      "Å¢ÅŀÅ¤": 1577,
      "ÅķÅ¤": 1578,
      "Å¢Å¢Å£Å¢Å¢Å¢Å¡": 1579,
      "Å¢Å¢Å¢Å¢Å¢Å¢Å¢Å¢Å¢Å¢Å¢Å¢Å¢Å¢Å¢Å¢Å¢Å¢Å¢Å¢Å¢Å¢Å¢Å¢Å¢Å¡Åł": 1580,
      "Å£Åŀ": 1581,
      "Å¢Å¢Å¢Å¢Å¢Å¢Å¢Å¢Å¢Å¢Å¢Å¢Å¢Å¢Å¢Å¢Å¢Å¢Å¢Å¢Å¢Å¢Å¢Å¢Å¢Å£Å¢Å¢Å¢Å¡": 1582,
      "Å¢ÅłÅ£Å¡": 1583,
      "Å¢Å§Å¡": 1584,
      "Å¨Åļ": 1585,
      "ÅĶÅ¡": 1586,
      "Å¢Å¢Å¢Å¢Å¢Å¢Å¢Å¢Å¢Å¢Å¢Å¢Å¢Å¢Å¢Å¢Å¢Å¢Å¢Å¢Å¢Å¢Å¢Å¢Å¢Å¢Å¢Å¢Å¢Å¢Å¢Å£Å¢Å¢Å¢Å¢Å¢Å¢Å¢Å¢Å¢Å¢Å¢Å¢Å¢Å¢Å¢Å¢Å¢Å¢Å¢Å¢Å¢Å¢Å¢Å¢Å¢Å¢Å¢Å¢Å¢Å¢Å¢Å¢Å¢Å¢Å¢Å¢Å¢Å¢Å¢Å¢Å¢Å¢Å¢Å¢Å¢Å¢Å¢Å¢Å¢Å¢Å¢Å¢Å¢Å¢Å¢Å¢Å¢Å¢Å¢Å¢Å¢Å¢Å¢Å¢Å¢Å¢Å¢Å¢Å¢Å¢Å¢Å¢Å¢Å¢Å¢Å¢Å¢Å¢Å¢Å¢Å¢Å¢Å¢Å¢Å¢Å¢Å¢Å¢Å¢Å¢Å¢Å¢Å¢Å¢Å¢Å¢": 1587,
      "Å«Åľ": 1588,
      "Å¢Å¾": 1589,
      "Å¢Åĭ": 1590,
      "Å¢ÅĿÅ¡": 1591,
      "Å¢Å¢Å¢Å¢Å¢Å¢Å¢Å¢Å¢Å¢Å¢Å¢Å¢Å¢Å¢Å¢Å¢Å¢Å¢Å¢Å¢Å¢Å¢Å¢Å¢Å¢Å¢Å¢Å¢Å¢Å¢Å¢Å¢Å¢Å¢Å¢Å¢Å¢Å¢Å¢Å¢Å¢Å¢Å¢Å¢Å¢Å¢Å¢Å¢Å¢Å¢Å¢Å¢Å¢Å¢Å¢Å¢Å¢Å¢Å¢Å¢Å¢Å¢Å¢Å¢Å¢Å¢Å¢Å¢Å¢Å¢Å¢Å¢Å¢Å¢Å¢Å¢Å¢Å¢Å¢Å¢Å¢Å¢Å¢Å¢Å¢Å¢Å¢Å¢Å¢Å¢Å¢Å¢Å¢Å£": 1592,
      "Å¢Å¢Å¢Å¢Å¢Å¢Å¢Å¢Å¢Å¢Å¢Å¢Å¢Å¢Å¢Å¢Å¢Å¢Å¢Å¢Å¢Å¢Å¢Å¢Å£Å¢Å¡": 1593,
      "Ç®": 1594,
      "Å°Å¡": 1595,
      "Å¢Å¤Å¡Å¡": 1596,
      "Å¢Å¢Å¢Å£Å¢Å¢Å¡": 1597,
      "Å¢Å¢Å¢Å¢Å¢Å¢Å¢Å¢Å¢Å¢Å¢Å¢Å¢Å¢Å¢Å¢Å¢Å¢Å¢Å¢Å¢Å¢Å¢Å¢Å¢Å¢Å¢Å¢Å¢Å¢Å¡Å¢Å¢Å¢Å¢Å¢Å¢Å¢Å¢Å¢Å¢Å¢Å¢Å¢Å¢Å¢Å¢Å¢Å¢Å¢Å¢Å¢Å¢Å¢Å¢Å¢Å¢Å¢Å¢Å¢Å¢Å¢Å¡": 1598,
      "Å¢Å¦Å¤": 1599,
      "Ãľ": 1600,
      "Å¢Å¤Å£Å£": 1601,
      "Å¢Å¢Å¢Å¢Å¢Å¥": 1602,
      "Å¤Å¡Å¢Å¡": 1603,
      "Å¢Å¢Å¢Å¢Å¢Å¢Å¢Å¢Å¢Å¢Å¢Å¢Å¢Å¢Å¢Å¢Å¢Å¢Å¢Å¢Å¢Å¢Å¢Å¢Å¢Åĺ": 1604,
      "ÅĸÅł": 1605,
      "Å¢Å¦Åł": 1606,
      "Å£Å¦": 1607,
      "Å¢Å¢Å¢Å¢Å¢Å¢Å¢Å¢Å¢": 1608,
      "Å¢Å¢Å¢Å¢Å¢Å¢Å¢Å¢Å¢Å¢Å¢Å¢Å¢Å¢Å¢Å¢Å¢Å¢Å¢Å¢Å¢Å¢Å¢Å¢Å¢Å£Å£Å¡": 1609,
      "Å¢Å¢Å¢Å¢Å¢Å¢Å¢Å¢Å¢Å¢Å¢Å¢Å¢Å¢Å¢Å¢Å¢Å¢Å¢Å¢Å¢Å¢Å¢Å¢Å¢Å¢Å¢Å¢Å¢Å¢Å¢Å¢Å¢Å¢Å¢Å¢Å¢Å¢Å¢Å¢Å¢Å¢Å¢Å¢Å¢Å¢Å¢Å¢Å¢Å¢Å¢Å¢Å¢Å¢Å¢Å¢Å¢Å¢Å¢Å¢Å¢Å¢Å¢Å¢Å¢Å¡": 1610,
      "Å¢Å¢Å¢Å¢Å¢Å¢Å¢Å¢Å¢Å¢Å¢Å¢Å¢Å¢Å¢Å¢Å¢Å¢Å¢Å¢Å¢Å¢Å¢Å¢Å¢Å¡Å¢Å¢Å¢Å£": 1611,
      "ÅłÅłÅł": 1612,
      "Å¢Å¢Å¢Å¢Å¢Å¢Å¢Å¢Å¢Å¢Å¢Å¢Å¢Å¢Å¢Å¢Å¢Å¢Å¢Å¢Å¢Å¢Å¢Å¢Å¢Å¢Å¢Å¢Å¢Å¢Å¢Å£Å¢Å£": 1613,
      "Å«Å¨": 1614,
      "Å¢Å¢Å¢Å¢Å¢Å¢Å¢Å¢Å¢Å¢Å¢Å¢Å¢Å¢Å¢Å¢Å¢Å¢Å¢Å¢Å¢Å¢Å¢Å¢Å¢Å¡Å¢Å¢Å¢Å¡": 1615,
      "Å¢ÅłÅŀ": 1616,
      "Å¡Å¡Å¡Å¡": 1617,
      "ÃĿ": 1618,
      "ÅĽÅĽ": 1619,
      "Å¢Å¢Å¢Å¢Å¢Å¢Å¢Å¢Å¢Å¢Å¢Å¢Å¢Å¢Å¢Å¢Å¢Å¢Å¢Å¢Å¢Å¢Å¢Å¢Å¢Å¢Å¢Å£Å¢Å£": 1620,
      "ÅªÅ©": 1621,
      "Ç¯": 1622,
      "Å¢Å¢Å¢Å£Å¡Å¢Å£": 1623,
      "Å¤Å£Å¢Å¡": 1624,
      "Å¢Å¢Å¢Å¢Å¢Å¢Å¢Å¢Å¢Å¢Å¢Å¢Å¢Å¢Å¢Å¢Å¢Å¢Å¢Å¢Å¢Å¢Å¢Å¢Å¢Å¢Å¢Å¢Å¢Å¢Å¢Å¢Å¢Å¢Å¢Å¢Å¢Å¢Å¢Å¢Å¢Å¢Å¢Å¢Å¢Å¢Å¢Å¢Å¢Å¢Å¢Å¢Å¢Å¢Å¢Å¢Å¢Å¢Å¢Å¢Å¢Å¢Å¡Å£": 1625,
      "Å¢Å¢Å¢Å¢Å¢Å¢Å¢Å¢Å¢Å¢Å¢Å¢Å¢Å¢Å¢Å¢Å¢Å¢Å¢Å¢Å¢Å¢Å¢Å¢Å¢Å¢Å¢Å¡Å¢Å¡": 1626,
      "Å¢Å¢Å¤Å¤": 1627,
      "Å¢Å¢Å¢Å¢Å¢Å¢Å¢Å¢Å¢Å¢Å¢Å¢Å¢Å¢Å¢Åł": 1628,
      "Å£Å£Å£Å¡": 1629,
      "Å¬Åĺ": 1630,
      "Å¬Å§": 1631,
      "Å¢Å»": 1632,
      "Å¢Å¢Å¢Å¢Å¢Å¢Å¢Å¢Å¢Å¢Å¢Å¢Å¢Å¢Å¢Å¢Å¢Å¢Å¢Å¨": 1633,
      "Å¢Å¢Å¢Å¢Å¢Å¢Å¢Å¢Å¢Å¢Å¢Å¢Å¢Å¢Å¢Å¢Å¢Å¢Å¢Å¢Å¢Å¢Å¢Å¢Å¢Å¢Å¢Å¢Å¢Å¢Å¢Å¢Å¢Å¢Å¢Å¢Å£": 1634,
      "Å¢Å¥Åŀ": 1635,
      "ÅŃÅŁ": 1636,
      "ÅŁÅ¡Åł": 1637,
      "Å¤Å¡Å¢Å£": 1638,
      "Å¢Å¢Å¢Å¢Å¢Å¢Å¢Å¢Å¢Å¢Å¢Å¢Å¢Å¢Å¢Å¢Å¢Å¢Å¢Å¢Å¢Å¢Å¢Å¢Å¢Å¢Å¢Å¢Å¢Å¢Å¢Å¢Å¢Å¢Å¢Å¢Å¡": 1639,
      "Å¢Å¢Å¢Å¢Å¢Å¢Å¢Å¢Å¢Å¢Å¢Å¢Å¢Å¢Å¢Å¢Å¢Å¢Å¢Å¢Å¢Å¢Å¢Å¢Å¢Å¢Å¢Å¢Å¢Å¢Å¢Å¢Å¢Å¢Å¢Å¢Å¢Å¢Å¢Å¢Å¢Å¢Å¢Å¢Å¢Å¢Å¢Å¢Å¢Å¢Å¢Å¢Å¢Å¢Å¢Å¢Å¢Å¢Å¢Å¢Å¢Å¢Å£Å¡": 1640,
      "Å¢Å¢Å¢Å¢Å¢Å¢Å¢Å¢Å¢Å¢Å¢Å¢Å¢Å¢Å¢Å¢Å¢Å¢Å¢Åľ": 1641,
      "Å¢Å½": 1642,
      "Å¯Å¤": 1643,
      "Å¢Å¢Å¢Å¢Å¢Å¢Å¢Å¢Å¢Å¢Å¢Å¢Å¢Å¢Å¢Å¢Å¢Å¢Å¢Å¢Å¢Å¢Å¢Å¢Å¢Å¬": 1644,
      "Å¢Å¢Å¢Å¢Å¢Å¢Å¢Å¢Å¢Å¢Å¢Å¢Å¢Å¢Å¢Å¢Å¢Å¢Å¢Å¢Å¢Å¢Å¢Å¢Å¢Å¢Å§": 1645,
      "Å¢Å¢Å¢Å¢Å¢ÅŁ": 1646,
      "Å¦Åª": 1647,
      "Å¢Å¢Å¢Å¢Å¢Å¢Å¢Å¢Å¢Å¢Å¢Å¢Å¢Å¢Å¢Å¢Å¢Å¢Å¢Å¢Å¢Å¢Å¢Å¢Å£Å¢Å¢Å¢Å¢Å¡": 1648,
      "Ç³": 1649,
      "Å¦Åļ": 1650,
      "Å¢Å¢Å¢Å¢Å¢Å¢Å¢Å¢Å¢Å¢Å¢Å¢Å¢Å¢Å¢Å¢Å¢Å¢Å¢Å¢Å¢Å¢Å¢Å¢Å¢Å£Åł": 1651,
      "Å¢Å¢Å¢Å¢Å¢Å¢Å¢Å¢Å¢Å¢Å¢Å¢Å¢Å¢Å¢Å¢Å¢Å¢Å¢Å¢Å¢Å¢Å¢Å¢Å¢Å¢Å¢Å¢Å¢Å¢Å¢Å¢Å¢Å¢Å¢Å¢Å¢Å¢Å¢Å¢Å¢Å¢Å¢Å¢Å¢Å¢Å¢Å¢Å¢Å¢Å¢Å¢Å¢Å¢Å¢Å¢Å¢Å¢Å¢Å¢Å¢Å¢Å¢Å¢Å¢Å£": 1652,
      "ÃĽ": 1653,
      "Å¢Å¢Å£Å¢Å¢Å¢Å£": 1654,
      "Å¢Å¢Å¢Å¢Å¢Å¢Å¢Å¢Å¢Å¢Å¢Å¢Å¢Å¢Å¡Å¡": 1655,
      "Å¢Å¢Å¢Å¢Å¢Å¢Å¢Å¢Å¢Å¢Å¢Å¢Å¢Å¢Å¢Å¢Å¢Å¢Å¢Å¢Å¡Å¢Å£": 1656,
      "Å¢Å¢Å¢Å¢Å¢Å¢Å¢Å¢Å¤": 1657,
      "Å¢Å¢Å¢Å¢Å¢Å¢Å¢Å¢Å¢Å¢Å¢Å¢Å¢Å¢Å¢Å¢Å¢Å¢Å¢Å¢Å¢Å¢Å¢Å¢Å¢Å¢Å¢Å¢Å¢Å¢Å¢Å¡Å¢Å¡": 1658,
      "Å¢Å¢Åª": 1659,
      "ÅłÅ£Å¢Å¡": 1660,
      "Å¢Å¢Å¢Å¢Å¢Å¢Å¢Å¢Å¢Å¢Å¢Å¢Å¢Å¢Å¢Å¢Å¢Å¢Å¢Å¢Å¢Å¢Å¢Å¢Å¢ÅłÅ£": 1661,
      "Å¢Å¢Å¢Å¢Å¢Å¢Å¢Å¢Å¢Å¢Å¢Å¢Å¢Å¢Å¢Å¢Å¢Å¢Å¢Å¢Å¢Å¢Å¢Å¢Å¢Å¢ÅĿ": 1662,
      "Å«Åĺ": 1663,
      "Å±Å£": 1664,
      "Å¢Å¢Å¢Å¢Å¢Å¢Å¢Å¢Å¢Å¢Å¢Å¢Å¢Å¢Å¢Å¢Å¢Å¢Å¢Å¢Å¢Å¢Å¢Å¢Å¢Å¢Å¢Å¢Å¢Å¢ÅłÅ¡": 1665,
      "Ç±": 1666,
      "Ç°": 1667,
      "ÅŀÅª": 1668,
      "ÅĹÅŁ": 1669,
      "Å¢Å¢Å¢Å¢Å¢Å¢Å¢Å¢Å¢Å¢Å¢Å¢Å¢Å¢Å¢Å¢Å¢Å¢Å¢Å¢Å¢Å¢Å¢Å¢Å£Å¢Å¢Å¢Å¢Å£": 1670,
      "Å¢Å¢Å¢Å¢Å¢Å¢Å¢Å¢Å¢Å¢Å¢Å¢Å¢Å¢Å¢Å¢Å¢Å¢Å¢Å¢Å¢Å¢Å¢Å¢Å¡Å¢Å¢Å¢Å¢Å£": 1671,
      "ÅĵÅ£": 1672,
      "ÅĸÅ¥": 1673,
      "Å¢Å¢Å¢Å¢Å¢Å¢Å¢Å¢Å¢Å¢Å¢Å¢Å¢Å¢Å¢Å¢Å¢Å¢Å¢Å¢Å¢Å¢Å¢Å¢Å¢Å¡Å¤": 1674,
      "Ãļ": 1675,
      "Å¢Å¢Å¢Å¢Å¢Å¢Å¢Å¢Å¢Å¢Å¢Å¢Å¢Å¢Å¢Å¢Å¢Å¢Å¢Å¢Å¢Å¢Å¢Å¢Å¢Å¢Å¢Å¢Å¢Å¢Å¢Å¢Å¢Å¢Å¢Å¢Å¢Å¢Å¢Å¢Å¢Å¢Å¢Å¢Å¢Å¢Å¢Å¢Å¢Å¢Å¢Å¢Å¢Å¢Å¢Å¢Å¢Å¢Å¢Å¢Å¢Å¢Å¢Å¢Å¢Å¢Å¢Å¢Å¢Å¢Å¢Å¢Å¢Å¢Å¢Å¢Å¢Å¢Å¢Å¢Å¢Å¢Å¢Å¢Å¢Å¢Å¢Å¢Å¢Å¢Å¢Å¢Å¢Å¢Å¡": 1676,
      "Å¢Å¢Å¢Å¢Å¢Å¢Å¢Å¢Å¢Å¢Å¢Å¢Å¢Å¢Å¢Å¢Å¢Å¢Å¢Å¢Å¢Å¢Å¢Å¢Å¢Å¢Å¢Å¢Å£Å¢Å¡": 1677,
      "Å¢Å¤Å£Å¡": 1678,
      "Å¢ÅŀÅł": 1679,
      "Å§Åª": 1680,
      "Å¢Å¢Åļ": 1681,
      "Å¢ÅĬ": 1682,
      "Å¡Å¡Å¢Å¢Å¡": 1683,
      "Å¢Å¢Å¢Å¢Å¢Å¢Å¢Å¢Å¢Å¢Å¢Å¢Å¢Å¢Å¢Å¢Å¢Å¢Å¢Å¢Å¢Å¢Å¢Å§": 1684,
      "Å¢ÅŁÅ¦": 1685,
      "ÅĿÅļ": 1686,
      "Å¢Å¢Å¢Å¢Å¢Å¢Å¢Å¢Å¢Å¢Å¢Å¢Å¢Å¢Å¢Å¢Å¢Å¢Å¢Å¢Å¢Å¢Å¢Å¢Å¢Å¢Å¢Å¢Å¢Å¢Å¢Å£Å¢Å¢Å¢Å¢Å¢Å¢Å¢Å¢Å¢Å¢Å¢Å¢Å¢Å¢Å¢Å¢Å¢Å¢Å¢Å¢Å¢Å¢Å¢Å¢Å¢Å¢Å¢Å¢Å¢Å¢Å¢Å¤": 1687,
      "ÅĹÅŃ": 1688,
      "Å¢Å¢Å¢Å¢Å¢Å¢Å¢Å¢Å¢Å¢Å¢Å¢Å¢Å¢Å¢Å¢Å¢Å¢Å¢Å¢Å¢Å¢Å¢Å¢Å¢Å¢Å¢Å¢Å¡Å¢Å£": 1689,
      "ÅĻÅľ": 1690,
      "Å¢Å¢Å¢Å¢Å¢Å¢Å¢Å¢Å¢Å¢Å¢Å¢Å¢Å¢Å¢Å¢Å¢Å¢Å¢Å¢Å¢Å¢Å¢ÅĿ": 1691,
      "ÅĹÅ¦": 1692,
      "Å¢Å¢Å¢Å¢Å¢Å¢Å¢Å¢Å¢Å¢Å¢Å¢Å¢Å¢Å¢Å¤": 1693,
      "ÅĻÅ¬": 1694,
      "Å¢Å¢Å¢Å¢Å¢Å¢Å¢Å¢Å¢Å¢Å¢Å¢Å¢Å¢Å¢Å¢Å¢Å¢Å¢Å¢Å¢Å¢Å¢Å¢Å¢Å¢Å¢Å¢Å¢Å¢ÅłÅ£": 1695,
      "Å£Å£Å£Å£": 1696,
      "ÅĺÅ¨": 1697,
      "Å¤Å£Å¢Å£": 1698,
      "Å¢Å¢ÅŁÅ£": 1699,
      "Å¢Å¢Å¢Å¢Å¢Å¢Å¢Å¢Å¢Å¢Å¢Å¢Å¢Å¢Å¢Å¢Å¢Å¢Å¢Å¢Å¢Å¢Å¢Å¢Å¢Å¢Å¢Å¢Å¢Å¢Å¤Å£": 1700,
      "Ç²": 1701,
      "ÃĻ": 1702,
      "Å¢Å¢Å¢Å¢Å¢Å¢Å¢Å¢Å¢Å¢Å¢Å¢Å¢Å¢Å¢Å¢Å¢": 1703,
      "Å¢Å¢Å¡Å¢Å¢Å¢Å£": 1704,
      "Ç´": 1705,
      "Å¢Å¢Å¢Å¢Å¢Å¢Å¢Å¢Åł": 1706,
      "Å¢Å¢Å¢Å¢Å¢Å¢Å¢Å¢Å¢Å¢Å¢Å¢Å¢Å¢Å¢Å¢Å¢Å¢Å¢Å¢Å¢Å¢Å¢Å¢Å£Å¢Å£": 1707,
      "ÅŃÅ¦": 1708,
      "Å¢Å¢Å¢Å¢Å¢Å¢Å¢Å¢Å¢Å¢Å¢Å¢Å¢Å¢Å¢Å¢Å¢Å¢Å¢Å¢Å¢Å¢Å¢Å¢Å¡Å¢Å¡": 1709,
      "Å¢Å¢Å£ÅŁ": 1710,
      "Å¢Å¢Å¢Å¢Å¢Å¢Å¡Å¡": 1711,
      "Å¢Å¢Å¥Å£": 1712,
      "Ãĺ": 1713,
      "Å¢Å¢ÅłÅł": 1714,
      "Å¢Å¤Å¡Å£": 1715,
      "Å®Å¥": 1716,
      "ÅļÅĽ": 1717,
      "Å¢Å¢Å¢Å¢Å¢Å¢Å¢Å¢Å¢Å¢Å¢Å¢Å¢Å¢Å¢Å¢Å¢Å¢Å¢Å¢Å¢Å¢Å¢Å¢Å¢Å¢Å¢Å¢Å¢Å¢Å¢Å¡Å¢Å¢Å¢Å¢Å¢Å¢Å¢Å¢Å¢Å¢Å¢Å¢Å¢Å¢Å¢Å¢Å¢Å¢Å¢Å¢Å¢Å¢Å¢Å¢Å¢Å¢Å¢Å¢Å¢Å¢Å¢Å¢Å¢Å¢Å¢Å¢Å¢Å¢Å¢Å¢Å¢Å¢Å¢Å¢Å¢Å¢Å¢Å¢Å¢Å¢Å¢Å¢Å¢Å¢Å¢Å¢Å¢Å¢Å¢Å¢Å¢Å¢Å¢Å¢Å¢Å¢Å¢Å¢Å¢Å¢Å¢Å¢Å¢Å¢Å¢Å¢Å¢Å¢Å¢Å¢Å¢Å¢Å¢Å¢Å¢Å¢Å¢Å¢Å¢Å¢Å¢Å¢Å¢Å¢Å¢Å¡": 1718,
      "Å¨Åª": 1719,
      "ÅŃÅŀ": 1720,
      "Å¬ÅĿ": 1721,
      "Å¢Å¢Å¢Å¢Å¢Å¢Å¢Å¢Å¢Å¢Å¢Å¢Å¢Å¢Å¢Å¢Å¢Å¢Å¢Å¢Å¢Å¢Å¢Å¢Å¢Å¢Å¢Å¢Å¢Å¢Å¢Å¢Å¢Å¢Å¢Å¢Å¢Å¢Å¢Å¢Å¢Å¢Å¢Å¢Å¢Å¢Å¢Å¢Å¢Å¢Å¢Å¢Å¢Å¢Å¢Å¢Å¢Å¢Å¢Å¢Å¢Å¢Å¢Å¢Å¢Å¢Å¢Å¢Å¢Å¢Å¢Å¢Å¢Å¢Å¢Å¢Å¢Å¢Å¢Å¢Å¢Å¢Å¢Å¢Å¢Å¢Å¢Å¢Å¢Å¢Å¢Å¢Å¢Å¢Å¢Å¢Å¢Å¢Å¢Å¢Å¢Å¢Å¢Å¢Å¢Å¢Å¢Å¢Å¢Å¢Å¢Å¢Å¢Å¢Å¢Å¢Å¢Å¢Å¢Å¢Å¢Å¢Å¢Å¢Å¢Å¢Å¢Å¢Å¢Å¢Å¢Å¢Å¢Å¢Å¢Å¢Å¢Å¢Å¢Å¢Å¢Å¢Å¢Å¢Å¢Å¢Å¢Å¢Å¢Å¢Å¢Å¢Å¢Å¢Å¢Å¢Å¢Å¢Å¢Å¢Å¢Å¢Å¢Å¢Å¢Å¢Å¢Å¢Å¢Å¢Å¢Å¢Å¢Å¢Å¢Å¢Å¢Å¢Å¢Å¢Å¢Å¢Å¢Å¢Å¢Å¢Å¢Å¢Å¢Å¢Å¢Å¢Å¢Å¢Å¢Å¢Å¢Å¢Å¢Å¢Å¢Å¢Å¢Å¢Å¢Å¢Å¢Å¢Å¢Å¢Å¢Å¢Å¢Å¢Å¢Å¢Å¢Å¢Å¢Å¢Å¢Å¢Å¢Å¢Å¢Å¢Å¢Å¢Å¢Å¢Å¢Å¢Å¢Å¢Å¢Å¢Å¢Å¢Å¢Å¢Å¢Å¢Å¢Å¢Å¢Å¢Å¢Å¢Å¢Å¢Å¢Å¢Å¢Å¢Å¢Å¡": 1722,
      "Å¡Å¡Å¦": 1723,
      "Å®ÅŁ": 1724,
      "ÅĹÅ§": 1725,
      "ÅŀÅ¢Å£": 1726,
      "Å¢Å¢Å¢Å¢Å¢Å¢Å¢Å¢Å¢Å¢Å¢Å¢Å¢Å¢Å¢Å¢Å¢Å¢Å¢Å¢Å¢Å¢Å¢Å¢Å¢Å¢Å¢Å¢Å¢ÅŁ": 1727,
      "ÅłÅ¡Å¢Å£": 1728,
      "Å¢Å¢Å¥Å¡": 1729,
      "Å¢Å¢Å¢Å¢Å¢Å¢Å¢Å¢Å¢Å¢Å¢Å¢Å¢Å¢Å¢Å¢Å¢Å¢Å¢Å¢Å¢Å¢Å¢Å¢Å¢Å¢Å¢Å¢Å¢Å¥": 1730,
      "Å¢Å¢Å¡Å¢Å¢Å¢Å¡": 1731,
      "Å¢Å¢Å¢Å¢Å¢Å¢Å¢Å¢Å¢Å¢Å¢Å¢Å¢Å¢Å¢Å¢Å¢Å¢Å¢Å¢Å¢Å¢Å¢Å¢Å¢Å¢Å¢Å¢Å¢Å¢Å¤Å¡": 1732,
      "Å¢Å¢Å¢Å¢Å¢Å¢Å¢Å¢Å¢Å¢Å¢Å¢Å¢Å¢Å¢Å¢Å¢Å¢Å¢Å¢Å¢Å¢Å¢Å¢Å¢Å¢Å¢Å¢Å¢Å¢Å£Å¢Å¢Å¢Å¢Å¢Å¢Å¢Å¢Å¢Å¢Å¢Å¢Å¢Å¢Å¢Å¢Å¢Å¢Å¢Å¢Å¢Å¢Å¢Å¢Å¢Å¢Å¢Å¢Å¢Å¢Å¢Å¢Å£": 1733,
      "Å¢Å¢Å¢Å£Å¤": 1734,
      "Å¯Åł": 1735,
      "Å¢Å¢Å¢Å¢Å¢Å¢Å¢Å¢Å¢Å¢Å¢Å¢Å¢Å¢Å¢Å¢Å¢Å¢ÅĿ": 1736,
      "Å¢Å¢Å¢Å¢Å¢Å¢Å¢Å¢Å¢Å¢Å¢Å¢Å¢Å¢Å¢Å¢Å¢Å¢Å¢Å¢Å¢Å¢Å¢Å¢Å¢Å¢Å¢Å¢Å¢Å¢Å¢Å§": 1737,
      "Å¢Å¢Å¢Å¢Å¢Å¢Å¢Å¢Å¢Å¢Å¢Å¢Å¢Å¢Å¢Å¢Å¢Å¢Å¢Å¢Å¢Å¢Å¢Å¢Å¢Å¢Å¢Å¢Å¢Å¢Å¢Å¢Å¢Å¢Å¢Å¢Å¢Å¢Å¢Å¢Å¢Å¢Å¢Å¢Å¢Å¢Å¢Å¢Å¢Å¢Å¢Å¢Å¢Å¢Å¢Å¢Å¢Å¡": 1738,
      "Å¢Å¢Å¢Å¢Å¢Å¢Å¢Å¢Å¢Å¢Å¢Å¢Å¢Å¢Å¢Å¢Å¢Å¢Å¢Å¢Å¢Å¢Å¢Å¢Å¢Å¢Å¢Å¢Å¢Å¢Å£Å¢Å¢Å¢Å¢Å¢Å¢Å¢Å¢Å¢Å¢Å¢Å¢Å¢Å¢Å¢Å¢Å¢Å¢Å¢Å¢Å¢Å¢Å¢Å¢Å¢Å¢Å¢Å¢Å¢Å¢Å¢Å¢Å¡": 1739,
      "Å¢Å¢Å¢Å¢Å¢Å¢Å¢Å¢Å¢Å¢Å¢Å¢Å¢Å¢Å¢Å¢Å¢Å¢Å¢Å¢Å¢Å¢Å¢Å¢Å¢Å¢Å¢Å¢Å¢Å¢Å¡Å¢Å¢Å¢Å¢Å¢Å¢Å¢Å¢Å¢Å¢Å¢Å¢Å¢Å¢Å¢Å¢Å¢Å¢Å¢Å¢Å¢Å¢Å¢Å¢Å¢Å¢Å¢Å¢Å¢Å¢Å¢Å¢Å£": 1740,
      "Å¬Åľ": 1741,
      "Å«Å©": 1742,
      "Å¢Å¢Å¢Å¢Å¡Å¤": 1743,
      "Å¢Å¢ÅŁÅ¡": 1744,
      "Å°Å¤": 1745,
      "Å¢Åī": 1746,
      "ÅĵÅ¡": 1747,
      "ÅķÅ¥": 1748,
      "ÅłÅ¤ÅŁ": 1749,
      "Å¢Å¤Å¢Åł": 1750,
      "Å¢Å¢Å¢Å¢Å¢Å¢Å¢Å¢Å¢Å¢Å¢Å¢Å¢Å¢Å¢Å¢Å¢Å¢Å§": 1751,
      "Å¢Å¢Å¢Å¢Å¢Å¢Å¢Å¢Å¢Å¢Å¢Å¢Å¢Å¢Å¢Å¢Å¢Å¢Å¢Å¢Å¢Å¢Å¢Å¢Å¢Å¢Å¢Å¢Å¢Å¢Å¡Å¢Å¢Å¢Å¢Å¢Å¢Å¢Å¢Å¢Å¢Å¢Å¢Å¢Å¢Å¢Å¢Å¢Å¢Å¢Å¢Å¢Å¢Å¢Å¢Å¢Å¢Å¢Å¢Å¢Å¢Å¢Å¢Å¡": 1752,
      "Å±Å¡": 1753,
      "Å¢Å¢Å¢Å¢Å¢Å¢Å¢Å¢Å¢Å¢Å¢Å¢Å¢Å¢Å¢Å¢Å¢Å¢Å¢Å¢Å¢Å¢Å¢Å¢Å¢Å¢Å¢Å¢Å¢Å¡Å¡Å¡": 1754,
      "Å¢Å¢Å¢Å¢Å¢Å¢Å¢Å¢Å¢Å¢Å¢Å¢Å¢Å¢Å¢Å¢Å¢Å¢Å¢Å¢Å¢Å¢Å¢Å¢Å¢Å¢Å¡Å£Å¡": 1755,
      "Å¢Å¢Å¢Å¡Åł": 1756,
      "Å¢Å¢Å¢Å¢Å¢Å¢Å¢Å¢Å¢Å¢Å¢Å¢Å¢Å¢Å¢Å¢Å¢Å¢Å¢Å¢Å¢Å¢Å¢Å¢Å¢Å¢Å¢Å¢Å¢Å¢Å¢Å¢Å¢Å¢Å¢Å¢Å¢Å¢Å¢Å¢Å¢Å¢Å¢Å¢Å¢Å¢Å¢Å¢Å¢Å¢Å¢Å¢Å¢Å¢Å¢Å¢Å¢Å£": 1757,
      "Å¢Å¢Å£Å¥": 1758,
      "Å¬ÅĻ": 1759,
      "ÅĶÅ¤": 1760,
      "Å¢Å¢Å¡Å¥": 1761,
      "Å¢Å¢Å¢Å¢Å¢Å¢Å¢Å¢Å¢Å¢Å¢Å¢Å¢Å¢Å¢Å¢Å¢Å¢Å¢Å¢Å¢Å¢Å¢Å¢Å¢Å¢Å¡Å£Å£": 1762,
      "Å¢Å¢Å¢Å¢Å¢Å¢Å¢Å¢Å¢Å¢Å¢Å¢Å¢Å¢Å¢Å¢Å¢Å¢Å¢Å¢Å¢Å¢Å¢Å¢Å¢Å¢Å¢Å¢Å¢Å¢Å¢Å¢Å¢Å¢Å¢Å¢Å¢Å¢Å¢Å¢Å¢Å¢Å¢Å¢Å¢Å¢Å¢Å¢Å¢Å¢Å¢Å¢Å¢Å¢Å¢Å¢Å¢Å¢Å¢Å¢Å¢Å¢Å¢Å¢Å¢Å¢Å¢Å¢Å¢Å¢Å¢Å¢Å¢Å¢Å¢Å¢Å¢Å¢Å¢Å¢Å¢Å¢Å¢Å¢Å¢Å¢Å¢Å¢Å¢Å¢Å¢Å¢Å¢Å¢Å¢Å£Å¢Å¢Å¢Å¢Å¢Å¢Å¢Å¢Å¢Å¢Å¢Å¢Å¢Å¢Å¢Å¢Å¢Å¢Å¢Å¢Å¢Å¢Å¢Å¢Å¢Å¢Å¢Å¢Å¢Å¢Å¢Å¢Å¢Å¢Å¢Å¢Å¢Å¢Å¢Å¢Å¢Å¢Å¢Å¢Å¢Å¢Å¢Å¢Å¢Å¢Å¢Å¢Å¢Å¢Å¢Å¢Å¢Å¢Å¢Å¢Å¢Å¢Å¢Å¡": 1763,
      "Å¢Å¢Å£Å¡Å¢Å£": 1764,
      "Å¢Å¢Å¢Å¢Å¢Å¢Å¢Å¢Å¢Å¢Å¢Å¢Å¢Å¢Å¢Å¢Å¢Å¢Å¢Å¢Å¢Å¢Å¢Å¢Å¢Å¢Å¢Å¢Å¢Å£Å£Å£": 1765,
      "ÅĹÅŀ": 1766,
      "Å¤Å£Åŀ": 1767,
      "Å¢Å¢Å¡Å¡Å¡": 1768,
      "Å¢Å¢Å¢Å¢Å¢Å¢Å¢Å¢Å¢Å¢Å¢Å¢Å¢Å¢Å¢Å¢Å¢Å¢Å¢Å¢Å¢Å¢ÅĿ": 1769,
      "Å¢Å¢Å¢Å¢Å¢Å¢Å¢Å¢Å¢Å¢Å¢Å¢Å¢Å¢Å¢Å¢Å¢Å¢Å¢Å¢Å¢Å¢Å¢Å¢Å¢ÅŃ": 1770,
      "Çµ": 1771,
      "Å¢Å¢Å¢Å¢Å¢Å¢Å¢Å¢Å¢Å¢Å¢Å¢Å¢Å¢Å¢Å¢Å£Å£": 1772,
      "ÅłÅ¡Å¢Å¡": 1773,
      "ÅľÅļ": 1774,
      "Å¢ÅłÅ¢Åł": 1775,
      "Å¦Å¢Å£": 1776,
      "Å¢Å¢Å¢Å¢Å¢Å¢Å¢Å¢Å¢Å¢Å¢Å¢Å¢Å¢Å¢Å¢Å¢Å¢Å¢Å¢Å¢Å¢Å§": 1777,
      "Å¢Å¢Å¢Å¢Å¢Å¢Å¢Å¢Å¢Å¢Å¢Å¢Å¢Å¢Å¢Å¢Å¢Å¢Å¢Å¢Å¢Å¥": 1778,
      "ÅŁÅª": 1779,
      "Å¢Å¢Å¢Å¢Å¢Å¢Å¢Å¢Å¢Å¢Å¢Å¢Å¢Å¢Å¢Å¢Å¢Å¢Å¢Å¢Å¢Å¢Å¢Å¢Å¢Å¢Å¢Å¢Å¢Å¢Å¢ÅĿ": 1780,
      "Å¢Å¢Å¢Å¢Å¢Å¢Å¢Å¢Å¢Å¢Å¢Å¢Å¢Å¢Å¢Å¢Å¢Å¢Å¢Å¢Å¢Å¢Å¢Å¡Åł": 1781,
      "ÅĺÅĿ": 1782,
      "ÃĹ": 1783,
      "ÅķÅł": 1784,
      "Å¢Å¢Å¢Å¢Å¢Å¢Å¢Å¢Å¢Å¢Å¢Å¢Å¢Å¢Å¢Å¢Å¢Å¢Å¢Å¢Å¢Å¢Å¢Å¢Å¢ÅĹ": 1785,
      "Å¢Å¢Å¢Å¢Å¢Å¢Å¢Å¢Å¢Å¢Å¢Å¢Å¢Å¢Å¢Å¢Å¢Å¢Å¢Å¢Å¢Å¢Å¢Å¢Å¢Å¢Å£Å¡Å¢Å¡": 1786,
      "Å¢Å¢Å¢Å¢Å¢Å¢Å¢Å¢Å¢Å¢Å¢Å¢Å¢Å¢Å¢Å¢Å¢Å¢Å¢Å¢Å¢Å¢Å¢Å¢Å¢Å¢Å¢Å¢Å¢Å¢Å¢Å¢Å¢Å¢Å¢Å¢Å¢Å¢Å¢Å¢Å¢Å¢Å¢Å¢Å¢Å¢Å¢Å¢Å¢Å¢Å¢Å¢Å¢Å¢Å¢Å¢Å¢Å¢Å¢Å¢Å¢Å¢Å¢Å¢Å¢Å¢Å¢Å¢Å¢Å¢Å¢Å¢Å¢Å¢Å¢Å¢Å¢Å¢Å¢Å¢Å¢Å¢Å¢Å¢Å¢Å¢Å¢Å¢Å¢Å¢Å¢Å¢Å¢Å¢Å¢Å¢Å¢Å¢Å¢Å¢Å¢Å¢Å¢Å¢Å¢Å¢Å¢Å¢Å¢Å¢Å¢Å¢Å¢Å¢Å¢Å¢Å¢Å¢Å¢Å¢Å¢Å¢Å¢Å¢Å¢Å¢Å¢Å¢Å¢Å¢Å¢Å¢Å¢Å¢Å¢Å¢Å¢Å¢Å¢Å¢Å¢Å¢Å¢Å¢Å¢Å¢Å¢Å¢Å¢Å¢Å¢Å¢Å¢Å¢Å¢Å¢Å¢Å¢Å¢Å¢Å¢Å¢Å¢Å¢Å¢Å¢Å¢Å¢Å¢Å¢Å¢Å¢Å¢Å¢Å¢Å¢Å¢Å¢Å¢Å¢Å¢Å¢Å¢Å¢Å¢Å¢Å¢Å¢Å¢Å¢Å¢Å¢Å¢Å¢Å¢Å¢Å¢Å¢Å¢Å¢Å¢Å¢Å¢Å¢Å¢Å¢Å¢Å¢Å¢Å¢Å¢Å¢Å¢Å¢Å¢Å¢Å¢Å¢Å¢Å¢Å¢Å¢Å¢Å¢Å¢Å¢Å¢Å¢Å¢Å¢Å¢Å¢Å¢Å¢Å¢Å¢Å¢Å¢Å¢Å¢Å¢Å¢Å¢Å¢Å¢Å¢Å¢Å¢Å¢Å¢Å¢Å¢Å¢Å¢Å¢Å¢Å¢Å¢Å¢Å¢Å¢Å¢Å¢Å¢Å¢Å¢Å¢Å¢Å¢Å¢Å¢Å¢Å¢Å¢Å¢Å¢Å¢Å¢Å¢Å¢Å¢Å¢Å¢Å¢Å¢Å¢Å¢Å¢Å¢Å¢Å¢Å¢Å¢Å¢Å¢Å¢Å¢Å¢Å¢Å¢Å¢Å¢Å¢Å¢Å¢Å¢Å¢Å¢Å¢Å¢Å¢Å¢Å¢Å¢Å¢Å¢Å¢Å¢Å¢Å¢Å¢Å¢Å¢Å¢Å¢Å¢Å¢Å¢Å¢Å¢Å¢Å¢Å¢Å¢Å¢Å¢Å¢Å¢Å¢Å¢Å¢Å¢Å¢Å¢Å¢Å¢Å¢Å¢Å¢Å¢Å¢Å¢Å¢Å¢Å¢Å¢Å¢Å¢Å¢Å¢Å¢Å¢Å¢Å¢Å¢Å¢Å¢Å¢Å¢Å¢Å¢Å¢Å¢Å¢Å¢Å¢Å¢Å¢Å¢Å¢Å¢Å¢Å¢Å¢Å¢Å¢Å¢Å¢Å¢Å¢Å¢Å¢Å¢Å¢Å¢Å¢Å¢Å¢Å¢Å¢Å¢Å¢Å¢Å¢Å¢Å¢Å¢Å¢Å¢Å¢Å¢Å¢Å¢Å¢Å¢Å¢Å¢Å¢Å¢Å¢Å¢Å¢Å¢Å¢Å¢Å¢Å¢Å¢Å¢Å¢Å¢Å¢Å¢Å¢Å¢Å¢Å¢Å¢Å¢Å¢Å¢Å¢Å¢Å¢Å¢Å¢Å¢Å¢Å¢Å¢Å¢Å¢Å¢Å¢Å¢Å¢Å¢Å¢Å¢Å¢Å¢Å¢Å¢Å¢Å¢Å¢Å¢Å¢Å¢Å¢Å¢Å¢Å¢Å¢Å¢Å¢Å¢Å¢Å¢Å¢Å¢Å¢Å¢Å¢Å¢Å¢Å¢Å¢Å¢Å¢Å¢Å¢Å¢Å¢Å¢Å¢Å¢Å¢Å¢Å¢Å¢Å¢Å¢Å¢Å¢Å¢Å¢Å¢Å¢Å¢Å¢Å¢Å¢Å¢Å¢Å¢Å¢Å¢Å¢Å¢Å¢Å¢Å¢Å¢Å¢Å¢Å¢Å¢Å¢Å¢Å¢Å¢Å¢Å¢Å¢Å¢Å¢Å¢Å¢Å¢Å¢Å¢Å¢Å¢Å¢Å¢Å¢Å¢Å¢Å¢Å¢Å¢Å¢Å¢Å¢Å¢Å¢Å¢Å¢Å¢Å¢Å¢Å¢Å¢Å¢Å¢Å¢Å¢Å¢Å¢Å¢Å¢Å¢Å¢Å¢Å¢Å¢Å¢Å¢Å¢Å¢Å¢Å¢Å¢Å¢Å¢Å¢Å¢Å¢Å¢Å¢Å¢Å¢Å¢Å¢Å¢Å¢Å¢Å¢Å¢Å¢Å¢Å¢Å¢Å¢Å¢Å¢Å¢Å¢Å¢Å¢Å¢Å¢Å¢Å¢Å¢Å¢Å¢Å¢Å¢Å¢Å¢Å¢Å¢Å¢Å¢Å¢Å¢Å¢Å¢Å¢Å¢Å¢Å¢Å¢Å¢Å¢Å¢Å¢Å¢Å¢Å¢Å¢Å¢Å¢Å¢Å¢Å¢Å¢Å¢Å¢Å¢Å¢Å¢Å¢Å¢Å¢Å¢Å¢Å¢Å¢Å¢Å¢Å¢Å¢Å¢Å¢Å¢Å¢Å¢Å¢Å¢Å¢Å¢Å¢Å¢Å¢Å¢Å¢Å¢Å¢Å¢Å¢Å¢Å¢Å¢Å¢Å¢Å¢Å¢Å¢Å¢Å¢Å¢Å¢Å¢Å¢Å¢Å¢Å¢Å¢Å¢Å¢Å¢Å¢Å¢Å¢Å¢Å¢Å¢Å¢Å¢Å¢Å¢Å¢Å¢Å¢Å¢Å¢Å¢Å¢Å¢Å¢Å¢Å¢Å¢Å¢Å¢Å¢Å¢Å¢Å¢Å¢Å¢Å¢Å¢Å¢Å¢Å¢Å¢Å¢Å¢Å¢Å¢Å¢Å¢Å¢Å¢Å¢Å¢Å¢Å¢Å¢Å¢Å¢Å¢Å¢Å¢Å¢Å¢Å¢Å¢Å¢Å¢Å¢Å¢Å¢Å¢Å¢Å¢Å¢Å¢Å¢Å¢Å¢Å¢Å¢Å¢Å¢Å¢Å¢Å¢Å¢Å¢Å¢Å¢Å¢Å¢Å¢Å¢Å¢Å¢Å¢Å¢Å¢Å¢Å¢Å¢Å¢Å¢Å¢Å¢Å¢Å¢Å¢Å¢Å¢Å¢Å¢Å¢Å¢Å¢Å¢Å¢Å¢Å¢Å¢Å¢Å¢Å¢Å¢Å¢Å¢Å¢Å¢Å¢Å¢Å¢Å¢Å¢Å¢Å¢Å¢Å¢Å¢Å¢Å¢Å¢Å¢Å¢Å¢Å¢Å¢Å¢Å¢Å¢Å¢Å¢Å¢Å¢Å¢Å¢Å¢Å¢Å¢Å¢Å¢Å¢Å¢Å¢Å¢Å¢Å¢Å¢Å¢Å¢Å¢Å¢Å¢Å¢Å¢Å¢Å¢Å¢Å¢Å¢Å¢Å¢Å¢Å¢Å¢Å¢Å¢Å¢Å¢Å¢Å¢Å¢Å¢Å¢Å¢Å¢Å¢Å¢Å¢Å¢Å¢Å¢Å¢Å¢Å¢Å¢Å¢Å¢Å¢Å¢Å¢Å¢Å¢Å¢Å¢Å¢Å¢Å¢Å¢Å¢Å¢Å¢Å¢Å¢Å¢Å¢Å¢Å¢Å¢Å¢Å¢Å¢Å¢Å¢Å¢Å¢Å¢Å¢Å¢Å¢Å¢Å¢Å¢Å¢Å¢Å¢Å¢Å¢Å¢Å¢Å¢Å¢Å¢Å¢Å¢Å¢Å¢Å¢Å¢Å¢Å¢Å¢Å¢Å¢Å¢Å¢Å¢Å¢Å¢Å¢Å¢Å¢Å¢Å¢Å¢Å¢Å¢Å¢Å¢Å¢Å¢Å¢Å¢Å¢Å¢Å¢Å¢Å¢Å¢Å¢Å¢Å¢Å¢Å¢Å¢Å¢Å¢Å¢Å¢Å¢Å¢Å¢Å¢Å¢Å¢Å¢Å¢Å¢Å¢Å¢Å¢Å¢Å¢Å¢Å¢Å¢Å¢Å¢Å¢Å¢Å¢Å¢Å¢Å¢Å¢Å¢Å¢Å¢Å¢Å¢Å¢Å¢Å¢Å¢Å¢Å¢Å¢Å¢Å¢Å¢Å¢Å¢Å¢Å¢Å¢Å¢Å¢Å¢Å¢Å¢Å¢Å¢Å¢": 1787,
      "ÅŃÅ§": 1788,
      "ÅĸÅ¦": 1789,
      "ÅĺÅ©": 1790,
      "Å¢Å¢Å¢Å¢Å¢Å¢Å¢Å¢Å¢Å¢Å¢Å¢Å¢Å¢Å¢Å¢Å¢Å¢Å¢Å¢Å¢Å¢Å¢Å¢Å¢Å¢Å¢Å¢Å¢Å¢Å¢Å¢Å¢Å¢Å¢Å¢Å¢Å¢Å¢Å¢Å¢Å¢Å¢Å¢Å¢Å¢Å¢Å¢Å¢Å¢Å¢Å¢Å¢Å¢Å¢Å¢Å¢Å¢Å¢Å¢Å¢Å¢Å¢Å¢Å¢Å¢Å¢Å¢Å¢Å¢Å¢Å¢Å¢Å¢Å¢Å¢Å¢Å¢Å¢Å¢Å¢Å¢Å¢Å¢Å¢Å¢Å¢Å¢Å¢Å¢Å¢Å¢Å¢Å¢Å¢Å¢Å¢Å¢Å¢Å¢Å¢Å¢Å¢Å¢Å¢Å¢Å¢Å¢Å¢Å¢Å¢Å¢Å¢Å¢Å¢Å¢Å¢Å¢Å¢Å¢Å¢Å¢Å¢Å¢Å¢Å¢Å¢Å¢Å¢Å¢Å¢Å¢Å¢Å¢Å¢Å¢Å¢Å¢Å¢Å¢Å¢Å¢Å¢Å¢Å¢Å¢Å¢Å¢Å¢Å¢Å¢Å¢Å¢Å¢Å¢Å¢Å¢Å¢Å¢Å¢Å¢Å¢Å¢Å¢Å¢Å¢Å¢Å¢Å¢Å¢Å¢Å¢Å¢Å¢Å¢Å¢Å¢Å¢Å¢Å¢Å¢Å¢Å¢Å¢Å¢Å¢Å¢Å¢Å¢Å¢Å¢Å¢Å¢Å¢Å¢Å¢Å¢Å¢Å¢Å¢Å¢Å¢Å¢Å¢Å¢Å¢Å¢Å¢Å¢Å¢Å¢Å¢Å¢Å¢Å¢Å¢Å¢Å¢Å¢Å¢Å¢Å¢Å¢Å¢Å¢Å¢Å¢Å¢Å¢Å¢Å¢Å¢Å¢Å¢Å¢Å¢Å¢Å¢Å¢Å¢Å¢Å¢Å¢Å¢Å¢Å¢Å¢Å¢Å¢Å¢Å¢Å¢Å¢Å¢Å¢Å¢Å¢Å¢Å¢Å¢Å¢Å¢Å¢Å¢Å¢Å¢Å¢Å¢Å¢Å¢Å¢Å¢Å¢Å¢Å¢Å¢Å¢Å¢Å¢Å¢Å¢Å¢Å¢Å¢Å¢Å¢Å¢Å¢Å¢Å¢Å¢Å¢Å¢Å¢Å¢Å¢Å¢Å¢Å¢Å¢Å¢Å¢Å¢Å¢Å¢Å¢Å¢Å¢Å¢Å¢Å¢Å¢Å¢Å¢Å¢Å¢Å¢Å¢Å¢Å¢Å¢Å¢Å¢Å¢Å¢Å¢Å¢Å¢Å¢Å¢Å¢Å¢Å¢Å¢Å¢Å¢Å¢Å¢Å¢Å¢Å¢Å¢Å¢Å¢Å¢Å¢Å¢Å¢Å¢Å¢Å¢Å¢Å¢Å¢Å¢Å¢Å¢Å¢Å¢Å¢Å¢Å¢Å¢Å¢Å¢Å¢Å¢Å¢Å¢Å¢Å¢Å¢Å¢Å¢Å¢Å¢Å¢Å¢Å¢Å¢Å¢Å¢Å¢Å¢Å¢Å¢Å¢Å¢Å¢Å¢Å¢Å¢Å¢Å¢Å¢Å¢Å¢Å¢Å¢Å¢Å¢Å¢Å¢Å¢Å¢Å¢Å¢Å¢Å¢Å¢Å¢Å¢Å¢Å¢Å¢Å¢Å¢Å¢Å¢Å¢Å¢Å¢Å¢Å¢Å¢Å¢Å¢Å¢Å¢Å¢Å¢Å¢Å¢Å¢Å¢Å¢Å¢Å¢Å¢Å¢Å¢Å¢Å¢Å¢Å¢Å¢Å¢Å¢Å¢Å¢Å¢Å¢Å¢Å¢Å¢Å¢Å¢Å¢Å¢Å¢Å¢Å¢Å¢Å¢Å¢Å¢Å¢Å¢Å¢Å¢Å¢Å¢Å¢Å¢Å¢Å¢Å¢Å¢Å¢Å¢Å¢Å¢Å¢Å¢Å¢Å¢Å¢Å¢Å¢Å¢Å¢Å¢Å¢Å¢Å¢Å¢Å¢Å¢Å¢Å¢Å¢Å¢Å¢Å¢Å¢Å¢Å¢Å¢Å¢Å¢Å¢Å¢Å¢Å¢Å¢Å¢Å¢Å¢Å¢Å¢Å¢Å¢Å¢Å¢Å¢Å¢Å¢Å¢Å¢Å¢Å¢Å¢Å¢Å¢Å¢Å¢Å¢Å¢Å¢Å¢Å¢Å¢Å¢Å¢Å¢Å¢Å¢Å¢Å¢Å¢Å¢Å¢Å¢Å¢Å¢Å¢Å¢Å¢Å¢Å¢Å¢Å¢Å¢Å¢Å¢Å¢Å¢Å¢Å¢Å¢Å¢Å¢Å¢Å¢Å¢Å¢Å¢Å¢Å¢Å¢Å¢Å¢Å¢Å¢Å¢Å¢Å¢Å¢Å¢Å¢Å¢Å¢Å¢Å¢Å¢Å¢Å¢Å¢Å¢Å¢Å¢Å¢Å¢Å¢Å¢Å¢Å¢Å¢Å¢Å¢Å¢Å¢Å¢Å¢Å¢Å¢Å¢Å¢Å¢Å¢Å¢Å¢Å¢Å¢Å¢Å¢Å¢Å¢Å¢Å¢Å¢Å¢Å¢Å¢Å¢Å¢Å¢Å¢Å¢Å¢Å¢Å¢Å¢Å¢Å¢Å¢Å¢Å¢Å¢Å¢Å¢Å¢Å¢Å¢Å¢Å¢Å¢Å¢Å¢Å¢Å¢Å¢Å¢Å¢Å¢Å¢Å¢Å¢Å¢Å¢Å¢Å¢Å¢Å¢Å¢Å¢Å¢Å¢Å¢Å¢Å¢Å¢Å¢Å¢Å¢Å¢Å¢Å¢Å¢Å¢Å¢Å¢Å¢Å¢Å¢Å¢Å¢Å¢Å¢Å¢Å¢Å¢Å¢Å¢Å¢Å¢Å¢Å¢Å¢Å¢Å¢Å¢Å¢Å¢Å¢Å¢Å¢Å¢Å¢Å¢Å¢Å¢Å¢Å¢Å¢Å¢Å¢Å¢Å¢Å¢Å¢Å¢Å¢Å¢Å¢Å¢Å¢Å¢Å¢Å¢Å¢Å¢Å¢Å¢Å¢Å¢Å¢Å¢Å¢Å¢Å¢Å¢Å¢Å¢Å¢Å¢Å¢Å¢Å¢Å¢Å¢Å¢Å¢Å¢Å¢Å¢Å¢Å¢Å¢Å¢Å¢Å¢Å¢Å¢Å¢Å¢Å¢Å¢Å¢Å¢Å¢Å¢Å¢Å¢Å¢Å¢Å¢Å¢Å¢Å¢Å¢Å¢Å¢Å¢Å¢Å¢Å¢Å¢Å¢Å¢Å¢Å¢Å¢Å¢Å¢Å¢Å¢Å¢Å¢Å¢Å¢Å¢Å¢Å¢Å¢Å¢Å¢Å¢Å¢Å¢Å¢Å¢Å¢Å¢Å¢Å¢Å¢Å¢Å¢Å¢Å¢Å¢Å¢Å¢Å¢Å¢Å¢Å¢Å¢Å¢Å¢Å¢Å¢Å¢Å¢Å¢Å¢Å¢Å¢Å¢Å¢Å¢Å¢Å¢Å¢Å¢Å¢Å¢Å¢Å¢Å¢Å¢Å¢Å¢Å¢Å¢Å¢Å¢Å¢Å¢Å¢Å¢Å¢Å¢Å¢Å¢Å¢Å¢Å¢Å¢Å¢Å¢Å¢Å¢Å¢Å¢Å¢Å¢Å¢Å¢Å¢Å¢Å¢Å¢Å¢Å¢Å¢Å¢Å¢Å¢Å¢Å¢Å¢Å¢Å¢Å¢Å¢Å¢Å¢Å¢Å¢Å¢Å¢Å¢Å¢Å¢Å¢Å¢Å¢Å¢Å¢Å¢Å¢Å¢Å¢Å¢Å¢Å¢Å¢Å¢Å¢Å¢Å¢Å¢Å¢Å¢Å¢Å¢Å¢Å¢Å¢Å¢Å¢Å¢Å¢Å¢Å¢Å¢Å¢Å¢Å¢Å¢Å¢Å¢Å¢Å¢Å¢Å¢Å¢Å¢Å¢Å¢Å¢Å¢Å¢Å¢Å¢Å¢Å¢Å¢Å¢Å¢Å¢Å¢Å¢Å¢Å¢Å¢Å¢Å¢Å¢Å¢Å¢Å¢Å¢Å¢Å¢Å¢Å¢Å¢Å¢Å¢Å¢Å¢Å¢Å¢Å¢Å¢Å¢Å¢Å¢Å¢Å¢Å¢Å¢Å¢Å¢Å¢Å¢Å¢Å¢Å¢Å¢Å¢Å¢Å¢Å¢Å¢Å¢Å¢Å¢Å¢Å¢Å¢Å¢Å¢Å¢Å¢Å¢Å¢Å¢Å¢Å¢Å¢Å¢Å¢Å¢Å¢Å¢Å¢Å¢Å¢Å¢Å¢Å¢Å¢Å¢Å¢Å¢Å¢Å¢Å¢Å¢Å¢Å¢Å¢Å¢Å¢Å¢Å¢Å¢Å¢Å¢Å¢Å¢Å¢Å¢Å¢Å¢Å¢Å¢Å¢Å¢Å¢Å¢Å¢Å¢Å¢Å¢Å¢Å¢": 1791,
      "ÅłÅ¤Å¥": 1792,
      "Å¢Å¢Å¢ÅłÅ¡": 1793,
      "Å¢Å¢Å¢Å¢Å¢Å¢Å¢Å¢Å¢Å¢Å¢Å¢Å¢Å¢Å¢Å¢Å¢Å¢Å¢Å¢Å¢Å¢Å¢Å£Å¤": 1794,
      "ÅŀÅ¢Å¡": 1795,
      "Å¤ÅłÅ¥": 1796,
      "ÅªÅª": 1797,
      "ÅŀÅļ": 1798,
      "Å¢Å£Å£Å¡Å£": 1799,
      "Å¢Å¢Å¢Å¢Å¢Å¢Å¢Å¢Å¢Å¢Å¢Å¢Å¢Å¢Å¢Å¢Å¢Å¢Å¢Å¢Å¢ÅŁ": 1800,
      "ÅĻÅĽ": 1801,
      "Å¢Å¢Å¡Å£Å¢Å¡": 1802,
      "ÅĴÅ£": 1803,
      "Å¦Å¢Å¡": 1804,
      "Å¢Å¢Å¢Å¡Å¢Å¢Å£": 1805,
      "ÅĺÅ«": 1806,
      "ÅŁÅ£Å£": 1807,
      "Ãĸ": 1808,
      "Å²Å£": 1809,
      "Å¢ÅŀÅ¥": 1810,
      "Å¢ÅłÅ¡Å£": 1811,
      "Å¬Å¨": 1812,
      "Å¢Å¢Å¢Å¢Å¢Å¢Å¢Å¢Å¢Å¢Å¢Å¢Å¢Å¢Å¢Å¢Å¢Å¢Å¢Å¢Å¢Å¢Å¢Å¢Å¢Å¢Å¢Å¢Å¢Å¢Å¢Å¡Å¢Å¢Å¢Å¢Å¢Å¢Å¢Å¢Å¢Å¢Å¢Å¢Å¢Å¢Å¢Å¢Å¢Å¢Å¢Å¢Å¢Å¢Å¢Å¢Å¢Å¢Å¢Å¢Å¢Å¢Å¢Å¡Å¢Å¢Å¢Å¢Å¢Å¢Å¢Å¢Å¢Å¢Å¢Å¢Å¢Å¢Å¢Å¢Å¢Å¢Å¢Å¢Å¢Å¢Å¢Å¢Å¢Å¢Å¢Å¢Å¢Å¢Å¢Å¢Å¢Å¢Å¢Å¢Å¢Å¢Å¢Å¢Å¢Å¢Å¢Å¢Å¢Å¢Å¢Å¢Å¢Å¢Å¢Å¢Å¢Å¢Å¢Å¢Å¢Å¢Å¢Å¢Å¢Å¢Å¢Å£": 1813,
      "Å¢ÅłÅ¢Å¤": 1814,
      "Å¢Å¢Å¢Å¢Å¢Å¢Å¢Å¢Å¢Å¢Å¢Å¢Å¢Å¢Å¢Å¢Å¢Å¢Å¢Å¢Å¢Å¢Å¢Å¢Å¢ÅłÅ¡": 1815,
      "Ç¶": 1816,
      "ÅĹÅ¨": 1817,
      "Å¢Å¢Å¢Å¢Å¢Å¢Å¢Å¢Å¢Å¢Å¢Å¢Å¢Å¢Å¢Å¢Å¢Å¢Å¢Å¢Å¢Å¢Å¢Å¢Å¢Å¡Å¡Å£": 1818,
      "Å¢Å¢Å¢Å¢Å¢Å¢Å¢Å¢Å¢Å¢Å£Å£": 1819,
      "ÅĽÅ«": 1820,
      "ÅŃÅĿ": 1821,
      "Å¢Å¢Å¡Å£Å¢Å£": 1822,
      "Ãķ": 1823,
      "Å¥Åļ": 1824,
      "Å¢Å¢Å¢Å¢Å¢Å¢Å¢Å¢Å¢Å¢Å¢Å¢Å¢Å¢Å¢Å¢Å¢Å¢Å¢Å¢Å¢Å¢Å¢Å¢Å¢Å¢Å¢Å£Å¢Å¢Å¡": 1825,
      "ÅĸÅŁ": 1826,
      "ÅĺÅª": 1827,
      "Å¢Å¢Å£Å¡Å¢Å¡": 1828,
      "Å¢Å¢Å¢Å¢Å¢Å¢Å¢Å¢Å¢Å¢Å¢Å¢Å¢Å¢Å¢Å¢Å¢Å¢Å¢Å¢Å¢Å¢Å¢Å¢Å¢Å¢Å¢Å¢Å¢Å¢Å¢Å¡Å¢Å¢Å¢Å¢Å¢Å¢Å¢Å¢Å¢Å¢Å¢Å¢Å¢Å¢Å¢Å¢Å¢Å¢Å¢Å¢Å¢Å¢Å¢Å¢Å¢Å¢Å¢Å¢Å¢Å¢Å¢Å¢Å¢Å¢Å¢Å¢Å¢Å¢Å¢Å¢Å¢Å¢Å¢Å¢Å¢Å¢Å¢Å¢Å¢Å¢Å¢Å¢Å¢Å¢Å¢Å¢Å¢Å¢Å¢Å¢Å¢Å¢Å¢Å£Å¢Å¢Å¢Å¢Å¢Å¢Å¢Å¢Å¢Å¢Å¢Å¢Å¢Å¢Å¢Å¢Å¢Å¢Å¢Å¢Å¢Å¢Å¢Å¢Å¢Å¢Å¢Å¢Å¢Å¢Å¢Å¢Å¢Å¢Å¢Å¢Å¢Å¢Å¢Å¢Å¢Å¢Å¢Å¢Å¢Å¢Å¢Å¢Å¢Å¢Å¢Å¢Å¢Å¢Å¢Å¢Å¢Å¢Å¢Å¢Å¢Å¢Å¢Å¡": 1829,
      "Å¢ÅłÅ¡Å¡": 1830,
      "ÅłÅ£Å¡": 1831,
      "Å¢Å¢Å¢Å¢Å¢Å¢Å¢Å¢Å¢Å¢Å¢Å¢Å¢Å£Å¢Å¡": 1832,
      "Å¢Å¤Å¢Å¤": 1833,
      "Å¤Å£Å¦": 1834,
      "Å©ÅĻ": 1835,
      "ÅľÅ«": 1836,
      "Å¢Å¢Å¢Å¢Å¢Å¢Å¢Å¢Å¢Å¢Å¢Å¢Å¢Å¢Å¢Å¢Å¢Å¢Å¢Å¢Å¢Å¢Å¢Å¢Å¢Å¤Å¡": 1837,
      "Å¢Å¢Å¢Å¢Å¢Å¢Å¢Å¢Å¢Å¢Å¢Å¢Å¢Å¢Å¢Å¢Å¢Å¢Å¢Å¢Å¢Å¢Å¢Å¢Å¢Å¢Å¢Å¢Å¢Å¢Å¢Å¢Å¢Å¢Å¢Å¢Å¢Å¢Å¢Å¢Å¢Å¢Å¢Å¢Å¢Å¢Å¢Å¢Å¢Å¢Å¢Å¢Å¢Å¢Å¢Å¢Å¢Å¢Å¢Å¢Å¢Å¢Å¢Å¢Å¢Å¢Å¢Å¢Å¢Å¢Å¢Å¢Å¢Å¢Å¢Å¢Å¢Å¢Å¢Å¢Å¢Å¢Å¢Å¢Å¢Å¢Å¢Å¢Å¢Å¢Å¢Å¢Å¢Å¢Å¢Å¢Å¢Å¢Å¢Å¢Å¢Å¢Å¢Å¢Å¢Å¢Å¢Å¢Å¢Å¢Å¢Å¢Å¢Å¢Å¢Å¢Å¢Å¢Å¢Å¢Å¢Å¢Å¢Å¢Å¢Å¢Å¢Å¢Å¢Å¢Å¢Å¢Å¢Å¢Å¢Å¢Å¢Å¢Å¢Å¢Å¢Å¢Å¢Å¢Å¢Å¢Å¢Å¢Å¢Å¢Å¢Å¢Å¢Å¢Å¢Å¢Å¢Å¢Å¢Å¢Å¢Å¢Å¢Å¢Å¢Å¢Å¢Å¢Å¢Å¢Å¢Å¢Å¢Å¢Å¢Å¢Å¢Å¢Å¢Å¢Å¢Å¢Å¢Å¢Å¢Å¢Å¢Å¢Å¢Å¢Å¢Å¢Å¢Å¢Å¢Å¢Å¢Å¢Å¢Å¢Å¢Å¢Å¢Å¢Å¢Å¢Å¢Å¢Å¢Å¢Å¢Å¢Å¢Å¢Å¢Å¢Å¢Å¢Å¢Å¢Å¢Å¢Å¢Å¢Å¢Å¢Å¢Å¢Å¢Å¢Å¢Å¢Å¢Å¢Å¢Å¢Å¢Å¢Å¢Å¢Å¢Å¢Å¢Å¢Å¢Å¢Å¢Å¢Å¢Å¢Å¢Å¢Å¢Å¢Å¢Å¢Å¢Å¢Å¢Å¢Å¢Å¢Å¢Å¢Å¢Å¢Å¢Å¢Å¢Å¢Å¢Å¢Å¢Å¢Å¢Å¢Å¢Å¢Å¢Å¢Å¢Å¢Å¢Å¢Å¢Å¢Å¢Å¢Å¢Å¢Å¢Å¢Å¢Å¢Å¢Å¢Å¢Å¢Å¢Å¢Å¢Å¢Å¢Å¢Å¢Å¢Å¢Å¢Å¢Å¢Å¢Å¢Å¢Å¢Å¢Å¢Å¢Å¢Å¢Å¢Å¢Å¢Å¢Å¢Å¢Å¢Å¢Å¢Å¢Å¢Å¢Å¢Å¢Å¢Å¢Å¢Å¢Å¢Å¢Å¢Å¢Å¢Å¢Å¢Å¢Å¢Å¢Å¢Å¢Å¢Å¢Å¢Å¢Å¢Å¢Å¢Å¢Å¢Å¢Å¢Å¢Å¢Å¢Å¢Å¢Å¢Å¢Å¢Å¢Å¢Å¢Å¢Å¢Å¢Å¢Å¢Å¢Å¢Å¢Å¢Å¢Å¢Å¢Å¢Å¢Å¢Å¢Å¢Å¢Å¢Å¢Å¢Å¢Å¢Å¢Å¢Å¢Å¢Å¢Å¢Å¢Å¢Å¢Å¢Å¢Å¢Å¢Å¢Å¢Å¢Å¢Å¢Å¢Å¢Å¢Å¢Å¢Å¢Å¢Å¢Å¢Å¢Å¢Å¢Å¢Å¢Å¢Å¢Å¢Å¢Å¢Å¢Å¢Å¢Å¢Å¢Å¢Å¢Å¢Å¢Å¢Å¢Å¢Å¢Å¢Å¢Å¢Å¢Å¢Å¢Å¢Å¢Å¢Å¢Å¢Å¢Å¢Å¢Å¢Å¢Å¢Å¢Å¢Å¢Å¢Å¢Å¢Å¢Å¢Å¢Å¢Å¢Å¢Å¢Å¢Å¢Å¢Å¢Å¢Å¢Å¢Å¢Å¢Å¢Å¢Å¢Å¢Å¢Å¢Å¢Å¢Å¢Å¢Å¢Å¢Å¢Å¢Å¢Å¢Å¢Å¢Å¢Å¢Å¢Å¢Å¢Å¢Å¢Å¢Å¢Å¢Å¢Å¢Å¢Å¢Å¢Å¢Å¢Å¢Å¢Å¢Å¢Å¢Å¢Å¢Å¢Å¢Å¢Å¢Å¢Å¢Å¢Å¢Å¢Å¢Å¢Å¢Å¢Å¢Å¢Å¢Å¢Å¢Å¢Å¢Å¢Å¢Å¢Å¢Å¢Å¢Å¢Å¢Å¢Å¢Å¢Å¢Å¢Å¢Å¢Å¢Å¢Å¢Å¢Å¢Å¢Å¢Å¢Å¢Å¢Å¢Å¢Å¢Å¢Å¢Å¢Å¢Å¢Å¢Å¢Å¢Å¢Å¢Å¢Å¢Å¢Å¢Å¢Å¢Å¢Å¢Å¢Å¢Å¢Å¢Å¢Å¢Å¢Å¢Å¢Å¢Å¢Å¢Å¢Å¢Å¢Å¢Å¢Å¢Å¢Å¢Å¢Å¢Å¢Å¢Å¢Å¢Å¢Å¢Å¢Å¢Å¢Å¢Å¢Å¢Å¢Å¢Å¢Å¢Å¢Å¢Å¢Å¢Å¢Å¢Å¢Å¢Å¢Å¢Å¢Å¢Å¢Å¢Å¢Å¢Å¢Å¢Å¢Å¢Å¢Å¢Å¢Å¢Å¢Å¢Å¢Å¢Å¢Å¢Å¢Å¢Å¢Å¢Å¢Å¢Å¢Å¢Å¢Å¢Å¢Å¢Å¢Å¢Å¢Å¢Å¢Å¢Å¢Å¢Å¢Å¢Å¢Å¢Å¢Å¢Å¢Å¢Å¢Å¢Å¢Å¢Å¢Å¢Å¢Å¢Å¢Å¢Å¢Å¢Å¢Å¢Å¢Å¢Å¢Å¢Å¢Å¢Å¢Å¢Å¢Å¢Å¢Å¢Å¢Å¢Å¢Å¢Å¢Å¢Å¢Å¢Å¢Å¢Å¢Å¢Å¢Å¢Å¢Å¢Å¢Å¢Å¢Å¢Å¢Å¢Å¢Å¢Å¢Å¢Å¢Å¢Å¢Å¢Å¢Å¢Å¢Å¢Å¢Å¢Å¢Å¢Å¢Å¢Å¢Å¢Å¢Å¢Å¢Å¢Å¢Å¢Å¢Å¢Å¢Å¢Å¢Å¢Å¢Å¢Å¢Å¢Å¢Å¢Å¢Å¢Å¢Å¢Å¢Å¢Å¢Å¢Å¢Å¢Å¢Å¢Å¢Å¢Å¢Å¢Å¢Å¢Å¢Å¢Å¢Å¢Å¢Å¢Å¢Å¢Å¢Å¢Å¢Å¢Å¢Å¢Å¢Å¢Å¢Å¢Å¢Å¢Å¢Å¢Å¢Å¢Å¢Å¢Å¢Å¢Å¢Å¢Å¢Å¢Å¢Å¢Å¢Å¢Å¢Å¢Å¢Å¢Å¢Å¢Å¢Å¢Å¢Å¢Å¢Å¢Å¢Å¢Å¢Å¢Å¢Å¢Å¢Å¢Å¢Å¢Å¢Å¢Å¢Å¢Å¢Å¢Å¢Å¢Å¢Å¢Å¢Å¢Å¢Å¢Å¢Å¢Å¢Å¢Å¢Å¢Å¢Å¢Å¢Å¢Å¢Å¢Å¢Å¢Å¢Å¢Å¢Å¢Å¢Å¢Å¢Å¢Å¢Å¢Å¢Å¢Å¢Å¢Å¢Å¢Å¢Å¢Å¢Å¢Å¢Å¢Å¢Å¢Å¢Å¢Å¢Å¢Å¢Å¢Å¢Å¢Å¢Å¢Å¢Å¢Å¢Å¢Å¢Å¢Å¢Å¢Å¢Å¢Å¢Å¢Å¢Å¢Å¢Å¢Å¢Å¢Å¢Å¢Å¢Å¢Å¢Å¢Å¢Å¢Å¢Å¢Å¢Å¢Å¢Å¢Å¢Å¢Å¢Å¢Å¢Å¢Å¢Å¢Å¢Å¢Å¢Å¢Å¢Å¢Å¢Å¢Å¢Å¢Å¢Å¢Å¢Å¢Å¢Å¢Å¢Å¢Å¢Å¢Å¢Å¢Å¢Å¢Å¢Å¢Å¢Å¢Å¢Å¢Å¢Å¢Å¢Å¢Å¢Å¢Å¢Å¢Å¢Å¢Å¢Å¢Å¢Å¢Å¢Å¢Å¢Å¢Å¢Å¢Å¢Å¢Å¢Å¢Å¢Å¢Å¢Å¢Å¢Å¢Å¢Å¢Å¢Å¢Å¢Å¢Å¢Å¢Å¢Å¢Å¢Å¢Å¢Å¢Å¢Å¢Å¢Å¢Å¢Å¢Å¢Å¢Å¢Å¢Å¢Å¢Å¢Å¢Å¢Å¢Å¢Å¢Å¢Å¢Å¢Å¢Å¢Å¢Å¢Å¢Å¢Å¢Å¢Å¢Å¢Å¢Å¢Å¢Å¢Å¢Å¢Å¢Å¢Å¢Å¢Å¢Å¢Å¢Å¢Å¢Å¢Å¢Å¢Å¢Å¢Å¢Å¢Å¢Å¢Å¢Å¢Å¢Å¢Å¢Å¢Å¢Å¢Å¢Å¢Å¢Å¢Å¢Å¢Å¢Å¢Å¢Å¢Å¢Å¢Å¢Å¢Å¢Å¢Å¢Å¢Å¢Å¢Å¢Å¢Å¢Å¢Å¢Å¢Å¢Å¢Å¢Å¢Å¢Å¢Å¢Å¢Å¢Å¢Å¢Å¢Å¢Å¢Å¢Å¢Å¢Å¢Å¢Å¢Å¢Å¢Å¢Å¢Å¢Å¢Å¢Å¢Å¢Å¢Å¢Å¢Å¢Å¢Å¢Å¢Å¢Å¢Å¢Å¢Å¢Å¢Å¢Å¢Å¢Å¢Å¢Å¢Å¢Å¢Å¢Å¢Å¢Å¢Å¢Å¢Å¢Å¢Å¢Å¢Å¢Å¢Å¢Å¢Å¢Å¢Å¢Å¢Å¢Å¢Å¢Å¢Å¢Å¢Å¢Å¢Å¢Å¢Å¢Å¢Å¢Å¢Å¢Å¢Å¢Å¢Å¢Å¢Å¢Å¢Å¢Å¢Å¢Å¢Å¢Å¢Å¢Å¢Å¢Å¢Å¢Å¢Å¢Å¢Å¢Å¢Å¢Å¢Å¢Å¢Å¢Å¢Å¢Å¢Å¢Å¢Å¢Å¢Å¢Å¢Å¢Å¢Å¢Å¢Å¢Å¢Å¢Å¢Å¢Å¢Å¢Å¢Å¢Å¢Å¢Å¢Å¢Å¢Å¢Å¢Å¢Å¢Å¢Å¢Å¢Å¢Å¢Å¢Å¢Å¢Å¢Å¢Å¢Å¢Å¢Å¢Å¢Å¢Å¢Å¢Å¢Å¢Å¢Å¢Å¢Å¢Å¢Å¢Å¢Å¢Å¢Å¢Å¢Å¢Å¢Å¢Å¢Å¢Å¢Å¢Å¢Å¢Å¢Å¢Å¢Å¢Å¢Å¢Å¢Å¢Å¢Å¢Å¢Å¢Å¢Å¢Å¢Å¢Å¢Å¢Å¢Å¢Å¢Å¢Å¢Å¢Å¢Å¢Å¢Å¢Å¢Å¢Å¢Å¢Å¢Å¢Å¢Å¢Å¢Å¢Å¢Å¢Å¢Å¢Å¢Å¢Å¢Å¢Å¢Å¢Å¢Å¢Å¢Å¢Å¢Å¢Å¢Å¢Å¢Å¢Å¢Å¢Å¢Å¢Å¢Å¢Å¢Å¢Å¢Å¢Å¢Å¢Å¢Å¢Å¢Å¢Å¢Å¢Å¢Å¢Å¢Å¢Å¢Å¢Å¢Å¢Å¢Å¢Å¢Å¢Å¢Å¢Å¢Å¢Å¢Å¢Å¢Å¢Å¢Å¢Å¢Å¢Å¢Å¢Å¢Å¢Å¢Å¢Å¢Å¢Å¢Å¢Å¢Å¢Å¢Å¢Å¢Å¢Å¢Å¢Å¢Å¢Å¢Å¢Å¢Å¢Å¢Å¢Å¢Å¢Å¢Å¢Å¢Å¢Å¢Å¢Å¢Å¢Å¢Å¢Å¢Å¢Å¢Å¢Å¢Å¢Å¢Å¢Å¢Å¢Å¢Å¢Å¢Å¢Å¢Å¢Å¢Å¢Å¢Å¢Å¢Å¢Å¢Å¢Å¢Å¢Å¢Å¢Å¢Å¢Å¢Å¢Å¢Å¢Å¢Å¢Å¢Å¢Å¢Å¢Å¢Å¢Å¢Å¢Å¢Å¢Å¢Å¢Å¢Å¢Å¢Å¢Å¢Å¢Å¢Å¢Å¢Å¢Å¢Å¢Å¢Å¢Å¢Å¢Å¢Å¢Å¢Å¢Å¢Å¢Å¢Å¢Å¢Å¢Å¢Å¢Å¢Å¢Å¢Å¢Å¢Å¢Å¢Å¢Å¢Å¢Å¢Å¢Å¢Å¢Å¢Å¢Å¢Å¢Å¢Å¢Å¢Å¢Å¢Å¢Å¢Å¢Å¢Å¢Å¢Å¢Å¢Å¢Å¢Å¢Å¢Å¢Å¢Å¢Å¢Å¢Å¢Å¢Å¢Å¢Å¢Å¢Å¢Å¢Å¢Å¢Å¢Å¢Å¢Å¢Å¢Å¢Å¢Å¢Å¢Å¢Å¢Å¢Å¢Å¢Å¢Å¢Å¢Å¢Å¢Å¢Å¢Å¢Å¢Å¢Å¢Å¢Å¢Å¢Å¢Å¢": 1838,
      "ÅľÅ¬": 1839,
      "Å¢Å¢Å¢Å¡Å£Å¢Å¡": 1840,
      "ÅŃÅĹ": 1841,
      "ÅĸÅ§": 1842,
      "Å¢Å¢Å¢Å¢Å¢Å¢Å¢Å¢Å¢Å¢Å¢Å¢Å¢Å¢Å¢Å¢Å¢Å¢Å¢Å¢Å¢Å¢Å¢Å¢Å¢Å¢Å¢Å¢Å¢Å¢Å¢Å£Å¢Å¢Å¢Å¢Å¢Å¢Å¢Å¢Å¢Å¢Å¢Å¢Å¢Å¢Å¢Å¢Å¢Å¢Å¢Å¢Å¢Å¢Å¢Å¢Å¢Å¢Å¢Å¢Å¢Å¢Å¢Å¡Å¢Å¢Å¢Å¢Å¢Å¢Å¢Å¢Å¢Å¢Å¢Å¢Å¢Å¢Å¢Å¢Å¢Å¢Å¢Å¢Å¢Å¢Å¢Å¢Å¢Å¢Å¢Å¢Å¢Å¢Å¢Å£Å¢Å¢Å¢Å¢Å¢Å¢Å¢Å¢Å¢Å¢Å¢Å¢Å¢Å¢Å¢Å¢Å¢Å¢Å¢Å¢Å¢Å¢Å¢Å¢Å¢Å¢Å¢Å¢Å¢Å¢Å¢Å¡Å¢Å¢Å¢Å¢Å¢Å¢Å¢Å¢Å¢Å¢Å¢Å¢Å¢Å¢Å¢Å¢Å¢Å¢Å¢Å¢Å¢Å¢Å¢Å¢Å¢Å¢Å¢Å¢Å¢Å¢Å¢Å£Å¢Å¢Å¢Å¢Å¢Å¢Å¢Å¢Å¢Å¢Å¢Å¢Å¢Å¢Å¢Å¢Å¢Å¢Å¢Å¢Å¢Å¢Å¢Å¢Å¢Å¢Å¢Å¢Å¢Å¢Å¢Å¡Å¢Å¢Å¢Å¢Å¢Å¢Å¢Å¢Å¢Å¢Å¢Å¢Å¢Å¢Å¢Å¢Å¢Å¢Å¢Å¢Å¢Å¢Å¢Å¢Å¢Å¢Å¢Å¢Å¢Å¢Å¢Å£Å¢Å¢Å¢Å¢Å¢Å¢Å¢Å¢Å¢Å¢Å¢Å¢Å¢Å¢Å¢Å¢Å¢Å¢Å¢Å¢Å¢Å¢Å¢Å¢Å¢Å¢Å¢Å¢Å¢Å¢Å¢Å¡": 1843,
      "Å¢Å¢Å¢Å¢Å¢Å¢Å¢Å¢Å¢Å¢Å¢Å¢Å¢Å¢Å¢Å¢Å¢Å¢Å¢Å¢Å¢Å¢Å¢Å¢Å¢Å¢Å¢Å¢Å£Å¢Å£": 1844,
      "Å©Åª": 1845,
      "Å®Å¦": 1846,
      "Æ·Å¢Å¢Å¢Å¢Å¢Å¢Å¢Å¢Å¢Å¢Å¢Å¢Å¢Å¢Å¢Å¢Å¢Å¢Å¢Å¢Å¢Å¢": 1847,
      "Å¢Å¢Å¢Å¢Å¢Å¢Å¢Å¢Å£Å¡": 1848,
      "ÃĶ": 1849,
      "Å¢Å¢Å¢Å¢Å¢Å¢Å¢Å¢Å¢Å¢Å¢Å¢Å¡Å¢Å£": 1850,
      "Å¢Å¦ÅŁ": 1851,
      "Å¢Å¢Å¢Å¢Å¢Å¢Å¢Å¢Å¢Å¢Å¢Å¢Å¢Å¢Å¢Å¢Å¢Å¢Å¢Å¢Å¢Å¢Å¢Å¢Å¢Å¢Å¢Å¡Å¢Å¢Å¡": 1852,
      "Å¢Å¢Å¢Å¢Å¢Å¢Å¢Å¢Å¢Å¢Å¢Å¢Å¢Å¢Å¢Å¢Å¢Å¢Å¢Å¢Å¢Å¢Å¢Å¢Å¢Å¢Å¢Å¢Å¢Å¢Å¢Å¢Å¢Å¢Å¢Å¢Å¢Å¢Å¢Å¢Å¢Å¢Å¢Å¢Å¢Å¢Å¢Å¢Å¢Å¢Å¢Å¢Å¢Å¢Å¢Å¢Å¢Å¢Å¢Å¢Å¢Å¢Å¢Å¢Å¢Å¢Å¢Å¢Å¢Å¢Å¢Å¢Å¢Å¢Å¢Å¢Å¢Å¢Å¢Å¢Å¢Å¢Å¢Å¢Å¢Å¢Å¢Å¢Å¢Å¢Å¢Å¢Å¢Å¢Å¢Å¢Å¢Å¢Å¢Å¢Å¢Å¢Å¢Å¢Å¢Å¢Å¢Å¢Å¢Å¢Å¢Å¢Å¢Å¢Å¢Å¢Å¢Å¢Å¢Å¢Å¢Å¢Å¢Å¢Å¢Å¢Å¢Å¢Å¢Å¢Å¢Å¢Å¢Å¢Å¢Å¢Å¢Å¢Å¢Å¢Å¢Å¢Å¢Å¢Å¢Å¢Å¢Å¢Å¢Å¢Å¢Å¢Å¢Å¢Å¢Å¢Å¢Å¢Å¢Å¢Å¢Å¢Å¢Å¢Å¢Å¢Å¢Å¢Å¢Å¢Å¢Å¢Å¢Å¢Å¢Å¢Å¢Å¢Å¢Å¢Å¢Å¢Å¢Å¢Å¢Å¢Å¢Å¢Å¢Å¢Å¢Å¢Å¢Å¢Å¢Å¢Å¢Å¢Å¢Å¢Å¢Å¢Å¢Å¢Å¢Å¢Å¢Å¢Å¢Å¢Å¢Å¢Å¢Å¢Å¢Å¢Å¢Å¢Å¢Å¢Å¢Å¢Å¢Å¢Å¢Å¢Å¢Å¢Å¢Å¢Å¢Å¢Å¢Å¢Å¢Å¢Å¢Å¢Å¢Å¢Å¢Å¢Å¢Å¢Å¢Å¢Å¢Å¢Å¢Å¢Å¢Å¢Å¢Å¢Å¢Å¢Å¢Å¢Å¢Å¢Å¢Å¢Å¢Å¢Å¢Å¢Å¢Å¢Å¢Å¢Å¢Å¢Å¢Å¢Å¢Å¢Å¢Å¢Å¢Å¢Å¢Å¢Å¢Å¢Å¢Å¢Å¢Å¢Å¢Å¢Å¢Å¢Å¢Å¢Å¢Å¢Å¢Å¢Å¢Å¢Å¢Å¢Å¢Å¢Å¢Å¢Å¢Å¢Å¢Å¢Å¢Å¢Å¢Å¢Å¢Å¢Å¢Å¢Å¢Å¢Å¢Å¢Å¢Å¢Å¢Å¢Å¢Å¢Å¢Å¢Å¢Å¢Å¢Å¢Å¢Å¢Å¢Å¢Å¢Å¢Å¢Å¢Å¢Å¢Å¢Å¢Å¢Å¢Å¢Å¢Å¢Å¢Å¢Å¢Å¢Å¢Å¢Å¢Å¢Å¢Å¢Å¢Å¢Å¢Å¢Å¢Å¢Å¢Å¢Å¢Å¢Å¢Å¢Å¢Å¢Å¢Å¢Å¢Å¢Å¢Å¢Å¢Å¢Å¢Å¢Å¢Å¢Å¢Å¢Å¢Å¢Å¢Å¢Å¢Å¢Å¢Å¢Å¢Å¢Å¢Å¢Å¢Å¢Å¢Å¢Å¢Å¢Å¢Å¢Å¢Å¢Å¢Å¢Å¢Å¢Å¢Å¢Å¢Å¢Å¢Å¢Å¢Å¢Å¢Å¢Å¢Å¢Å¢Å¢Å¢Å¢Å¢Å¢Å¢Å¢Å¢Å¢Å¢Å¢Å¢Å¢Å¢Å¢Å¢Å¢Å¢Å¢Å¢Å¢Å¢Å¢Å¢Å¢Å¢Å¢Å¢Å¢Å¢Å¢Å¢Å¢Å¢Å¢Å¢Å¢Å¢Å¢Å¢Å¢Å¢Å¢Å¢Å¢Å¢Å¢Å¢Å¢Å¢Å¢Å¢Å¢Å¢Å¢Å¢Å¢Å¢Å¢Å¢Å¢Å¢Å¢Å¢Å¢Å¢Å¢Å¢Å¢Å¢Å¢Å¢Å¢Å¢Å¢Å¢Å¢Å¢Å¢Å¢Å¢Å¢Å¢Å¢Å¢Å¢Å¢Å¢Å¢Å¢Å¢Å¢Å¢Å¢Å¢Å¢Å¢Å¢Å¢Å¢Å¢Å¢Å¢Å¢Å¢Å¢Å¢Å¢Å¢Å¢Å¢Å¢Å¢Å¢Å¢Å¢Å¢Å¢Å¢Å¢Å¢Å¢Å¢Å¢Å¢Å¢Å¢Å¢Å¢Å¢Å¢Å¢Å¢Å¢Å¢Å¢Å¢Å¢Å¢Å¢Å¢Å¢Å¢Å¢Å¢Å¢Å¢Å¢Å¢Å¢Å¢Å¢Å¢Å¢Å¢Å¢Å¢Å¢Å¢Å¢Å¢Å¢Å¢Å¢Å¢Å¢Å¢Å¢Å¢Å¢Å¢Å¢Å¢Å¢Å¢Å¢Å¢Å¢Å¢Å¢Å¢Å¢Å¢Å¢Å¢Å¢Å¢Å¢Å¢Å¢Å¢Å¢Å¢Å¢Å¢Å¢Å¢Å¢Å¢Å¢Å¢Å¢Å¢Å¢Å¢Å¢Å¢Å¢Å¢Å¢Å¢Å¢Å¢Å¢Å¢Å¢Å¢Å¢Å¢Å¢Å¢Å¢Å¢Å¢Å¢Å¢Å¢Å¢Å¢Å¢Å¢Å¢Å¢Å¢Å¢Å¢Å¢Å¢Å¢Å¢Å¢Å¢Å¢Å¢Å¢Å¢Å¢Å¢Å¢Å¢Å¢Å¢Å¢Å¢Å¢Å¢Å¢Å¢Å¢Å¢Å¢Å¢Å¢Å¢Å¢Å¢Å¢Å¢Å¢Å¢Å¢Å¢Å¢Å¢Å¢Å¢Å¢Å¢Å¢Å¢Å¢Å¢Å¢Å¢Å¢Å¢Å¢Å¢Å¢Å¢Å¢Å¢Å¢Å¢Å¢Å¢Å¢Å¢Å¢Å¢Å¢Å¢Å¢Å¢Å¢Å¢Å¢Å¢Å¢Å¢Å¢Å¢Å¢Å¢Å¢Å¢Å¢Å¢Å¢Å¢Å¢Å¢Å¢Å¢Å¢Å¢Å¢Å¢Å¢Å¢Å¢Å¢Å¢Å¢Å¢Å¢Å¢Å¢Å¢Å¢Å¢Å¢Å¢Å¢Å¢Å¢Å¢Å¢Å¢Å¢Å¢Å¢Å¢Å¢Å¢Å¢Å¢Å¢Å¢Å¢Å¢Å¢Å¢Å¢Å¢Å¢Å¢Å¢Å¢Å¢Å¢Å¢Å¢Å¢Å¢Å¢Å¢Å¢Å¢Å¢Å¢Å¢Å¢Å¢Å¢Å¢Å¢Å¢Å¢Å¢Å¢Å¢Å¢Å¢Å¢Å¢Å¢Å¢Å¢Å¢Å¢Å¢Å¢Å¢Å¢Å¢Å¢Å¢Å¢Å¢Å¢Å¢Å¢Å¢Å¢Å¢Å¢Å¢Å¢Å¢Å¢Å¢Å¢Å¢Å¢Å¢Å¢Å¢Å¢Å¢Å¢Å¢Å¢Å¢Å¢Å¢Å¢Å¢Å¢Å¢Å¢Å¢Å¢Å¢Å¢Å¢Å¢Å¢Å¢Å¢Å¢Å¢Å¢Å¢Å¢Å¢Å¢Å¢Å¢Å¢Å¢Å¢Å¢Å¢Å¢Å¢Å¢Å¢Å¢Å¢Å¢Å¢Å¢Å¢Å¢Å¢Å¢Å¢Å¢Å¢Å¢Å¢Å¢Å¢Å¢Å¢Å¢Å¢Å¢Å¢Å¢Å¢Å¢Å¢Å¢Å¢Å¢Å¢Å¢Å¢Å¢Å¢Å¢Å¢Å¢Å¢Å¢Å¢Å¢Å¢Å¢Å¢Å¢Å¢Å¢Å¢Å¢Å¢Å¢Å¢Å¢Å¢Å¢Å¢Å¢Å¢Å¢Å¢Å¢Å¢Å¢Å¢Å¢Å¢Å¢Å¢Å¢Å¢Å¢Å¢Å¢Å¢Å¢Å¢Å¢Å¢Å¢Å¢Å¢Å¢Å¢Å¢Å¢Å¢Å¢Å¢Å¢Å¢Å¢Å¢Å¢Å¢Å¢Å¢Å¢Å¢Å¢Å¢Å¢Å¢Å¢Å¢Å¢Å¢Å¢Å¢Å¢Å¢Å¢Å¢Å¢Å¢Å¢Å¢Å¢Å¢Å¢Å¢Å¢Å¢Å¢Å¢Å¢Å¢Å¢Å¢Å¢Å¢Å¢Å¢Å¢Å¢Å¢Å¢Å¢Å¢Å¢Å¢Å¢Å¢Å¢Å¢Å¢Å¢Å¢Å¢Å¢Å¢Å¢Å¢Å¢Å¢Å¢Å¢Å¢Å¢Å¢Å¢Å¢Å¢Å¢Å¢Å¢Å¢Å¢Å¢Å¢Å¢Å¢Å¢Å¢Å¢Å¢Å¢Å¢Å¢Å¢Å¢Å¢Å¢Å¢Å¢Å¢Å¢Å¢Å¢Å¢Å¢Å¢Å¢Å¢Å¢Å¢Å¢Å¢Å¢Å¢Å¢Å¢Å¢Å¢Å¢Å¢Å¢Å¢Å¢Å¢Å¢Å¢Å¢Å¢Å¢Å¢Å¢Å¢Å¢Å¢Å¢Å¢Å¢Å¢Å¢Å¢Å¢Å¢Å¢Å¢Å¢Å¢Å¢Å¢Å¢Å¢Å¢Å¢Å¢Å¢Å¢Å¢Å¢Å¢Å¢Å¢Å¢Å¢Å¢Å¢Å¢Å¢Å¢Å¢Å¢Å¢Å¢Å¢Å¢Å¢Å¢Å¢Å¢Å¢Å¢Å¢Å¢Å¢Å¢Å¢Å¢Å¢Å¢Å¢Å¢Å¢Å¢Å¢Å¢Å¢Å¢Å¢Å¢Å¢Å¢Å¢Å¢Å¢Å¢Å¢Å¢Å¢Å¢Å¢Å¢Å¢Å¢Å¢Å¢Å¢Å¢Å¢Å¢Å¢Å¢Å¢Å¢Å¢Å¢Å¢Å¢Å¢Å¢Å¢Å¢Å¢Å¢Å¢Å¢Å¢Å¢Å¢Å¢Å¢Å¢Å¢Å¢Å¢Å¢Å¢Å¢Å¢Å¢Å¢Å¢Å¢Å¢Å¢Å¢Å¢Å¢Å¢Å¢Å¢Å¢Å¢Å¢Å¢Å¢Å¢Å¢Å¢Å¢Å¢Å¢Å¢Å¢Å¢Å¢Å¢Å¢Å¢Å¢Å¢Å¢Å¢Å¢Å¢Å¢Å¢Å¢Å¢Å¢Å¢Å¢Å¢Å¢Å¢": 1853,
      "Å¢Å¢Å¢Å¢Å¢Å¢Å¢Å¢Å¢Å¢Å¢Å¢Å¢Å¢Å¢Å¢Å¢Å¢Å¢Å¢Å¢Å¢Å¢Å¢Å¢Å¢Å¢Å¢Å¢Å¢Å¢Å¢Å¢Å¢Å¢Å¢Å¢Å¢Å¡": 1854,
      "Å¢Å¢Å¢Å¢Å£Å¤": 1855,
      "Å¤Å¡Å¦": 1856,
      "Å¢Å¢Å¢Å¢Å¢Å¢Å¢Å¢Å¢Å¢Å¢Å¢Å¢Å¢Å¢Å¢Å¢Å¢Å¢Å¢Å¢Å¢Å¢Å¢Å¢Å¢Å¢Å¢Å¢Å¢Å¢Å£Å¢Å¢Å¢Å¢Å¢Å¢Å¢Å¢Å¢Å¢Å¢Å¢Å¢Å¢Å¢Å¢Å¢Å¢Å¢Å¢Å¢Å¢Å¢Å¢Å¢Å¢Å¢Å¢Å¢Å¢Å¢Å¢Å¢Å¢Å¢Å¢Å¢Å¢Å¢Å¢Å¢Å¢Å¢Å¢Å¢Å¢Å¢Å¢Å¢Å¢Å¢Å¢Å¢Å¢Å¢Å¢Å¢Å¢Å¢Å¢Å¢Å¢Å¢Å¡Å¢Å¢Å¢Å¢Å¢Å¢Å¢Å¢Å¢Å¢Å¢Å¢Å¢Å¢Å¢Å¢Å¢Å¢Å¢Å¢Å¢Å¢Å¢Å¢Å¢Å¢Å¢Å¢Å¢Å¢Å¢Å¢Å¢Å¢Å¢Å¢Å¢Å¢Å¢Å¢Å¢Å¢Å¢Å¢Å¢Å¢Å¢Å¢Å¢Å¢Å¢Å¢Å¢Å¢Å¢Å¢Å¢Å¢Å¢Å¢Å¢Å¢Å¢Å£": 1857,
      "Å¢Å¢Å¢Å¢Å¦": 1858,
      "Å¢Å¢Å¢Å¢Å¢Å¢Å¢Å¢Å¢Å¢Å¢Å¢Å¡Å¢Å¡": 1859,
      "Å¢Å¤ÅłÅ£": 1860,
      "Å¢Å¢Å¢Å¢Å¢Å¢Å¢Å¢Å¢Å¢Å¢Å¢Å¢Å¢Å¢Å¢Å¢Å¢Å¢Å¢Å¢Å¢Å¢Å¢Å¢Å¢ÅłÅ¡": 1861,
      "Å¬ÅĽ": 1862,
      "Ç·": 1863,
      "Å¢Å¢Å¢Å¢Å¢Å¢Å¢Å¢Å¢Å¢Å¢Å¢Å¢Å¢Å¢Å¢Å¢Å¢Å¢Å¢Å¢Å¢Å¢Å¢Å¢Å¢Å¢Å¢Å¢Å¢Å¢Å¡Å¢Å¢Å¢Å¢Å¢Å¢Å¢Å¢Å¢Å¢Å¢Å¢Å¢Å¢Å¢Å¢Å¢Å¢Å¢Å¢Å¢Å¢Å¢Å¢Å¢Å¢Å¢Å¢Å¢Å¢Å¢Å¢Å¢Å¢Å¢Å¢Å¢Å¢Å¢Å¢Å¢Å¢Å¢Å¢Å¢Å¢Å¢Å¢Å¢Å¢Å¢Å¢Å¢Å¢Å¢Å¢Å¢Å¢Å¢Å¢Å¢Å¢Å¢Å¢Å¢Å¢Å¢Å¢Å¢Å¢Å¢Å¢Å¢Å¢Å¢Å¢Å¢Å¢Å¢Å¢Å¢Å¢Å¢Å¢Å¢Å¢Å¢Å¢Å¢Å¢Å¢Å¢Å¢Å¢Å¢Å¢": 1864,
      "Å¤Å¡Åŀ": 1865,
      "Ç¸": 1866,
      "Ãĵ": 1867,
      "ÅĺÅŃ": 1868,
      "Å¢Å¢Å¢Å¢Å¢Å¢Å¢Å¢Å¢Å¢Å¢Å¢Å¢Å¢Å¢Å¢Å¢Å¢Å¢Å¢Å¢Å¢Å¢Å¢Å¢Å¢Å¢Å¢Å¢Å¢Å¢Å¢Å¢Å¢Å¢Å¢Å¢Å¢Å¢Å¢Å¢Å¢Å¢Å¢Å¢Å¢Å¢Å¢Å¢Å¢Å¢Å¢Å¢Å¢Å¢Å¢Å¡": 1869,
      "Å¢Å¢Å¢Å¢Å¢Å¢Å¢Å¢Å¢Å¢Å¢Å¢Å¢Å¢Å¢Å¢Å¢Å¢Å¢Å¢Å¢Å£Å¢Å¢Å¢Å¢Å¢Å¢Å¢Å¢Å¢Å¡": 1870,
      "Å¤Å¨": 1871,
      "Å¢Å¢Å¢Å£Å¢Å¢Å£": 1872,
      "Å¬Åļ": 1873,
      "Å¡Å¡Åŀ": 1874,
      "Å¢Å¢Å¢Å¢Å¢Å¢Å¢Å¢Å¢Å¢Å¢Å¢Å¢Å¢Å¢Å¢Å¢Å¢Å¢Å¡Å¢Å¡": 1875,
      "Å¢Å¢Å¢Å¢Å¢Å¢Å¢Å¢Å¢Å¢Å¢Å¢Å¢Å¢Å¢Å¢Å¢Å¢Å¢Å¢Å¢Å¢Å¢Å¢Å¢Å£Å¢Å¢Å¢Å¢": 1876,
      "Å¢Å¢Å¢Å¢Å¢Å¢Å¢Å¢Å¢Å¢Å¢Å¢Å¢Å¢Å¢Å¢Å¢Å¢Å¢Å¢Å¢Å¢Å¢Å¢Å¢Å¢Å¤Å£": 1877,
      "Å¢Å¢Å¢Å¢Å¢Å¢Å¢Å¢Å¢Å¢Å¢Å¢Å¦": 1878,
      "Å¢Å¢Å¢Å¢Å¢Å¢Å¢Å¢Å¢Å¢Å¢Å¢Å¢ÅĿ": 1879,
      "Å¡Å£Å£Åł": 1880,
      "Å¢Å¢Å¢Å¢Å¢Å¢Å¢Å¢Å¢Å¢Å¢Å¢Å¢Å¢Å¢Å¢Å¢Å¢Å¢Å¢Å¢Å¢Å¢Å¢Å¢Å¢Å¡Å¤": 1881,
      "Å¢Å¢Å¢Å¢Å¢Å¢Å¢Å¢Å¢Å¢Å¢Å¢Å¢Å¢Å¢Å¢Å¢Å¢Å¢Å¢Å¢Å¢Å¢Å¢Å¢Å£Å£Å£": 1882,
      "Å¡Å£Å¡Å¤": 1883,
      "Å¢Å¢Å¢Å¢Å¢Å¢Å¢Å¢Å¢Å¢Å¢Å¢Å¢Å¢Å¢Å¢Å¢Å¢Å¢Å¢Å¢Å¢Å¢Å¢Å¢Å¢Å¢Å¢Å¢Å¢Å¢Å¢Å¢Å¢Å¢Å¢Å¢Å¢Å£": 1884,
      "ÅłÅ£Å¦": 1885,
      "Å¢Å¢Å¢Å¢Å£Åł": 1886,
      "Ç¹": 1887,
      "Å¥Åª": 1888,
      "Å«Åª": 1889,
      "Å¢Å¢Å¢Å¢Å¢Å¢Å¢Å¢Å¢Å¢Å¢Å¢Å¢Å¢Å¢Å¢Å¢Å¢Å¢Å¢Å¢Å¢Å¢Å¢Å¢Å¢Å¢Å¢Å¢Å¢Å¢Å¢Å¢Å¢Å¢Å¢Å¢Å¡": 1890,
      "Å¢Å¢Å¢Å¢Å¢Å¢Å¢Å¢Å¢Å¢Å¢Å¢Å¢Å¢Å¢Å¢Å¢Å¢Å¢Å¢Å¢Å¢Å¢Å¡Å¤": 1891,
      "Å¢Å¢Å¢Å¡Å¢Å¢Å¡": 1892,
      "ÅļÅļ": 1893,
      "Å¢Å¢Å¢Å¢Å¡Åł": 1894,
      "Å¢Å¢Å¢Å¢Å¢Å¢Å¢Å¢Å¢Å¢Å¢Å¢Å¢Å¢Å¢Å¢Å¢Å¢Å¢Å¢Å¢Å¢Å£Å¤": 1895,
      "Å¢Å¢Å¢Å¢Å¢Å¢Å¢Å¢Å¢Å¢Å¡Å£": 1896,
      "Å¢Å¢Å¢Å¢Å¢Å¢Å¢Å¢Å¢Å¢Å¢Å¢Åŀ": 1897,
      "Å¢Å¢Å¢Å¢Å¢Å¢Å¢Å¢Å¢Å¢Å¢Å¢Å¢Å¢Å¢Å¢Å¢Å¢Å¢Å¢Å¢Å¢Å¢Å¢Å¢Å¢Å£Å¡Å¢Å£": 1898,
      "Å¢Å¢Å¢Å¢Å¢Å¢Å¢Å¢Å¢Å¢Å¢Å¢Å¢Å¢Å¢Å¢Å¢Å¢Å¢Å¢Å¢Å¢Å¢Å¢Å¢Å¡Å£Å¡": 1899,
      "Å¢Å¢Å¢Å¢Å¢Å¢Å¢Å¢Å¢Å¢Å¢Å¢Å¢Å¢Å¢Å¢Å¢Å¢Å¢Å¢Å¢Å¢Å¢Å¢Å¢Å¢Å£Å£Å¡": 1900,
      "Å¢Å¢Å¢Å¢Å¢Å¢Å¢Å¢Å¢Å¢Å¢Å¢Å¢Å¢Å¢Å¢Å¢Å¢Å¢Å¢Å¢Å¡Å¢Å¢Å¢Å¢Å¢Å¢Å¢Å¢Å¢Å£": 1901,
      "Å¡Å£Å£Å¤": 1902,
      "Å¢Å¢Å¢Å¢Å¢Å¢Å¢Å¢Å¢Å¢Å¢Å¢Å¢Å¢Å¢Å¢Å¢Å¢Å¢Å¢Å¢Å¢Å¢Å¢Å¢Å¢Å¢Å¢Å¢Å¢Å¢Å¢Å¢Å¢Å¢Å¢Å¢Å£": 1903,
      "Å¢ÅĪ": 1904,
      "ÅĸÅ®": 1905,
      "Å¢Å¢Å¢Å¢Åŀ": 1906,
      "ÅłÅ£Åŀ": 1907,
      "Å¢Å¢Å¢Å¢Å¢Å¢Å¢Å¢Å¢Å¢Å¢Å¢Å¢Å¢Å¢Å¢Å¢Å¢Å¢Å¢Å¢Å¢Å¢Å¢Å¢Å¡Å£Å£": 1908,
      "Å¢Å¢Å¢ÅĽ": 1909,
      "Å³Å£": 1910,
      "ÅĴÅ¡": 1911,
      "Å¢Å¢Å¢Å¢Å¢Å¢Å¢Å¢Å¢Å¢Å¢Å¢Å¢Å¢Å¢Å¢Å¢Å¢Å¢Å¢Å¢Å¢ÅłÅ¡": 1912,
      "Å¢Å¢Å¢Å¢Å¢Å¢Å¢Å¢Å¢Å¢Å¢Å¢Å¢Å¢Å¢Å¢Å¢Å¢Å¢Å¢Å¢Å¢Å¢Å¢Å¢Å¢Å¢Å¡Å¢Å¢Å£": 1913,
      "Å¢Å¢Å¢Å¢Å¢Å¢Å¢Å¢Å¢Å¢Å£Å¡": 1914,
      "Å¢Å¢Å¢Å¢Å¢Å¢Å¢Å¢Å¢Å¢Å¢Å¢Å¢Å¢Å¢Å¢Å¢Å¢Å¢Å¢Å¢Å¢Å¢Å¢Å¢Å¢Å¢Å¢Å¢Å¢Å¢Å£Å¢Å¢Å¢Å¢Å¢Å¢Å¢Å¢Å¢Å¢Å¢Å¢Å¢Å¢Å¢Å¢Å¢Å¢Å¢Å¢Å¢Å¢Å¢Å¢Å¢Å¢Å¢Å¢Å¢Å¢Å¢Å£Å¢Å¢Å¢Å¢Å¢Å¢Å¢Å¢Å¢Å¢Å¢Å¢Å¢Å¢Å¢Å¢Å¢Å¢Å¢Å¢Å¢Å¢Å¢Å¢Å¢Å¢Å¢Å¢Å¢Å¢Å¢Å£Å¢Å¢Å¢Å¢Å¢Å¢Å¢Å¢Å¢Å¢Å¢Å¢Å¢Å¢Å¢Å¢Å¢Å¢Å¢Å¢Å¢Å¢Å¢Å¢Å¢Å¢Å¢Å¢Å¢Å¢Å¢Å£Å¢Å¢Å¢Å¢Å¢Å¢Å¢Å¢Å¢Å¢Å¢Å¢Å¢Å¢Å¢Å¢Å¢Å¢Å¢Å¢Å¢Å¢Å¢Å¢Å¢Å¢Å¢Å¢Å¢Å¢Å¢Å£Å¢Å¢Å¢Å¢Å¢Å¢Å¢Å¢Å¢Å¢Å¢Å¢Å¢Å¢Å¢Å¢Å¢Å¢Å¢Å¢Å¢Å¢Å¢Å¢Å¢Å¢Å¢Å¢Å¢Å¢Å¢Å£Å¢Å¢Å¢Å¢Å¢Å¢Å¢Å¢Å¢Å¢Å¢Å¢Å¢Å¢Å¢Å¢Å¢Å¢Å¢Å¢Å¢Å¢Å¢Å¢Å¢Å¢Å¢Å¢Å¢Å¢Å¢Å£Å¢Å¢Å¢Å¢Å¢Å¢Å¢Å¢Å¢Å¢Å¢Å¢Å¢Å¢Å¢Å¢Å¢Å¢Å¢Å¢Å¢Å¢Å¢Å¢Å¢Å¢Å¢Å¢Å¢Å¢Å¢Å£": 1915,
      "Å§ÅĻ": 1916,
      "ÃĴ": 1917,
      "Å¥Å£Å£": 1918,
      "Å¢Å¡Å£Å¡Å¡": 1919,
      "Å¢Å¢Å¢Å¡Å£Å£": 1920,
      "Çº": 1921,
      "Å¬ÅĹ": 1922,
      "Å°Åł": 1923,
      "ÅĺÅľ": 1924,
      "Å¢Å¢Å¢Å¢Å¢Å¢Å¢Å¢Å¢Å¢Å¢Å¢Å¢Å¢Å¢Å¢Å¢Å¢Å¢Å¢Å¢Å¢Å¢Å¢Å¢Å¢Å¢Å¢Å¢Å¢Å¢Å£Å¢Å¢Å¢Å¢Å¢Å¢Å¢Å¢Å¢Å¢Å¢Å¢Å¢Å¢Å¢Å¢Å¢Å¢Å¢Å¢Å¢Å¢Å¢Å¢Å¢Å¢Å¢Å¢Å¢Å¢Å¢Å¡Å¢Å¢Å¢Å¢Å¢Å¢Å¢Å¢Å¢Å¢Å¢Å¢Å¢Å¢Å¢Å¢Å¢Å¢Å¢Å¢Å¢Å¢Å¢Å¢Å¢Å¢Å¢Å¢Å¢Å¢Å¢Å¢Å¢Å¢Å¢Å¢Å¢Å¢Å¢Å¢Å¢Å¢Å¢Å¢Å¢Å¢Å¢Å¢Å¢Å¢Å¢Å¢Å¢Å¢Å¢Å¢Å¢Å¢Å¢Å¢Å¢Å¢Å¢Å¢Å¢Å¢Å¢Å¢Å¢Å¢Å¢Å¢Å¢Å¢Å¢Å¢Å¢Å¢Å¢Å¢Å¢Å¢Å¢Å¢Å¢Å¢Å¢Å¢Å¢Å¢Å¢Å¢Å¢Å¢Å¢Å¡": 1925,
      "Å¢Å¢Å¢Å¢Å¢Å¢Å¢Å¢Å¢Å¢Å¢Å¢Å¢Å§": 1926,
      "Å¢Å¢Å¢Å¢Å¢Å¢Å¢Å¢Å¢Å¢Å¢Å¢Å¢Å¢Å¢Å¢Å¢Å¢Å¢Å£Å¢Å¡": 1927,
      "Å¢Å¢Å¢Å¢Å¢Å¢Å¢Å¢Å¢Å¢Å¢Å¢Å¢Å¢Å¢Å¢Å¢Å¢Å¢Å¢Å¢Å¢Å¢Å£Åł": 1928,
      "ÅĽÅļ": 1929,
      "Å¢Å¢Å¢Å¢Å¢Å¢Å¢Å¢Å¢Å¢Å¢Å¢Å¢Å¢Å¢Å¢Å¢Å¢Å¢Å©": 1930,
      "Å¢Å¢Å¢Å©": 1931,
      "Å¢Å¢Å¢Å¢Å¢Å¢Å¢Å¢Å¢Å¢Å¢Å¢Å¢Å¢Å¢Å¢Å¢Å¢Å¢Å£Å¢Å£": 1932,
      "Å¢Å¢Å¢Å¢Å¢Å¢Å¢Å¢Å¢Å¢Å¢Å¢Å¢Å¢Å¢Å¢Å¢Å¢Å¢Å¢Å¢Å¢Å¢Å¢Å¢Å¢Å¢Å¢Å¡Å¢Å¡": 1933,
      "Å¢Å¢Å¢Å¢Å¢Å¢Å¢Å¢Å¢Å¢Å¢Å¢Å¢Å¢Å¢Å¢Å¢Å¢Å¢Å¢Å¢Å¢Å¢Å¢Å¢Å¢Å¢Å¢Å¢Å¢Å¢Å¢Å¢Å¢Å¢Å¢Å¢Å¢Å¢Å¢Å¢Å¢Å¢Å¢Å¢Å¢Å¢Å¢Å¢Å¢Å¢Å¢Å¢Å¢Å¢Å¢Å¢Å¢Å¢Å¢Å¢Å¢Å¢Å¢Å¢Å¢Å¢Å¢Å¢Å¢Å¢Å¢Å¢Å¢Å¢Å¢Å¢Å¢Å¢Å¢Å¢Å¢Å¢Å¢Å¢Å¢Å¢Å¢Å¢Å¢Å¢Å¢Å¢Å¢Å¢Å¢Å¢Å¢Å¢Å¢Å¢Å¢Å¢Å¢Å¢Å¢Å¢Å¢Å¢Å¢Å¢Å¢Å¢Å¢Å¢Å¢Å¢Å¢Å¢Å¢Å¢Å¢Å¢Å¢Å¢Å¢Å¢Å¢Å¢Å¢Å¢Å¢Å¢Å¢Å¢Å¢Å¢Å¢Å¢Å¢Å¢Å¢Å¢Å¢Å¢Å¢Å¢Å¢Å¢Å¢Å¢Å¢Å¢Å¢Å¢Å¢Å¢Å¢Å¢Å¢Å¢Å¢Å¢Å¢Å¢Å¢Å¢Å¢Å¢Å¢Å¢Å¢Å¢Å¢Å¢Å¢Å¢Å¢Å¢Å¢Å¢Å¢Å¢Å¢Å¢Å¢Å¢Å¢Å¢Å¢Å¢Å¢Å¢Å¢Å¢Å¢Å¢Å¢Å¢Å¢Å¢Å¢Å¢Å¢Å¢Å¢Å¢Å¢Å¢Å¢Å¢Å¢Å¢Å¢Å¢Å¢Å¢Å¢Å¢Å¢Å¢Å¢Å¢Å¢Å¢Å¢Å¢Å¢Å¢Å¢Å¢Å¢Å¢Å¢Å¢Å¢Å¢Å¢Å¢Å¢Å¢Å¢Å¢Å¢Å¢Å¢Å¢Å¢Å¢Å¢Å¢Å¢Å¢Å¢Å¢Å¢Å¢Å¢Å¢Å¢Å¢Å¢Å¢Å¢Å¢Å¢Å¢Å¢Å¢Å¢Å¢Å¢Å¢Å¢Å¢Å¢Å¢Å¢Å¢Å¢Å¢Å¢Å¢Å¢Å¢Å¢Å¢Å¢Å¢Å¢Å¢Å¢Å¢Å¢Å¢Å¢Å¢Å¢Å¢Å¢Å¢Å¢Å¢Å¢Å¢Å¢Å¢Å¢Å¢Å¢Å¢Å¢Å¢Å¢Å¢Å¢Å¢Å¢Å¢Å¢Å¢Å¢Å¢Å¢Å¢Å¢Å¢Å¢Å¢Å¢Å¢Å¢Å¢Å¢Å¢Å¢Å¢Å¢Å¢Å¢Å¢Å¢Å¢Å¢Å¢Å¢Å¢Å¢Å¢Å¢Å¢Å¢Å¢Å¢Å¢Å¢Å¢Å¢Å¢Å¢Å¢Å¢Å¢Å¢Å¢Å¢Å¢Å¢Å¢Å¢Å¢Å¢Å¢Å¢Å¢Å¢Å¢Å¢Å¢Å¢Å¢Å¢Å¢Å¢Å¢Å¢Å¢Å¢Å¢Å¢Å¢Å¢Å¢Å¢Å¢Å¢Å¢Å¢Å¢Å¢Å¢Å¢Å¢Å¢Å¢Å¢Å¢Å¢Å¢Å¢Å¢Å¢Å¢Å¢Å¢Å¢Å¢Å¢Å¢Å¢Å¢Å¢Å¢Å¢Å¢Å¢Å¢Å¢Å¢Å¢Å¢Å¢Å¢Å¢Å¢Å¢Å¢Å¢Å¢Å¢Å¢Å¢Å¢Å¢Å¢Å¢Å¢Å¢Å¢Å¢Å¢Å¢Å¢Å¢Å¢Å¢Å¢Å¢Å¢Å¢Å¢Å¢Å¢Å¢Å¢Å¢Å¢Å¢Å¢Å¢Å¢Å¢Å¢Å¢Å¢Å¢Å¢Å¢Å¢Å¢Å¢Å¢Å¢Å¢Å¢Å¢Å¢Å¢Å¢Å¢Å¢Å¢Å¢Å¢Å¢Å¢Å¢Å¢Å¢Å¢Å¢Å¢Å¢Å¢Å¢Å¢Å¢Å¢Å¢Å¢Å¢Å¢Å¢Å¢Å¢Å¢Å¢Å¢Å¢Å¢Å¢Å¢Å¢Å¢Å¢Å¢Å¢Å¢Å¢Å¢Å¢Å¢Å¢Å¢Å¢Å¢Å¢Å¢Å¢Å¢Å¢Å¢Å¢Å¢Å¢Å¢Å¢Å¢Å¢Å¢Å¢Å¢Å¢Å¢Å¢Å¢Å¢Å¢Å¢Å¢Å¢Å¢Å¢Å¢Å¢Å¢Å¢Å¢Å¢Å¢Å¢Å¢Å¢Å¢Å¢Å¢Å¢Å¢Å¢Å¢Å¢Å¢Å¢Å¢Å¢Å¢Å¢Å¢Å¢Å¢Å¢Å¢Å¢Å¢Å¢Å¢Å¢Å¢Å¢Å¢Å¢Å¢Å¢Å¢Å¢Å¢Å¢Å¢Å¢Å¢Å¢Å¢Å¢Å¢Å¢Å¢Å¢Å¢Å¢Å¢Å¢Å¢Å¢Å¢Å¢Å¢Å¢Å¢Å¢Å¢Å¢Å¢Å¢Å¢Å¢Å¢Å¢Å¢Å¢Å¢Å¢Å¢Å¢Å¢Å¢Å¢Å¢Å¢Å¢Å¢Å¢Å¢Å¢Å¢Å¢Å¢Å¢Å¢Å¢Å¢Å¢Å¢Å¢Å¢Å¢Å¢Å¢Å¢Å¢Å¢Å¢Å¢Å¢Å¢Å¢Å¢Å¢Å¢Å¢Å¢Å¢Å¢Å¢Å¢Å¢Å¢Å¢Å¢Å¢Å¢Å¢Å¢Å¢Å¢Å¢Å¢Å¢Å¢Å¢Å¢Å¢Å¢Å¢Å¢Å¢Å¢Å¢Å¢Å¢Å¢Å¢Å¢Å¢Å¢Å¢Å¢Å¢Å¢Å¢Å¢Å¢Å¢Å¢Å¢Å¢Å¢Å¢Å¢Å¢Å¢Å¢Å¢Å¢Å¢Å¢Å¢Å¢Å¢Å¢Å¢Å¢Å¢Å¢Å¢Å¢Å¢Å¢Å¢Å¢Å¢Å¢Å¢Å¢Å¢Å¢Å¢Å¢Å¢Å¢Å¢Å¢Å¢Å¢Å¢Å¢Å¢Å¢Å¢Å¢Å¢Å¢Å¢Å¢Å¢Å¢Å¢Å¢Å¢Å¢Å¢Å¢Å¢Å¢Å¢Å¢Å¢Å¢Å¢Å¢Å¢Å¢Å¢Å¢Å¢Å¢Å¢Å¢Å¢Å¢Å¢Å¢Å¢Å¢Å¢Å¢Å¢Å¢Å¢Å¢Å¢Å¢Å¢Å¢Å¢Å¢Å¢Å¢Å¢Å¢Å¢Å¢Å¢Å¢Å¢Å¢Å¢Å¢Å¢Å¢Å¢Å¢Å¢Å¢Å¢Å¢Å¢Å¢Å¢Å¢Å¢Å¢Å¢Å¢Å¢Å¢Å¢Å¢Å¢Å¢Å¢Å¢Å¢Å¢Å¢Å¢Å¢Å¢Å¢Å¢Å¢Å¢Å¢Å¢Å¢Å¢Å¢Å¢Å¢Å¢Å¢Å¢Å¢Å¢Å¢Å¢Å¢Å¢Å¢Å¢Å¢Å¢Å¢Å¢Å¢Å¢Å¢Å¢Å¢Å¢Å¢Å¢Å¢Å¢Å¢Å¢Å¢Å¢Å¢Å¢Å¢Å¢Å¢Å¢Å¢Å¢Å¢Å¢Å¢Å¢Å¢Å¢Å¢Å¢Å¢Å¢Å¢Å¢Å¢Å¢Å¢Å¢Å¢Å¢Å¢Å¢Å¢Å¢Å¢Å¢Å¢Å¢Å¢Å¢Å¢Å¢Å¢Å¢Å¢Å¢Å¢Å¢Å¢Å¢Å¢Å¢Å¢Å¢Å¢Å¢Å¢Å¢Å¢Å¢Å¢Å¢Å¢Å¢Å¢Å¢Å¢Å¢Å¢Å¢Å¢Å¢Å¢Å¢Å¢Å¢Å¢Å¢Å¢Å¢Å¢Å¢Å¢Å¢Å¢Å¢Å¢Å¢Å¢Å¢Å¢Å¢Å¢Å¢Å¢Å¢Å¢Å¢Å¢Å¢Å¢Å¢Å¢Å¢Å¢Å¢Å¢Å¢Å¢Å¢Å¢Å¢Å¢Å¢Å¢Å¢Å¢Å¢Å¢Å¢Å¢Å¢Å¢Å¢Å¢Å¢Å¢Å¢Å¢Å¢Å¢Å¢Å¢Å¢Å¢Å¢Å¢Å¢Å¢Å¢Å¢Å¢Å¢Å¢Å¢Å¢Å¢Å¢Å¢Å¢Å¢Å¢Å¢Å¢Å¢Å¢Å¢Å¢Å¢Å¢Å¢Å¢Å¢Å¢Å¢Å¢Å¢Å¢Å¢Å¢Å¢Å¢Å¢Å¢Å¢Å¢Å¢Å¢Å¢Å¢Å¢Å¢Å¢Å¢Å¢Å¢Å¢Å¢Å¢Å¢Å¢Å¢Å¢Å¢Å¢Å¢Å¢Å¢Å¢Å¢Å¢Å¢Å¢Å¢Å¢Å¢Å¢Å¢Å¢Å¢Å¢Å¢Å¢Å¢Å¢Å¢Å¢Å¢Å¢Å¢Å¢Å¢": 1934,
      "Å¢Å¢Å¢Å¢Å¢Å¢Å¢Å¡Å£": 1935,
      "ÅĶÅł": 1936,
      "Å¡Å£Å¡Åł": 1937,
      "Å¢Å¢Å¢Å¢Å¢Å¢Å¢Å¢Å¢Å¢Å¢Å¢Å¢Å¢Å¢Å¢Å¢Å¢Å¢Å¢Å¢Å¢Å¢Å¢Å¢Å¢Å¢Å¢Å¢Å¢Å¢Å¢Å¢Å¢Å¢Å¢Å¢Å¢Å¢Å¢Å¢Å¢Å¢Å¢Å¢Å¢Å¢Å¢Å¢Å¢Å¢Å¢Å¢Å¢Å¢Å¢Å£": 1938,
      "Å¢Å¢Å¢Å¢Å¢Å¢Å¢Å¢Å¢Å¢Å¢Å¢Å¢Å¢Å¢Å¢Å¢Å¢Å¢Å¢Å¢Å¢Å¢Å¢Å¢Å¢Å¢Å¢Å¢Å£Å¢Å¢Å¢Å¢Å¢Å¢Å¢Å¢Å¢Å¢Å¢Å¢Å¢Å¢Å¢Å¢Å¢Å¢Å¢Å¢Å¢Å¢Å¢Å¢Å¢Å¢Å¢Å¢Å¢Å¢Å¢Å¢Å¢Å£": 1939,
      "Å±Å¤": 1940,
      "Å¯ÅŁ": 1941,
      "Å¢Å¢Å¢Å¢Å¢Å¢Å¢Å¢Å¢Å¢Å¢Å¢Å¢Å¢Å¢Å¢Å¢Å¢Å¢ÅĽ": 1942,
      "Å¢Å¢Å¡ÅŁ": 1943,
      "Å¤Å¤ÅŁ": 1944,
      "Å¡ÅĿ": 1945,
      "Å¢Å¢Å¢Å¢Å¢Å¢Å¢Å¢Å¢Å¢Å¢Å¢Å¢Å¢Å¢Å¢Å¢Å¢Å¢Å¢Å¢Å¢Å¢Å¢Å¢Å¢Å¢Å¢Å¢Å¢Å¢Å¢Å¢Å¢Å¢Å¢Å¢Å¢Å¢Å¢Å¢Å¢Å¢Å¢Å¢Å¢Å¢Å¢Å¢Å¢Å¢Å¢Å¢Å¢Å¢Å¢Å¢Å¢Å¢Å¢Å¢Å¢Å¢Å¢Å¢Å¢Å¢Å¢Å¢Å¢Å¢Å¢Å¢Å¢Å¢Å¢Å¢Å¢Å¢Å¢Å¢Å¢Å¢Å¢Å¢Å¢Å¢Å¢Å¢Å¢Å¢Å¢Å¢Å¢Å¢Å¢Å¢Å¢Å¢Å¢Å¢Å¢Å¢Å¢Å¢Å¢Å¢Å¢Å¢Å¢Å¢Å¢Å¢Å¢Å¢Å¢Å¢Å¢Å¢Å¢Å¢Å¢Å¢Å¢Å¢Å¢Å¢Å¢Å¢Å¢Å¢Å¢Å¢Å¢Å¢Å¢Å¢Å¢Å¢Å¢Å¢Å¢Å¢Å¢Å¢Å¢Å¢Å¢Å¢Å¢Å¢Å¢Å¢Å¢Å¢Å¢Å¢Å¢Å¢Å¢Å¢Å¢Å¢Å¢Å¢Å¢Å¢Å¢Å¢Å¢Å¢Å¢Å¢Å¢Å¢Å¢Å¢Å¢Å¢Å¢Å¢Å¢Å¢Å¢Å¢Å¢Å¢Å¢Å¢Å¢Å¢Å¢Å¢Å¢Å¢Å¢Å¢Å¢Å¢Å¢Å¢Å¢Å¢Å¢Å¢Å¢Å¢Å¢Å¢Å¢Å¢Å¢Å¢Å¢Å¢Å¢Å¢Å¢Å¢Å¢Å¢Å¢Å¢Å¢Å¢Å¢Å¢Å¢Å¢Å¢Å¢Å¢Å¢Å¢Å¢Å¢Å¢Å¢Å¢Å¢Å¢Å¢Å¢Å¢Å¢Å¢Å¢Å¢Å¢Å¢Å¢Å¢Å¢Å¢Å¢Å¢Å¢Å¢Å¢Å¢Å¢Å¢Å¢Å¢Å¢Å¢Å¢Å¢Å¢Å¢Å¢Å¢Å¢Å¢Å¢Å¢Å¢Å¢Å¢Å¢Å¢Å¢Å¢Å¢Å¢Å¢Å¢Å¢Å¢Å¢Å¢Å¢Å¢Å¢Å¢Å¢Å¢Å¢Å¢Å¢Å¢Å¢Å¢Å¢Å¢Å¢Å¢Å¢Å¢Å¢Å¢Å¢Å¢Å¢Å¢Å¢Å¢Å¢Å¢Å¢Å¢Å¢Å¢Å¢Å¢Å¢Å¢Å¢Å¢Å¢Å¢Å¢Å¢Å¢Å¢Å¢Å¢Å¢Å¢Å¢Å¢Å¢Å¢Å¢Å¢Å¢Å¢Å¢Å¢Å¢Å¢Å¢Å¢Å¢Å¢Å¢Å¢Å¢Å¢Å¢Å¢Å¢Å¢Å¢Å¢Å¢Å¢Å¢Å¢Å¢Å¢Å¢Å¢Å¢Å¢Å¢Å¢Å¢Å¢Å¢Å¢Å¢Å¢Å¢Å¢Å¢Å¢Å¢Å¢Å¢Å¢Å¢Å¢Å¢Å¢Å¢Å¢Å¢Å¢Å¢Å¢Å¢Å¢Å¢Å¢Å¢Å¢Å¢Å¢Å¢Å¢Å¢Å¢Å¢Å¢Å¢Å¢Å¢Å¢Å¢Å¢Å¢Å¢Å¢Å¢Å¢Å¢Å¢Å¢Å¢Å¢Å¢Å¢Å¢Å¢Å¢Å¢Å¢Å¢Å¢Å¢Å¢Å¢Å¢Å¢Å¢Å¢Å¢Å¢Å¢Å¢Å¢Å¢Å¢Å¢Å¢Å¢Å¢Å¢Å¢Å¢Å¢Å¢Å¢Å¢Å¢Å¢Å¢Å¢Å¢Å¢Å¢Å¢Å¢Å¢Å¢Å¢Å¢Å¢Å¢Å¢Å¢Å¢Å¢Å¢Å¢Å¢Å¢Å¢Å¢Å¢Å¢Å¢Å¢Å¢Å¢Å¢Å¢Å¢Å¢Å¢Å¢Å¢Å¢Å¢Å¢Å¢Å¢Å¢Å¢Å¢Å¢Å¢Å¢Å¢Å¢Å¢Å¢Å¢Å¢Å¢Å¢Å¢Å¢Å¢Å¢Å¢Å¢Å¢Å¢Å¢Å¢Å¢Å¢Å¢Å¢Å¢Å¢Å¢Å¢Å¢Å¢Å¢Å¢Å¢Å¢Å¢Å¢Å¢Å¢Å¢Å¢Å¢Å¢Å¢Å¢Å¢Å¢Å¢Å¢Å¢Å¢Å¢Å¢Å¢Å¢Å¢Å¢Å¢Å¢Å¢Å¢Å¢Å¢Å¢Å¢Å¢Å¢Å¢Å¢Å¢Å¢Å¢Å¢Å¢Å¢Å¢Å¢Å¢Å¢Å¢Å¢Å¢Å¢Å¢Å¢Å¢Å¢Å¢Å¢Å¢Å¢Å¢Å¢Å¢Å¢Å¢Å¢Å¢Å¢Å¢Å¢Å¢Å¢Å¢Å¢Å¢Å¢Å¢Å¢Å¢Å¢Å¢Å¢Å¢Å¢Å¢Å¢Å¢Å¢Å¢Å¢Å¢Å¢Å¢Å¢Å¢Å¢Å¢Å¢Å¢Å¢Å¢Å¢Å¢Å¢Å¢Å¢Å¢Å¢Å¢Å¢Å¢Å¢Å¢Å¢Å¢Å¢Å¢Å¢Å¢Å¢Å¢Å¢Å¢Å¢Å¢Å¢Å¢Å¢Å¢Å¢Å¢Å¢Å¢Å¢Å¢Å¢Å¢Å¢Å¢Å¢Å¢Å¢Å¢Å¢Å¢Å¢Å¢Å¢Å¢Å¢Å¢Å¢Å¢Å¢Å¢Å¢Å¢Å¢Å¢Å¢Å¢Å¢Å¢Å¢Å¢Å¢Å¢Å¢Å¢Å¢Å¢Å¢Å¢Å¢Å¢Å¢Å¢Å¢Å¢Å¢Å¢Å¢Å¢Å¢Å¢Å¢Å¢Å¢Å¢Å¢Å¢Å¢Å¢Å¢Å¢Å¢Å¢Å¢Å¢Å¢Å¢Å¢Å¢Å¢Å¢Å¢Å¢Å¢Å¢Å¢Å¢Å¢Å¢Å¢Å¢Å¢Å¢Å¢Å¢Å¢Å¢Å¢Å¢Å¢Å¢Å¢Å¢Å¢Å¢Å¢Å¢Å¢Å¢Å¢Å¢Å¢Å¢Å¢Å¢Å¢Å¢Å¢Å¢Å¢Å¢Å¢Å¢Å¢Å¢Å¢Å¢Å¢Å¢Å¢Å¢Å¢Å¢Å¢Å¢Å¢Å¢Å¢Å¢Å¢Å¢Å¢Å¢Å¢Å¢Å¢Å¢Å¢Å¢Å¢Å¢Å¢Å¢Å¢Å¢Å¢Å¢Å¢Å¢Å¢Å¢Å¢Å¢Å¢Å¢Å¢Å¢Å¢Å¢Å¢Å¢Å¢Å¢Å¢Å¢Å¢Å¢Å¢Å¢Å¢Å¢Å¢Å¢Å¢Å¢Å¢Å¢Å¢Å¢Å¢Å¢Å¢Å¢Å¢Å¢Å¢Å¢Å¢Å¢Å¢Å¢Å¢Å¢Å¢Å¢Å¢Å¢Å¢Å¢Å¢Å¢Å¢Å¢Å¢Å¢Å¢Å¢Å¢Å¢Å¢Å¢Å¢Å¢Å¢Å¢Å¢Å¢Å¢Å¢Å¢Å¢Å¢Å¢Å¢Å¢Å¢Å¢Å¢Å¢Å¢Å¢Å¢Å¢Å¢Å¢Å¢Å¢Å¢Å¢Å¢Å¢Å¢Å¢Å¢Å¢Å¢Å¢Å¢Å¢Å¢Å¢Å¢Å¢Å¢Å¢Å¢Å¢Å¢Å¢Å¢Å¢Å¢Å¢Å¢Å¢Å¢Å¢Å¢Å¢Å¢Å¢Å¢Å¢Å¢Å¢Å¢Å¢Å¢Å¢Å¢Å¢Å¢Å¢Å¢Å¢Å¢Å¢Å¢Å¢Å¢Å¢Å¢Å¢Å¢Å¢Å¢Å¢Å¢Å¢Å¢Å¢Å¢Å¢Å¢Å¢Å¢Å¢Å¢Å¢Å¢Å¢Å¢Å¢Å¢Å¢Å¢Å¢Å¢Å¢Å¢Å¢Å¢Å¢Å¢Å¢Å¢Å¢Å¢Å¢Å¢Å¢Å¢Å¢Å¢Å¢Å¢Å¢Å¢Å¢Å¢Å¢Å¢Å¢Å¢Å¢Å¢Å¢Å¢Å¢Å¢Å¢Å¢Å¢Å¢Å¢Å¢Å¢Å¢Å¢Å¢Å¢Å¢Å¢Å¢Å¢Å¢Å¢Å¢Å¢Å¢Å¢Å¢Å¢Å¢Å¢Å¢Å¢Å¢Å¢Å¢Å¢Å¢Å¢Å¢Å¢Å¢Å¢Å¢Å¢Å¢Å¢Å¢Å¢Å¢Å¢Å¢Å¢Å¢Å¢Å¢Å¢Å¢Å¢Å¢Å¢Å¢Å¢": 1946,
      "Å¢Å¢Å¢Å¢Å¢Å¢Å¢Å¢Å¢Å¢Å¢Å¢Å¢Å¢Å¢Å¢Å¢Å¢Å¢Å¢Å¢Å¢Å¢Å¢Å¢Åĸ": 1947,
      "Å¢Å¢Å¢Å¢Å¢Å¢Å¢Å¢Å¢Å¢Å¢Å¢Å¢Å¢Å¢Å¢Å¢Å¢Å¢Å¢Å¢Å¢Å¢Å¢Å¢Å¢Å£Åł": 1948,
      "Å®Åŀ": 1949,
      "ÅĹÅĿ": 1950,
      "Ãĳ": 1951,
      "Å¨ÅĻ": 1952,
      "Å¢Å¢Å¢Å¢Å¢Å¢Å¢Å¢Å¢Å¢Å¢Å¢Å¢Å¢Å¢Å¢Å¢Å¢Å¢Å¢Å¢Å¢Å¢Å¢Å¢Å®": 1953,
      "Å¤ÅłÅŁ": 1954,
      "Å¢Åĩ": 1955,
      "Å¢Å¢Å¢Å¢Å¢Å¢Å¢Å¢Å¢Å¢Å¢Å¢Å¢Å¢Å¢Å¢Å¢Å¢Å¢Å¢Å¢Å¢Å¢Å¢Å¢Å¢Å¢Å¢Å¢Å¢Å£Å¢Å¢Å¢Å¢Å¢Å¢Å¢Å¢Å¢Å¢Å¢Å¢Å¢Å¢Å¢Å¢Å¢Å¢Å¢Å¢Å¢Å¢Å¢Å¢Å¢Å¢Å¢Å¢Å¢Å¢Å¢Å¡": 1956,
      "Å¢Å¨Å£": 1957,
      "Å¢Å¢Å¢Å¢Å¢Å¢Å¢Å¢Å¢Å¢Å¢Å¢Å¢Å¢Å¢Å¢Å¢Å¢Å¢Å¢Å¢Å¢Å¡Åł": 1958,
      "Å¢Å¿": 1959,
      "Å¢Å¢Å¢Å¢Å¢Å¢Å¢Å¢Å¢Å¢Å¢Å¢Å¢Å¢Å¢Å¢Å¢Å¢Å¢Å¡Å¢Å£": 1960,
      "Å¢Å¢Å¢Å¢Å¢Å¢Å¢Å¢Å¢Å¢Å¢Å¢Å¢Å¢Å¢Å¢Å¢Å¢Å¢Å¢Å¢Å¢Å¢Å¢Å¢Å¢Å£Å¢Å¢Å¢Å£": 1961,
      "Å¢Å¢Å¢Å¢Å¢Å¢Å¢Å¢Å¢Å¢Å¢Å¢Å¢Å¢Å¢Å¢Å¢Å¢Å¢Å¢Å¢Å¢Å¢Å¢Å¢Å¢Å¢Å¢Å¢Å¡Å¢Å¢Å¢Å¢Å¢Å¢Å¢Å¢Å¢Å¢Å¢Å¢Å¢Å¢Å¢Å¢Å¢Å¢Å¢Å¢Å¢Å¢Å¢Å¢Å¢Å¢Å¢Å¢Å¢Å¢Å¢Å¢Å¢Å¡": 1962,
      "Å¢ÅłÅ¤Å£": 1963,
      "ÅĵÅ¤": 1964,
      "Å¬Å©": 1965,
      "ÅłÅ¡Å¦": 1966,
      "Å¢Å¢Å¢ÅłÅ¤": 1967,
      "Å¢Å¢Å¢Å¢Å¢Å¢Å¢Å¢Å¢Å¢Å¢Å¢Å¢Å¢Å¢Å¢Å¢Å¢Å¢Å¢Å¢Å¢Å¢Å¢Å¢Å¢Å¢Å¢Å¢Å¢Å¢Å¢Å¢Å¢Å¢Å¢Å¢Å¢Å¢Å¢Å¢Å¢Å¢Å¢Å¢Å¢Å¢Å¢Å¢Å¢Å¢Å¢Å¢Å¢Å¢Å¢Å¢Å¢Å¢Å¢Å¢Å¢Å¢Å¢Å¢Å¢Å¢Å¢Å¢Å¢Å¢Å¢Å¢Å¢Å¢Å¢Å¢Å¢Å¢Å¢Å¢Å¢Å¢Å¢Å¢Å¢Å¢Å¢Å¢Å¢Å¢Å¢Å¢Å¢Å¢Å¡Å¢Å¢Å¢Å¢Å¢Å¢Å¢Å¢Å¢Å¢Å¢Å¢Å¢Å¢Å¢Å¢Å¢Å¢Å¢Å¢Å¢Å¢Å¢Å¢Å¢Å¢Å¢Å¢Å¢Å¢Å¢Å¢Å¢Å¢Å¢Å¢Å¢Å¢Å¢Å¢Å¢Å¢Å¢Å¢Å¢Å¢Å¢Å¢Å¢Å¢Å¢Å¢Å¢Å¢Å¢Å¢Å¢Å¢Å¢Å¢Å¢Å¢Å¢Å£": 1968,
      "Å¢Å¢Å¢Å¢Å¢Å¢Å¢Å¢Å¢Å¢Å¢Å¢Å¢Å¢Å¢Å¢Å¢Å¢Å¢Å¢Å¢Å¢Å¢Å¢Å¢Å¢Å¢Å¢Å¢Å¢Å¡Å¢Å£": 1969,
      "ÅĳÅ£": 1970,
      "Å¢Å¢Å¢Å¢Å¢Å¢Å¢Å¢Å¢Å¢Å¢Å¢Å¢Å¢Å¢Å¢Å¢Å¢Å¢Å¢Å¢Å¢Å£Åł": 1971,
      "Å¢Å¢Å¢Å¢Å¢Å¢Å¢Å¢Å¢Å¢Å¢Å¢Å¢Å¢Å¢Å¢Å¢Å¢Å¢Å¢Å¢Å¢Å¡Å¤": 1972,
      "Å¯Å¥": 1973,
      "Å²Å¡": 1974,
      "Å¢Å¢Å¢Å¢Å¢Å¢Å¢Å¢Å¢Å¢Å¢Å¢Å¢Å¢Å¢Å¢Å¢Å¢Å¢Å¢Å¢Å¢Å¢Å¢Å¢Å¢Å¢Å¢Å¢Å¢Å¢Å¢Å¢Å¢Å¢Å¢Å¢Å¢Å¢Å¢Å¢Å¢Å¢Å¢Å¢Å¢Å¢Å¢Å¢Å¢Å¢Å¢Å¢Å¢Å¢Å¢Å¢Å¢Å¢Å¢Å¢Å¢Å£Å£": 1975,
      "ÅĿÅ«": 1976,
      "Å¢Å¢Å¢Å¢Å¢Å¢Å¢Å¢Å¢Å¢Å¢Å¢Å¢Å¢Å¢Å¢Å¢Å¢Å¢Å¢Å¢Å¢Å¢Å¢Å¢Å¢Å¢Å¢Å¢Å¢Å¢Å¢Å¢Å¢Å¢Å¢Å¢Å¢Å¢Å¢Å¢Å¢Å¢Å¢Å¢Å¢Å¢Å¢Å¢Å¢Å¢Å¢Å¢Å¢Å¢Å¢Å¢Å¢Å¢Å¢Å¢Å¢Å¢Å¢Å¢Å¢Å¢Å¢Å¢Å¢Å¢Å¢Å¢Å¢Å¢Å¢Å¢Å¢Å¢Å¢Å¢Å¢Å¢Å¢Å¢Å¢Å¢Å¢Å¢Å¢Å¢Å¢Å¢Å¢Å¢Å¢Å¢Å¢Å¢Å¢Å¢Å¢Å¢Å¢Å¢Å¢Å¢Å¢Å¢Å¢Å¢Å¢Å¢Å¢Å¢Å¢Å¢Å¢Å¢Å¢Å¢Å¢Å¢Å¢Å¢Å¢Å¢Å¢Å¢Å¢Å¢Å¢Å¢Å¢Å¢Å¢Å¢Å¢Å¢Å¢Å¢Å¢Å¢Å¢Å¢Å¢Å¢Å¢Å¢Å¢Å¢Å¢Å¢Å¢Å¢Å¢Å¢Å¢Å¢Å¢Å¢Å¢Å¢Å¢Å¢Å¢Å¢Å¢Å¢Å¢Å¢Å¢Å¢Å¢Å¢Å¢Å¢Å¢Å¢Å¢Å¢Å¢Å¢Å¢Å¢Å¢Å¢Å¢Å¢Å¢Å¢Å¢Å¢Å¢Å¢Å¢Å¢Å¢Å¢Å¢Å¢Å¢Å¢Å¢Å¢Å¢Å¢Å¢Å¢Å¢Å¢Å¢Å¢Å¢Å¢Å¢Å¢Å¢Å¢Å¢Å¢Å¢Å¢Å¢Å¢Å¢Å¢Å¢Å¢Å¢Å¢Å¢Å¢Å¢Å¢Å¢Å¢Å¢Å¢Å¢Å¢Å¢Å¢Å¢Å¢Å¢Å¢Å¢Å¢Å¢Å¢Å¢Å¢Å¢Å¢Å¢Å¢Å¢Å¢Å¢Å¢Å¢Å¢Å¢Å¢Å¢Å¢Å¢Å¢Å¢Å¢Å¢Å¢Å¢Å¢Å¢Å¢Å¢Å¢Å¢Å¢Å¢Å¢Å¢Å¢Å¢Å¢Å¢Å¢Å¢Å¢Å¢Å¢Å¢Å¢Å¢Å¢Å¢Å¢Å¢Å¢Å¢Å¢Å¢Å¢Å¢Å¢Å¢Å¢Å¢Å¢Å¢Å¢Å¢Å¢Å¢Å¢Å¢Å¢Å¢Å¢Å¢Å¢Å¢Å¢Å¢Å¢Å¢Å¢Å¢Å¢Å¢Å¢Å¢Å¢Å¢Å¢Å¢Å¢Å¢Å¢Å¢Å¢Å¢Å¢Å¢Å¢Å¢Å¢Å¢Å¢Å¢Å¢Å¢Å¢Å¢Å¢Å¢Å¢Å¢Å¢Å¢Å¢Å¢Å¢Å¢Å¢Å¢Å¢Å¢Å¢Å¢Å¢Å¢Å¢Å¢Å¢Å¢Å¢Å¢Å¢Å¢Å¢Å¢Å¢Å¢Å¢Å¢Å¢Å¢Å¢Å¢Å¢Å¢Å¢Å¢Å¢Å¢Å¢Å¢Å¢Å¢Å¢Å¢Å¢Å¢Å¢Å¢Å¢Å¢Å¢Å¢Å¢Å¢Å¢Å¢Å¢Å¢Å¢Å¢Å¢Å¢Å¢Å¢Å¢Å¢Å¢Å¢Å¢Å¢Å¢Å¢Å¢Å¢Å¢Å¢Å¢Å¢Å¢Å¢Å¢Å¢Å¢Å¢Å¢Å¢Å¢Å¢Å¢Å¢Å¢Å¢Å¢Å¢Å¢Å¢Å¢Å¢Å¢Å¢Å¢Å¢Å¢Å¢Å¢Å¢Å¢Å¢Å¢Å¢Å¢Å¢Å¢Å¢Å¢Å¢Å¢Å¢Å¢Å¢Å¢Å¢Å¢Å¢Å¢Å¢Å¢Å¢Å¢Å¢Å¢Å¢Å¢Å¢Å¢Å¢Å¢Å¢Å¢Å¢Å¢Å¢Å¢Å¢Å¢Å¢Å¢Å¢Å¢Å¢Å¢Å¢Å¢Å¢Å¢Å¢Å¢Å¢Å¢Å¢Å¢Å¢Å¢Å¢Å¢Å¢Å¢Å¢Å¢Å¢Å¢Å¢Å¢Å¢Å¢Å¢Å¢Å¢Å¢Å¢Å¢Å¢Å¢Å¢Å¢Å¢Å¢Å¢Å¢Å¢Å¢Å¢Å¢Å¢Å¢Å¢Å¢Å¢Å¢Å¢Å¢Å¢Å¢Å¢Å¢Å¢Å¢Å¢Å¢Å¢Å¢Å¢Å¢Å¢Å¢Å¢Å¢Å¢Å¢Å¢Å¢Å¢Å¢Å¢Å¢Å¢Å¢Å¢Å¢Å¢Å¢Å¢Å¢Å¢Å¢Å¢Å¢Å¢Å¢Å¢Å¢Å¢Å¢Å¢Å¢Å¢Å¢Å¢Å¢Å¢Å¢Å¢Å¢Å¢Å¢Å¢Å¢Å¢Å¢Å¢Å¢Å¢Å¢Å¢Å¢Å¢Å¢Å¢Å¢Å¢Å¢Å¢Å¢Å¢Å¢Å¢Å¢Å¢Å¢Å¢Å¢Å¢Å¢Å¢Å¢Å¢Å¢Å¢Å¢Å¢Å¢Å¢Å¢Å¢Å¢Å¢Å¢Å¢Å¢Å¢Å¢Å¢Å¢Å¢Å¢Å¢Å¢Å¢Å¢Å¢Å¢Å¢Å¢Å¢Å¢Å¢Å¢Å¢Å¢Å¢Å¢Å¢Å¢Å¢Å¢Å¢Å¢Å¢Å¢Å¢Å¢Å¢Å¢Å¢Å¢Å¢Å¢Å¢Å¢Å¢Å¢Å¢Å¢Å¢Å¢Å¢Å¢Å¢Å¢Å¢Å¢Å¢Å¢Å¢Å¢Å¢Å¢Å¢Å¢Å¢Å¢Å¢Å¢Å¢Å¢Å¢Å¢Å¢Å¢Å¢Å¢Å¢Å¢Å¢Å¢Å¢Å¢Å¢Å¢Å¢Å¢Å¢Å¢Å¢Å¢Å¢Å¢Å¢Å¢Å¢Å¢Å¢Å¢Å¢Å¢Å¢Å¢Å¢Å¢Å¢Å¢Å¢Å¢Å¢Å¢Å¢Å¢Å¢Å¢Å¢Å¢Å¢Å¢Å¢Å¢Å¢Å¢Å¢Å¢Å¢Å¢Å¢Å¢Å¢Å¢Å¢Å¢Å¢Å¢Å¢Å¢Å¢Å¢Å¢Å¢Å¢Å¢Å¢Å¢Å¢Å¢Å¢Å¢Å¢Å¢Å¢Å¢Å¢Å¢Å¢Å¢Å¢Å¢Å¢Å¢Å¢Å¢Å¢Å¢Å¢Å¢Å¢Å¢Å¢Å¢Å¢Å¢Å¢Å¢Å¢Å¢Å¢Å¢Å¢Å¢Å¢Å¢Å¢Å¢Å¢Å¢Å¢Å¢Å¢Å¢Å¢Å¢Å¢Å¢Å¢Å¢Å¢Å¢Å¢Å¢Å¢Å¢Å¢Å¢Å¢Å¢Å¢Å¢Å¢Å¢Å¢Å¢Å¢Å¢Å¢Å¢Å¢Å¢Å¢Å¢Å¢Å¢Å¢Å¢Å¢Å¢Å¢Å¢Å¢Å¢Å¢Å¢Å¢Å¢Å¢Å¢Å¢Å¢Å¢Å¢Å¢Å¢Å¢Å¢Å¢Å¢Å¢Å¢Å¢Å¢Å¢Å¢Å¢Å¢Å¢Å¢Å¢Å¢Å¢Å¢Å¢Å¢Å¢Å¢Å¢Å¢Å¢Å¢Å¢Å¢Å¢Å¢Å¢Å¢Å¢Å¢Å¢Å¢Å¢Å¢Å¢Å¢Å¢Å¢Å¢Å¢Å¢Å¢Å¢Å¢Å¢Å¢Å¢Å¢Å¢Å¢Å¢Å¢Å¢Å¢Å¢Å¢Å¢Å¢Å¢Å¢Å¢Å¢Å¢Å¢Å¢Å¢Å¢Å¢Å¢Å¢Å¢Å¢Å¢Å¢Å¢Å¢Å¢Å¢Å¢Å¢Å¢Å¢Å¢Å¢Å¢Å¢Å¢Å¢Å¢Å¢Å¢Å¢Å¢Å¢Å¢Å¢Å¢Å¢Å¢Å¢Å¢Å¢Å¢Å¢Å¢Å¢Å¢Å¢Å¢Å¢Å¢Å¢Å¢Å¢Å¢Å¢Å¢Å¢Å¢Å¢Å¢Å¢Å¢Å¢Å¢Å¢Å¢Å¢Å¢Å¢Å¢Å¢Å¢Å¢Å¢Å¢Å¢Å¢Å¢Å¢Å¢Å¢Å¢Å¢Å¢Å¢Å¢Å¢Å¢Å¢Å¢Å¢Å¢Å¢Å¢Å¢Å¢Å¢Å¢Å¢Å¢Å¢Å¢Å¢Å¢Å¢Å¢Å¢Å¢Å¢Å¢Å¢Å¢Å¢Å¢Å¢Å¢Å¢Å¢Å¢Å¢Å¢Å¢Å¢Å¢Å¢Å¢Å¢Å¢Å¢Å¢Å¢Å¢Å¢Å¢Å¢Å¢Å¢Å¢Å¢Å¢Å¢Å¢Å¢Å¢Å¢Å¢Å¢Å¢Å¢Å¢Å¢Å¢Å¢Å¢Å¢Å¢Å¢Å¢Å¢Å¢Å¢Å¢Å¢Å¢Å¢Å¢Å¢Å¢Å¢Å¢Å¢Å¢Å¢Å¢Å¢Å¢Å¢Å¢Å¢Å¢Å¢Å¢Å¢": 1977,
      "Å¢Å¢Å¢Å¢Å¢Å¢Å¢Å¢Å¢Å¢Å¢Å¢Å¢Å¢Å¢Å¢Å¢Å¢Å¢Å¢Å¢Å¢Å¢Å¢Å¢Å¢Å¢Å¢Å¢Å¢Å£Å¢Å¢Å¢Å¢Å¢Å¢Å¢Å¢Å¢Å¢Å¢Å¢Å¢Å¢Å¢Å¢Å¢Å¢Å¢Å¢Å¢Å¢Å¢Å¢Å¢Å¢Å¢Å¢Å¢Å¢Å¢Å£": 1978,
      "Å¢Å¢Å¢Å¢Å¢Å¢Å¢Å¢Å¢Å¢Å¢Å¢Å¢Å¢Å¢Å¢Å¢Å¢Å¢Å¢Å¢Å¢Å¢Å¢Å¢Å¢Å¢Å¢Å£Å¡Å¢Å¡": 1979,
      "Å¢Å¢Å¢Å¢Å¢Å¢Å¢Å¢Å¢Å¢Å¢Å¢Å¢Å¢Å¢Å¢Å¢Å¢Å¢Å¢Å¢Å¢Å¢Å¢Å¢Å¢Å¢Å¢Å¡Å£Å¢Å¡": 1980,
      "Å¢ÅľÅ£": 1981,
      "Å¢Å¢Å¢Å¢Å¢Å¢Å¢Å¢Å¢Å¢Å¢Å¢Å¢Å¢Å¢Å¢Å¢Å¢Å¢Å¢Å¢Å¢Å¢Å¢Å¢Å¢Å¢Å¢Å¢Å¢Å¢Å¢Å¢Å¢Å¢Å¢Å¢Å¢Å¢Å¢Å¢Å¢Å¢Å¢Å¢Å¢Å¢Å¢Å¢Å¢Å¢Å¢Å¢Å¢Å¢Å¢Å¢Å¢Å¢Å¢Å¢Å¢Å¢Å¢Å¢Å¢Å¢Å¢Å¢Å¢Å¢Å¢Å¢Å¢Å¢Å¢Å¢Å¢Å¢Å¢Å¢Å¢Å¢Å¢Å¢Å¢Å¢Å¢Å¢Å¢Å¢Å¢Å¢Å¢Å¢Å¢Å¢Å¢Å¢Å¢Å¢Å¢Å¢Å¢Å¢Å¢Å¢Å¢Å¢Å¢Å¢Å¢Å¢Å¢Å¢Å¢Å¢Å¢Å¢Å¢Å¢Å¢Å¢Å¢Å¢Å¢Å¢Å¢Å¢Å¢Å¢Å¢Å¢Å¢Å¢Å¢Å¢Å¢Å¢Å¢Å¢Å¢Å¢Å¢Å¢Å¢Å¢Å¢Å¢Å¢Å¢Å¢Å¢Å¢Å¢Å¢Å¢Å¢Å¢Å¢Å¢Å¢Å¢Å¢Å¢Å¢Å¢Å¢Å¢Å¢Å¢Å¢Å¢Å¢Å¢Å¢Å¢Å¢Å¢Å¢Å¢Å¢Å¢Å¢Å¢Å¢Å¢Å¢Å¢Å¢Å¢Å¢Å¢Å¢Å¢Å¢Å¢Å¢Å¢Å¢Å¢Å¢Å¢Å¢Å¢Å¢Å¢Å¢Å¢Å¢Å¢Å¢Å¢Å¢Å¢Å¢Å¢Å¢Å¢Å¢Å¢Å¢Å¢Å¢Å¢Å¢Å¢Å¢Å¢Å¢Å¢Å¢Å¢Å¢Å¢Å¢Å¢Å¢Å¢Å¢Å¢Å¢Å¢Å¢Å¢Å¢Å¢Å¢Å¢Å¢Å¢Å¢Å¢Å¢Å¢Å¢Å¢Å¢Å¢Å¢Å¢Å¢Å¢Å¢Å¢Å¢Å¢Å¢Å¢Å¢Å¢Å¢Å¢Å¢Å¢Å¢Å¢Å¢Å¢Å¢Å¢Å¢Å¢Å¢Å¢Å¢Å¢Å¢Å¢Å¢Å¢Å¢Å¢Å¢Å¢Å¢Å¢Å¢Å¢Å¢Å¢Å¢Å¢Å¢Å¢Å¢Å¢Å¢Å¢Å¢Å¢Å¢Å¢Å¢Å¢Å¢Å¢Å¢Å¢Å¢Å¢Å¢Å¢Å¢Å¢Å¢Å¢Å¢Å¢Å¢Å¢Å¢Å¢Å¢Å¢Å¢Å¢Å¢Å¢Å¢Å¢Å¢Å¢Å¢Å¢Å¢Å¢Å¢Å¢Å¢Å¢Å¢Å¢Å¢Å¢Å¢Å¢Å¢Å¢Å¢Å¢Å¢Å¢Å¢Å¢Å¢Å¢Å¢Å¢Å¢Å¢Å¢Å¢Å¢Å¢Å¢Å¢Å¢Å¢Å¢Å¢Å¢Å¢Å¢Å¢Å¢Å¢Å¢Å¢Å¢Å¢Å¢Å¢Å¢Å¢Å¢Å¢Å¢Å¢Å¢Å¢Å¢Å¢Å¢Å¢Å¢Å¢Å¢Å¢Å¢Å¢Å¢Å¢Å¢Å¢Å¢Å¢Å¢Å¢Å¢Å¢Å¢Å¢Å¢Å¢Å¢Å¢Å¢Å¢Å¢Å¢Å¢Å¢Å¢Å¢Å¢Å¢Å¢Å¢Å¢Å¢Å¢Å¢Å¢Å¢Å¢Å¢Å¢Å¢Å¢Å¢Å¢Å¢Å¢Å¢Å¢Å¢Å¢Å¢Å¢Å¢Å¢Å¢Å¢Å¢Å¢Å¢Å¢Å¢Å¢Å¢Å¢Å¢Å¢Å¢Å¢Å¢Å¢Å¢Å¢Å¢Å¢Å¢Å¢Å¢Å¢Å¢Å¢Å¢Å¢Å¢Å¢Å¢Å¢Å¢Å¢Å¢Å¢Å¢Å¢Å¢Å¢Å¢Å¢Å¢Å¢Å¢Å¢Å¢Å¢Å¢Å¢Å¢Å¢Å¢Å¢Å¢Å¢Å¢Å¢Å¢Å¢Å¢Å¢Å¢Å¢Å¢Å¢Å¢Å¢Å¢Å¢Å¢Å¢Å¢Å¢Å¢Å¢Å¢Å¢Å¢Å¢Å¢Å¢Å¢Å¢Å¢Å¢Å¢Å¢Å¢Å¢Å¢Å¢Å¢Å¢Å¢Å¢Å¢Å¢Å¢Å¢Å¢Å¢Å¢Å¢Å¢Å¢Å¢Å¢Å¢Å¢Å¢Å¢Å¢Å¢Å¢Å¢Å¢Å¢Å¢Å¢Å¢Å¢Å¢Å¢Å¢Å¢Å¢Å¢Å¢Å¢Å¢Å¢Å¢Å¢Å¢Å¢Å¢Å¢Å¢Å¢Å¢Å¢Å¢Å¢Å¢Å¢Å¢Å¢Å¢Å¢Å¢Å¢Å¢Å¢Å¢Å¢Å¢Å¢Å¢Å¢Å¢Å¢Å¢Å¢Å¢Å¢Å¢Å¢Å¢Å¢Å¢Å¢Å¢Å¢Å¢Å¢Å¢Å¢Å¢Å¢Å¢Å¢Å¢Å¢Å¢Å¢Å¢Å¢Å¢Å¢Å¢Å¢Å¢Å¢Å¢Å¢Å¢Å¢Å¢Å¢Å¢Å¢Å¢Å¢Å¢Å¢Å¢Å¢Å¢Å¢Å¢Å¢Å¢Å¢Å¢Å¢Å¢Å¢Å¢Å¢Å¢Å¢Å¢Å¢Å¢Å¢Å¢Å¢Å¢Å¢Å¢Å¢Å¢Å¢Å¢Å¢Å¢Å¢Å¢Å¢Å¢Å¢Å¢Å¢Å¢Å¢Å¢Å¢Å¢Å¢Å¢Å¢Å¢Å¢Å¢Å¢Å¢Å¢Å¢Å¢Å¢Å¢Å¢Å¢Å¢Å¢Å¢Å¢Å¢Å¢Å¢Å¢Å¢Å¢Å¢Å¢Å¢Å¢Å¢Å¢Å¢Å¢Å¢Å¢Å¢Å¢Å¢Å¢Å¢Å¢Å¢Å¢Å¢Å¢Å¢Å¢Å¢Å¢Å¢Å¢Å¢Å¢Å¢Å¢Å¢Å¢Å¢Å¢Å¢Å¢Å¢Å¢Å¢Å¢Å¢Å¢Å¢Å¢Å¢Å¢Å¢Å¢Å¢Å¢Å¢Å¢Å¢Å¢Å¢Å¢Å¢Å¢Å¢Å¢Å¢Å¢Å¢Å¢Å¢Å¢Å¢Å¢Å¢Å¢Å¢Å¢Å¢Å¢Å¢Å¢Å¢Å¢Å¢Å¢Å¢Å¢Å¢Å¢Å¢Å¢Å¢Å¢Å¢Å¢Å¢Å¢Å¢Å¢Å¢Å¢Å¢Å¢Å¢Å¢Å¢Å¢Å¢Å¢Å¢Å¢Å¢Å¢Å¢Å¢Å¢Å¢Å¢Å¢Å¢Å¢Å¢Å¢Å¢Å¢Å¢Å¢Å¢Å¢Å¢Å¢Å¢Å¢Å¢Å¢Å¢Å¢Å¢Å¢Å¢Å¢Å¢Å¢Å¢Å¢Å¢Å¢Å¢Å¢Å¢Å¢Å¢Å¢Å¢Å¢Å¢Å¢Å¢Å¢Å¢Å¢Å¢Å¢Å¢Å¢Å¢Å¢Å¢Å¢Å¢Å¢Å¢Å¢Å¢Å¢Å¢Å¢Å¢Å¢Å¢Å¢Å¢Å¢Å¢Å¢Å¢Å¢Å¢Å¢Å¢Å¢Å¢Å¢Å¢Å¢Å¢Å¢Å¢Å¢Å¢Å¢Å¢Å¢Å¢Å¢Å¢Å¢Å¢Å¢Å¢Å¢Å¢Å¢Å¢Å¢Å¢Å¢Å¢Å¢Å¢Å¢Å¢Å¢Å¢Å¢Å¢Å¢Å¢Å¢Å¢Å¢Å¢Å¢Å¢Å¢Å¢Å¢Å¢Å¢Å¢Å¢Å¢Å¢Å¢Å¢Å¢Å¢Å¢Å¢Å¢Å¢Å¢Å¢Å¢Å¢Å¢Å¢Å¢Å¢Å¢Å¢Å¢Å¢Å¢Å¢Å¢Å¢Å¢Å¢Å¢Å¢Å¢Å¢Å¢Å¢Å¢Å¢Å¢Å¢Å¢Å¢Å¢Å¢Å¢Å¢Å¢Å¢Å¢Å¢Å¢Å¢Å¢Å¢Å¢Å¢Å¢Å¢Å¢Å¢Å¢Å¢Å¢Å¢Å¢Å¢Å¢Å¢Å¢Å¢Å¢Å¢Å¢Å¢Å¢Å¢Å¢Å¢Å¢Å¢Å¢Å¢Å¢Å¢Å¢Å¢Å¢Å¢Å¢Å¢Å¢Å¢Å¢Å¢Å¢Å¢Å¢Å¢Å¢Å¢Å¢Å¢Å¢Å¢Å¢Å¢Å¢Å¢Å¢Å¢Å¢Å¢Å¢Å¢Å¢Å¢Å¢Å¢Å¢Å¢Å¢Å¢Å¢Å¢Å¢Å¢Å¢Å¢Å¢Å¢Å¢Å¢Å¢Å¢Å¢Å¢Å¢Å¢Å¢Å¢Å¢Å¢Å¢Å¢Å¢Å¢Å¢Å¢Å¢Å¢Å¢Å¢Å¢Å¢Å¢Å¢Å¢Å¢Å¢Å¢Å¢Å¢Å¢Å¢Å¢Å¢Å¢Å¢Å¢Å¢Å¢Å¢Å¢Å¢Å¢Å¢Å¢Å¢Å¢Å¢Å¢Å¢Å¢Å¢Å¢Å¢Å¢Å¢Å¢Å¢Å¢Å¢Å¢Å¢Å¢Å¢Å¢Å¢Å¢Å¢Å¢Å¢Å¢Å¢Å¢Å¢Å¢Å¢Å¢Å¢Å¢Å¢Å¢Å¢Å¢Å¢Å¢Å¢Å¢Å¢Å¢Å¢Å¢Å¢Å¢Å¢Å¢Å¢Å¢Å¢Å¢Å¢Å¢Å¢Å¢Å¢Å¢Å¢Å¢Å¢Å¢Å¢Å¢Å¢Å¢Å¢Å¢Å¢Å¢Å¢Å¢Å¢Å¢Å¢Å¢Å¢Å¢Å¢Å¢Å¢Å¢Å¢Å¢Å¢Å¢Å¢Å¢Å¢Å¢Å¢Å¢Å¢Å¢Å¢Å¢Å¢Å¢Å¢Å¢Å¢Å¢Å¢Å¢Å¢Å¢Å¢Å¢Å¢Å¢Å¢Å¢Å¢Å¢Å¢Å¢Å¢Å¢Å¢Å¢Å¢Å¢Å¢Å¢Å¢Å¢Å¢Å¢Å¢Å¢Å¢Å¢Å¢Å¢Å¢Å¢Å¢Å¢Å¢Å¢Å¢Å¢Å¢Å¢Å¢Å¢Å¢Å¢Å¢Å¢Å¢Å¢Å¢Å¢Å¢Å¢Å¢Å¢Å¢Å¢Å¢Å¢Å¢Å¢Å¢Å¢Å¢Å¢Å¢Å¢Å¢Å¢Å¢Å¢Å¢Å¢Å¢Å¢Å¢Å¢Å¢Å¢Å¢Å¢Å¢Å¢Å¢Å¢Å¢Å¢Å¢Å¢Å¢Å¢Å¢Å¢Å¢Å¢Å¢Å¢Å¢Å¢Å¢Å¢Å¢Å¢Å¢Å¢Å¢Å¢Å¢Å¢Å¢Å¢Å¢Å¢Å¢Å¢Å¢Å¢Å¢Å¢Å¢Å¢Å¢Å¢Å¢Å¢Å¢Å¢Å¢Å¢Å¢Å¢Å¢Å¢Å¢Å¢Å¢Å¢Å¢Å¢Å¢Å¢Å¢Å¢Å¢Å¢Å¢Å¢Å¢Å¢Å¢Å¢Å¢Å¢Å¢Å¢Å¢Å¢Å¢Å¢Å¢Å¢Å¢Å¢Å¢Å¢Å¢Å¢Å¢Å¢Å¢Å¢Å¢Å¢Å¢Å¢Å¢Å¢Å¢Å¢Å¢Å¢Å¢Å¢Å¢Å¢Å¢Å¢Å¢Å¢Å¢Å¢Å¢Å¢Å¢Å¢Å¢Å¢Å¢Å¢Å¢Å¢Å¢Å¢Å¢Å¢Å¢Å¢Å¢Å¢Å¢Å¢Å¢Å¢Å¢Å¢Å¢Å¢Å¢Å¢Å¢Å¢Å¢Å¢Å¢Å¢Å¢Å¢Å¢Å¢Å¢Å¢Å¢Å¢Å¢Å¢Å¢Å¢Å¢Å¢Å¢Å¢Å¢Å¢Å¢Å¢Å¢Å¢Å¢Å¢Å¢Å¢Å¢Å¢Å¢Å¢Å¢Å¢Å¢Å¢Å¢Å¢Å¢Å¢Å¢Å¢Å¢Å¢Å¢Å¢Å¢Å¢Å¢Å¢Å¢Å¢Å¢Å¢Å¢Å¢Å¢Å¢Å¢Å¢Å¢Å¢Å¢Å¢Å¢Å¢Å¢Å¢Å¢Å¢Å¢Å¢Å¢Å¢Å¢Å¢Å¢Å¢Å¢Å¢Å¢Å¢Å¢Å¢Å¢Å¢Å¢Å¢Å¢Å¢Å¢Å¢Å¢Å¢Å¢Å¢Å¢Å¢Å¢Å¢Å¢Å¢Å¢Å¢Å¢Å¢Å¢Å¢Å¢Å¢Å¢": 1982,
      "ÅŃÅľ": 1983,
      "Å¢Å¢Å¢Å¢Å¢Å¢Å¢Å¢Å¢Å¢Å¢Å¢Å¢Å¢Å¢Å¢Å¢Å¢Å¢Å¢Å¢Å¢Å¢Å¢Å¢Å¢Å¢Å¢Å¢Å¢Å¢Å¢Å¢Å¢Å¢Å¢Å¢Å¢Å¢Å¢Å¢Å¢Å¢Å¢Å¢Å¢Å¢Å¢Å¢Å¢Å¢Å¢Å¢Å¢Å¢Å¢Å¢Å¢Å¢Å¢Å¢Å¢Å¢Å¢Å¢Å¢Å¢Å¢Å¢Å¢Å¢Å¢Å¢Å¢Å¢Å¢Å¢Å¢Å¢Å¢Å¢Å¢Å¢Å¢Å¢Å¢Å¢Å¢Å¢Å¢Å¢Å¢Å¢Å¢Å¢Å¢Å¢Å¢Å¢Å¢Å¢Å¢Å¢Å¢Å¢Å¢Å¢Å¢Å¢Å¢Å¢Å¢Å¢Å¢Å¢Å¢Å¢Å¢Å¢Å¢Å¢Å¢Å¢Å¢Å¢Å¢Å¢Å¢Å¢Å¢Å¢Å¢Å¢Å¢Å¢Å¢Å¢Å¢Å¢Å¢Å¢Å¢Å¢Å¢Å¢Å¢Å¢Å¢Å¢Å¢Å¢Å¢Å¢Å¢Å¢Å¢Å¢Å¢Å¢Å¢Å¢Å¢Å¢Å¢Å¢Å¢Å¢Å¢Å¢Å¢Å¢Å¢Å¢Å¢Å¢Å¢Å¢Å¢Å¢Å¢Å¢Å¢Å¢Å¢Å¢Å¢Å¢Å¢Å¢Å¢Å¢Å¢Å¢Å¢Å¢Å¢Å¢Å¢Å¢Å¢Å¢Å¢Å¢Å¢Å¢Å¢Å¢Å¢Å¢Å¢Å¢Å¢Å¢Å¢Å¢Å¢Å¢Å¢Å¢Å¢Å¢Å¢Å¢Å¢Å¢Å¢Å¢Å¢Å¢Å¢Å¢Å¢Å¢Å¢Å¢Å¢Å¢Å¢Å¢Å¢Å¢Å¢Å¢Å¢Å¢Å¢Å¢Å¢Å¢Å¢Å¢Å¢Å¢Å¢Å¢Å¢Å¢Å¢Å¢Å¢Å¢Å¢Å¢Å¢Å¢Å¢Å¢Å¢Å¢Å¢Å¢Å¢Å¢Å¢Å¢Å¢Å¢Å¢Å¢Å¢Å¢Å¢Å¢Å¢Å¢Å¢Å¢Å¢Å¢Å¢Å¢Å¢Å¢Å¢Å¢Å¢Å¢Å¢Å¢Å¢Å¢Å¢Å¢Å¢Å¢Å¢Å¢Å¢Å¢Å¢Å¢Å¢Å¢Å¢Å¢Å¢Å¢Å¢Å¢Å¢Å¢Å¢Å¢Å¢Å¢Å¢Å¢Å¢Å¢Å¢Å¢Å¢Å¢Å¢Å¢Å¢Å¢Å¢Å¢Å¢Å¢Å¢Å¢Å¢Å¢Å¢Å¢Å¢Å¢Å¢Å¢Å¢Å¢Å¢Å¢Å¢Å¢Å¢Å¢Å¢Å¢Å¢Å¢Å¢Å¢Å¢Å¢Å¢Å¢Å¢Å¢Å¢Å¢Å¢Å¢Å¢Å¢Å¢Å¢Å¢Å¢Å¢Å¢Å¢Å¢Å¢Å¢Å¢Å¢Å¢Å¢Å¢Å¢Å¢Å¢Å¢Å¢Å¢Å¢Å¢Å¢Å¢Å¢Å¢Å¢Å¢Å¢Å¢Å¢Å¢Å¢Å¢Å¢Å¢Å¢Å¢Å¢Å¢Å¢Å¢Å¢Å¢Å¢Å¢Å¢Å¢Å¢Å¢Å¢Å¢Å¢Å¢Å¢Å¢Å¢Å¢Å¢Å¢Å¢Å¢Å¢Å¢Å¢Å¢Å¢Å¢Å¢Å¢Å¢Å¢Å¢Å¢Å¢Å¢Å¢Å¢Å¢Å¢Å¢Å¢Å¢Å¢Å¢Å¢Å¢Å¢Å¢Å¢Å¢Å¢Å¢Å¢Å¢Å¢Å¢Å¢Å¢Å¢Å¢Å¢Å¢Å¢Å¢Å¢Å¢Å¢Å¢Å¢Å¢Å¢Å¢Å¢Å¢Å¢Å¢Å¢Å¢Å¢Å¢Å¢Å¢Å¢Å¢Å¢Å¢Å¢Å¢Å¢Å¢Å¢Å¢Å¢Å¢Å¢Å¢Å¢Å¢Å¢Å¢Å¢Å¢Å¢Å¢Å¢Å¢Å¢Å¢Å¢Å¢Å¢Å¢Å¢Å¢Å¢Å¢Å¢Å¢Å¢Å¢Å¢Å¢Å¢Å¢Å¢Å¢Å¢Å¢Å¢Å¢Å¢Å¢Å¢Å¢Å¢Å¢Å¢Å¢Å¢Å¢Å¢Å¢Å¢Å¢Å¢Å¢Å¢Å¢Å¢Å¢Å¢Å¢Å¢Å¢Å¢Å¢Å¢Å¢Å¢Å¢Å¢Å¢Å¢Å¢Å¢Å¢Å¢Å¢Å¢Å¢Å¢Å¢Å¢Å¢Å¢Å¢Å¢Å¢Å¢Å¢Å¢Å¢Å¢Å¢Å¢Å¢Å¢Å¢Å¢Å¢Å¢Å¢Å¢Å¢Å¢Å¢Å¢Å¢Å¢Å¢Å¢Å¢Å¢Å¢Å¢Å¢Å¢Å¢Å¢Å¢Å¢Å¢Å¢Å¢Å¢Å¢Å¢Å¢Å¢Å¢Å¢Å¢Å¢Å¢Å¢Å¢Å¢Å¢Å¢Å¢Å¢Å¢Å¢Å¢Å¢Å¢Å¢Å¢Å¢Å¢Å¢Å¢Å¢Å¢Å¢Å¢Å¢Å¢Å¢Å¢Å¢Å¢Å¢Å¢Å¢Å¢Å¢Å¢Å¢Å¢Å¢Å¢Å¢Å¢Å¢Å¢Å¢Å¢Å¢Å¢Å¢Å¢Å¢Å¢Å¢Å¢Å¢Å¢Å¢Å¢Å¢Å¢Å¢Å¢Å¢Å¢Å¢Å¢Å¢Å¢Å¢Å¢Å¢Å¢Å¢Å¢Å¢Å¢Å¢Å¢Å¢Å¢Å¢Å¢Å¢Å¢Å¢Å¢Å¢Å¢Å¢Å¢Å¢Å¢Å¢Å¢Å¢Å¢Å¢Å¢Å¢Å¢Å¢Å¢Å¢Å¢Å¢Å¢Å¢Å¢Å¢Å¢Å¢Å¢Å¢Å¢Å¢Å¢Å¢Å¢Å¢Å¢Å¢Å¢Å¢Å¢Å¢Å¢Å¢Å¢Å¢Å¢Å¢Å¢Å¢Å¢Å¢Å¢Å¢Å¢Å¢Å¢Å¢Å¢Å¢Å¢Å¢Å¢Å¢Å¢Å¢Å¢Å¢Å¢Å¢Å¢Å¢Å¢Å¢Å¢Å¢Å¢Å¢Å¢Å¢Å¢Å¢Å¢Å¢Å¢Å¢Å¢Å¢Å¢Å¢Å¢Å¢Å¢Å¢Å¢Å¢Å¢Å¢Å¢Å¢Å¢Å¢Å¢Å¢Å¢Å¢Å¢Å¢Å¢Å¢Å¢Å¢Å¢Å¢Å¢Å¢Å¢Å¢Å¢Å¢Å¢Å¢Å¢Å¢Å¢Å¢Å¢Å¢Å¢Å¢Å¢Å¢Å¢Å¢Å¢Å¢Å¢Å¢Å¢Å¢Å¢Å¢Å¢Å¢Å¢Å¢Å¢Å¢Å¢Å¢Å¢Å¢Å¢Å¢Å¢Å¢Å¢Å¢Å¢Å¢Å¢Å¢Å¢Å¢Å¢Å¢Å¢Å¢Å¢Å¢Å¢Å¢Å¢Å¢Å¢Å¢Å¢Å¢Å¢Å¢Å¢Å¢Å¢Å¢Å¢Å¢Å¢Å¢Å¢Å¢Å¢Å¢Å¢Å¢Å¢Å¢Å¢Å¢Å¢Å¢Å¢Å¢Å¢Å¢Å¢Å¢Å¢Å¢Å¢Å¢Å¢Å¢Å¢Å¢Å¢Å¢Å¢Å¢Å¢Å¢Å¢Å¢Å¢Å¢Å¢Å¢Å¢Å¢Å¢Å¢Å¢Å¢Å¢Å¢Å¢Å¢Å¢Å¢Å¢Å¢Å¢Å¢Å¢Å¢Å¢Å¢Å¢Å¢Å¢Å¢Å¢Å¢Å¢Å¢Å¢Å¢Å¢Å¢Å¢Å¢Å¢Å¢Å¢Å¢Å¢Å¢Å¢Å¢Å¢Å¢Å¢Å¢Å¢Å¢Å¢Å¢Å¢Å¢Å¢Å¢Å¢Å¢Å¢Å¢Å¢Å¢Å¢Å¢Å¢Å¢Å¢Å¢Å¢Å¢Å¢Å¢Å¢Å¢Å¢Å¢Å¢Å¢Å¢Å¢Å¢Å¢Å¢Å¢Å¢Å¢Å¢Å¢Å¢Å¢Å¢Å¢Å¢Å¢Å¢Å¢Å¢Å¢Å¢Å¢Å¢Å¢Å¢Å¢Å¢Å¢Å¢Å¢Å¢Å¢Å¢Å¢Å¢Å¢Å¢Å¢Å¢Å¢Å¢Å¢Å¢Å¢Å¢Å¢Å¢Å¢Å¢Å¢Å¢Å¢Å¢Å¢Å¢Å¢Å¢Å¢Å¢Å¢Å¢Å¢Å¢Å¢Å¢Å¢Å¢Å¢Å¢Å¢Å¢Å¢Å¢Å¢Å¢Å¢Å¢Å¢Å¢Å¢Å¢Å¢Å¢Å¢Å¢Å¢Å¢Å¢Å¢Å¢Å¢Å¢Å¢Å¢Å¢Å¢Å¢Å¢Å¢Å¢Å¢Å¢Å¢Å¢Å¢Å¢Å¢Å¢Å¢Å¢Å¢Å¢Å¢Å¢Å¢Å¢Å¢Å¢Å¢Å¢Å¢Å¢Å¢Å¢Å¢Å¢Å¢Å¢Å¢Å¢Å¢Å¢Å¢Å¢Å¢Å¢Å¢Å¢Å¢Å¢Å¢Å¢Å¢Å¢Å¢Å¢Å¢Å¢Å¢Å¢Å¢Å¢Å¢Å¢Å¢Å¢Å¢Å¢Å¢Å¢Å¢Å¢Å¢Å¢Å¢Å¢Å¢Å¢Å¢Å¢Å¢Å¢Å¢Å¢Å¢Å¢Å¢Å¢Å¢Å¢Å¢Å¢Å¢": 1984,
      "ÃĲ": 1985,
      "ÅŃÅĺ": 1986,
      "ÅķÅ¦": 1987,
      "Å¢Å¢Å¢Å¢Å¢Å¢Å¢Å¢Å¢Å¢Å¢Å¢Å¢Å¢Å¢Å¢Å¢Å¢Å¢Å¢Å¢Å¢Å¢Å¢Å¢Å¢Å¢Å¢Å¢Å¢Å¢Å¢Å¢Å¢Å¢Å¢Å¢Å¢Å¢Å¢Å¢Å¢Å¢Å¢Å¢Å¢Å¢Å¢Å¢Å¢Å¢Å¢Å¢Å¢Å¢Å¢Å¢Å¢Å¢Å¢Å¢Å¢Å¢Å¢Å¢Å¢Å¢Å¢Å¢Å¢Å¢Å¢Å¢Å¢Å¢Å¢Å¢Å¢Å¢Å¢Å¢Å¢Å¢Å¢Å¢Å¢Å¢Å¢Å¢Å¢Å¢Å¢Å¢Å¢Å¢Å¢Å¢Å¢Å¢Å¢Å¢Å¢Å¢Å¢Å¢Å¢Å¢Å¢Å¢Å¢Å¢Å¢Å¢Å¢Å¢Å¢Å¢Å¢Å¢Å¢Å¢Å¢Å¢Å¢Å¢Å¢Å¢Å¢Å¢Å¢Å¢Å¢Å¢Å¢Å¢Å¢Å¢Å¢Å¢Å¢Å¢Å¢Å¢Å¢Å¢Å¢Å¢Å¢Å¢Å¢Å¢Å¢Å¢Å¢Å¢Å¢Å¢Å¢Å¢Å¢Å¢Å¢Å¢Å¢Å¢Å¢Å¢Å¢Å¢Å¢Å¢Å¢Å¢Å¢Å¢Å¢Å¢Å¢Å¢Å¢Å¢Å¢Å¢Å¢Å¢Å¢Å¢Å¢Å¢Å¢Å¢Å¢Å¢Å¢Å¢Å¢Å¢Å¢Å¢Å¢Å¢Å¢Å¢Å¢Å¢Å¢Å¢Å¢Å¢Å¢Å¢Å¢Å¢Å¢Å¢Å¢Å¢Å¢Å¢Å¢Å¢Å¢Å¢Å¢Å¢Å¢Å¢Å¢Å¢Å¢Å¢Å¢Å¢Å¢Å¢Å¢Å¢Å¢Å¢Å¢Å¢Å¢Å¢Å¢Å¢Å¢Å¢Å¢Å¢Å¢Å¢Å¢Å¢Å¢Å¢Å£": 1988,
      "Å¢Å¢Å¢Å¢Å¢Å¢Å¢Å¢Å¢Å¢Å¢Å¢Å¢Å¢Å¢Å¢Å¢Å¢Å¢Å¢Å¢Å¢Å¢Å¢Å¢Å¢Å¢Å¢Å¢Å¢Å¢Å¢Å¢Å¢Å¢Å¢Å¢Å¢Å¢Å¢Å¢Å¢Å¢Å¢Å¢Å¢Å¢Å¢Å¢Å¢Å¢Å¢Å¢Å¢Å¢Å¢Å¢Å¢Å¢Å¢Å¢Å¢Å¢Å¢Å¢Å¢Å¢Å¢Å¢Å¢Å¢Å¢Å¢Å¢Å¢Å¢Å¢Å¢Å¢Å¢Å¢Å¢Å¢Å¢Å¢Å¢Å¢Å¢Å¢Å¢Å¢Å¢Å¢Å¢Å¢Å¢Å¢Å¢Å¢Å¢Å¢Å¢Å¢Å¢Å¢Å¢Å¢Å¢Å¢Å¢Å¢Å¢Å¢Å¢Å¢Å¢Å¢Å¢Å¢Å¢Å¢Å¢Å¢Å¢Å¢Å¢Å¢Å¢Å¢Å¢Å¢Å¢Å¢Å¢Å¢Å¢Å¢Å¢Å¢Å¢Å¢Å¢Å¢Å¢Å¢Å¢Å¢Å¢Å¢Å¢Å¢Å¢Å¢Å¢Å¢Å¢Å¢Å¢Å¢Å¢Å¢Å¢Å¢Å¢Å¢Å¢Å¢Å¢Å¢Å¢Å¢Å¢Å¢Å¢Å¢Å¢Å¢Å¢Å¢Å¢Å¢Å¢Å¢Å¢Å¢Å¢Å¢Å¢Å¢Å¢Å¢Å¢Å¢Å¢Å¢Å¢Å¢Å¢Å¢Å¢Å¢Å¢Å¢Å¢Å¢Å¢Å¢Å¢Å¢Å¢Å¢Å¢Å¢Å¢Å¢Å¢Å¢Å¢Å¢Å¢Å¢Å¢Å¢Å¢Å¢Å¢Å¢Å¢Å¢Å¢Å¢Å¢Å¢Å¢Å¢Å¢Å¢Å¢Å¢Å¢Å¢Å¢Å¢Å¢Å¢Å¢Å¢Å¢Å¢Å¢Å¢Å¢Å¢Å¢Å¢Å¢Å¢Å¢Å¢Å¢Å¢Å¢Å¢Å¢Å¢Å¢Å¢Å¢Å¢Å¢Å¢Å¢Å¢Å¢Å¢Å¢Å¢Å¢Å¢Å¢Å¢Å¢Å¢Å¢Å¢Å¢Å¢Å¢Å¢Å¢Å¢Å¢Å¢Å¢Å¢Å¢Å¢Å¢Å¢Å¢Å¢Å¢Å¢Å¢Å¢Å¢Å¢Å¢Å¢Å¢Å¢Å¢Å¢Å¢Å¢Å¢Å¢Å¢Å¢Å¢Å¢Å¢Å¢Å¢Å¢Å¢Å¢Å¢Å¢Å¢Å¢Å¢Å¢Å¢Å¢Å¢Å¢Å¢Å¢Å¢Å¢Å¢Å¢Å¢Å¢Å¢Å¢Å¢Å¢Å¢Å¢Å¢Å¢Å¢Å¢Å¢Å¢Å¢Å¢Å¢Å¢Å¢Å¢Å¢Å¢Å¢Å¢Å¢Å¢Å¢Å¢Å¢Å¢Å¢Å¢Å¢Å¢Å¢Å¢Å¢Å¢Å¢Å¢Å¢Å¢Å¢Å¢Å¢Å¢Å¢Å¢Å¢Å¢Å¢Å¢Å¢Å¢Å¢Å¢Å¢Å¢Å¢Å¢Å¢Å¢Å¢Å¢Å¢Å¢Å¢Å¢Å¢Å¢Å¢Å¢Å¢Å¢Å¢Å¢Å¢Å¢Å¢Å¢Å¢Å¢Å¢Å¢Å¢Å¢Å¢Å¢Å¢Å¢Å¢Å¢Å¢Å¢Å¢Å¢Å¢Å¢Å¢Å¢Å¢Å¢Å¢Å¢Å¢Å¢Å¢Å¢Å¢Å¢Å¢Å¢Å¢Å¢Å¢Å¢Å¢Å¢Å¢Å¢Å¢Å¢Å¢Å¢Å¢Å¢Å¢Å¢Å¢Å¢Å¢Å¢Å¢Å¢Å¢Å¢Å¢Å¢Å¢Å¢Å¢Å¢Å¢Å¢Å¢Å¢Å¢Å¢Å¢Å¢Å¢Å¢Å¢Å¢Å¢Å¢Å¢Å¢Å¢Å¢Å¢Å¢Å¢Å¢Å¢Å¢Å¢Å¢Å¢Å¢Å¢Å¢Å¢Å¢Å¢Å¢Å¢Å¢Å¢Å¢Å¢Å¢Å¢Å¢Å¢Å¢Å¢Å¢Å¢Å¢Å¢Å¢Å¢Å¢Å¢Å¢Å¢Å¢Å¢Å¢Å¢Å¢Å¢Å¢Å¢Å¢Å¢Å¢Å¢Å¢Å¢Å¢Å¢Å¢Å¢Å¢Å¢Å¢Å¢Å¢Å¢Å¢Å¢Å¢Å¢Å¢Å¢Å¢Å¢Å¢Å¢Å¢Å¢Å¢Å¢Å¢Å¢Å¢Å¢Å¢Å¢Å¢Å¢Å¢Å¢Å¢Å¢Å¢Å¢Å¢Å¢Å¢Å¢Å¢Å¢Å¢Å¢Å¢Å¢Å¢Å¢Å¢Å¢Å¢Å¢Å¢Å¢Å¢Å¢Å¢Å¢Å¢Å¢Å¢Å¢Å¢Å¢Å¢Å¢Å¢Å¢Å¢Å¢Å¢Å¢Å¢Å¢Å¢Å¢Å¢Å¢Å¢Å¢Å¢Å¢Å¢Å¢Å¢Å¢Å¢Å¢Å¢Å¢Å¢Å¢Å¢Å¢Å¢Å¢Å¢Å¢Å¢Å¢Å¢Å¢Å¢Å¢Å¢Å¢Å¢Å¢Å¢Å¢Å¢Å¢Å¢Å¢Å¢Å¢Å¢Å¢Å¢Å¢Å¢Å¢Å¢Å¢Å¢Å¢Å¢Å¢Å¢Å¢Å¢Å¢Å¢Å¢Å¢Å¢Å¢Å¢Å¢Å¢Å¢Å¢Å¢Å¢Å¢Å¢Å¢Å¢Å¢Å¢Å¢Å¢Å¢Å¢Å¢Å¢Å¢Å¢Å¢Å¢Å¢Å¢Å¢Å¢Å¢Å¢Å¢Å¢Å¢Å¢Å¢Å¢Å¢Å¢Å¢Å¢Å¢Å¢Å¢Å¢Å¢Å¢Å¢Å¢Å¢Å¢Å¢Å¢Å¢Å¢Å¢Å¢Å¢Å¢Å¢Å¢Å¢Å¢Å¢Å¢Å¢Å¢Å¢Å¢Å¢Å¢Å¢Å¢Å¢Å¢Å¢Å¢Å¢Å¢Å¢Å¢Å¢Å¢Å¢Å¢Å¢Å¢Å¢Å¢Å¢Å¢Å¢Å¢Å¢Å¢Å¢Å¢Å¢Å¢Å¢Å¢Å¢Å¢Å¢Å¢Å¢Å¢Å¢Å¢Å¢Å¢Å¢Å¢Å¢Å¢Å¢Å¢Å¢Å¢Å¢Å¢Å¢Å¢Å¢Å¢Å¢Å¢Å¢Å¢Å¢Å¢Å¢Å¢Å¢Å¢Å¢Å¢Å¢Å¢Å¢Å¢Å¢Å¢Å¢Å¢Å¢Å¢Å¢Å¢Å¢Å¢Å¢Å¢Å¢Å¢Å¢Å¢Å¢Å¢Å¢Å¢Å¢Å¢Å¢Å¢Å¢Å¢Å¢Å¢Å¢Å¢Å¢Å¢Å¢Å¢Å¢Å¢Å¢Å¢Å¢Å¢Å¢Å¢Å¢Å¢Å¢Å¢Å¢Å¢Å¢Å¢Å¢Å¢Å¢Å¢Å¢Å¢Å¢Å¢Å¢Å¢Å¢Å¢Å¢Å¢Å¢Å¢Å¢Å¢Å¢Å¢Å¢Å¢Å¢Å¢Å¢Å¢Å¢Å¢Å¢Å¢Å¢Å¢Å¢Å¢Å¢Å¢Å¢Å¢Å¢Å¢Å¢Å¢Å¢Å¢Å¢Å¢Å¢Å¢Å¢Å¢Å¢Å¢Å¢Å¢Å¢Å¢Å¢Å¢Å¢Å¢Å¢Å¢Å¢Å¢Å¢Å¢Å¢Å¢Å¢Å¢Å¢Å¢Å¢Å¢Å¢Å¢Å¢Å¢Å¢Å¢Å¢Å¢Å¢Å¢Å¢Å¢Å¢Å¢Å¢Å¢Å¢Å¢Å¢Å¢Å¢Å¢Å¢Å¢Å¢Å¢Å¢Å¢Å¢Å¢Å¢Å¢Å¢Å¢Å¢Å¢Å¢Å¢Å¢Å¢Å¢Å¢Å¢Å¢Å¢Å¢Å¢Å¢Å¢Å¢Å¢Å¢Å¢Å¢Å¢Å¢Å¢Å¢Å¢Å¢Å¢Å¢Å¢Å¢Å¢Å¢Å¢Å¢Å¢Å¢Å¢Å¢Å¢Å¢Å¢Å¢Å¢Å¢Å¢Å¢Å¢Å¢Å¢Å¢Å¢Å¢Å¢Å¢Å¢Å¢Å¢Å¢Å¢Å¢Å¢Å¢Å¢Å¢Å¢Å¢Å¢Å¢Å¢Å¢Å¢Å¢Å¢Å¢Å¢Å¢Å¢Å¢Å¢Å¢Å¢Å¢Å¢Å¢Å¢Å¢Å¢Å¢Å¢Å¢Å¢Å¢Å¢Å¢Å¢Å¢Å¢Å¢Å¢Å¢Å¢Å¢Å¢Å¢Å¢Å¢Å¢Å¢Å¢Å¢Å¢Å¢Å¢Å¢Å¢Å¢Å¢Å¢Å¢Å¢Å¢Å¢Å¢Å¢Å¢Å¢Å¢Å¢Å¢Å¢Å¢Å¢Å¢Å¢Å¢Å¢Å¢Å¢Å¢Å¢Å¢Å¢Å¢Å¢Å¢Å¢Å¢Å¢Å¢Å¢Å¢Å¢Å¢Å¢Å¢Å¢Å¢Å¢Å¢Å¢Å¢Å¢Å¢Å¢Å¢Å¢Å¢Å¢Å¢Å¢Å¢Å¢Å¢Å¢Å¢Å¢Å¢Å¢Å¢Å¢Å¢Å¢Å¢Å¢Å¢Å¢Å¢Å¢Å¢Å¢Å¢Å¢Å¢Å¢Å¢Å¢Å¢Å¢Å¢Å¢Å¢Å¢Å¢Å¢Å¢Å¢Å¢Å¢Å¢Å¢Å¢Å¢Å¢Å¢Å¢Å¢Å¢Å¢Å¢Å¢Å¢Å¢Å¢Å¢Å¢Å¢Å¢Å¢Å¢Å¢Å¢Å¢Å¢Å¢Å¢Å¢Å¢Å¢Å¢Å¢Å¢Å¢Å¢Å¢Å¢Å¢Å¢Å¢Å¢Å¢Å¢Å¢Å¢Å¢Å¢Å¢Å¢Å¢Å¢Å¢Å¢Å¢Å¢Å¢Å¢Å¢Å¢Å¢Å¢Å¢Å¢Å¢Å¢Å¢Å¢Å¢Å¢Å¢Å¢Å¢Å¢Å¢Å¢Å¢Å¢Å¢Å¢Å¢Å¢Å¢Å¢Å¢Å¢Å¢Å¢Å¢Å¢Å¢Å¢Å¢Å¢Å¢Å¢Å¢Å¢Å¢Å¢Å¢Å¢Å¢Å¢Å¢Å¢Å¢Å¢Å¢Å¢Å¢Å¢Å¢Å¢Å¢Å¢Å¢Å¢Å¢Å¢Å¢Å¢Å¢Å¢Å¢Å¢Å¢Å¢Å¢Å¢Å¢Å¢Å¢Å¢Å¢Å¢Å¢Å¢Å¢Å¢Å¢Å¢Å¢Å¢Å¢Å¢Å¢Å¢Å¢Å¢Å¢Å¢Å¢Å¢Å¢Å¢Å¢Å¢Å¢Å¢Å¢Å¢Å¢Å¢Å¢Å¢Å¢Å¢Å¢Å¢Å¢Å¢Å¢Å¢Å¢Å¢Å¢Å¢Å¢Å¢Å¢Å¢Å¢Å¢Å¢Å¢Å¢Å¢Å¢Å¢Å¢Å¢Å¢Å¢Å¢Å¢Å¢Å¢Å¢Å¢Å¢Å¢Å¢Å¢Å¢Å¢Å¢Å¢Å¢Å¢Å¢Å¢Å¢Å¢Å¢Å¢Å¢Å¢Å¢Å¢Å¢Å¢Å¢Å¢Å¢Å¢Å¢Å¢Å¢Å¢Å¢Å¢Å¢Å¢Å¢Å¢Å¢Å¢Å¢Å¢Å¢Å¢Å¢Å¢Å¢Å¢Å¢Å¢Å¢Å¢Å¢Å¢Å¢Å¢Å¢Å¢Å¢Å¢Å¢Å¢Å¢Å¢Å¢Å¢Å¢Å¢Å¢Å¢Å¢Å¢Å¢Å¢Å¢Å¢Å¢": 1989,
      "Å®Å§": 1990,
      "Å¢Å¢Å¢Å¢Å¢Å¢Å¢Å¢Å¢Å¢Å¢Å¢Å¢Å¢Å¢Å¢Å¢Å¢Å¢Å¢Å¢Å¢Å¢Å¢Å¢Å¢Å¢Å¢Å¢Å¢Å¢Å¤Å¢Å¢Å¢Å¢Å¢Å¢Å¢Å¢Å¢Å¢Å¢Å¢Å¢Å¢Å¢Å¢Å¢Å¢Å¢Å¢Å¢Å¢Å¢Å¢Å¢Å¢Å¢Å¢Å¢Å¢Å¢Å¢Å¢Å¢Å¢Å¢Å¢Å¢Å¢Å¢Å¢Å¢Å¢Å¢Å¢Å¢Å¢Å¢Å¢Å¢Å¢Å¢Å¢Å¢Å¢Å¢Å¢Å¢Å¢Å¢Å¢Å¢Å¢Å¡": 1991,
      "Å¢Å¢Å¢Å¢Å¢Å¢Å¢Å¢Å¢Å¢Å¢Å¢Å¢Å¢Å¢Å¢Å¢Å¢Å¢Å¢Å¢Å¢Å¢Å¢Å¢Å¢Å¢Å¢Å¢Å¢Å¢Å¢Å¢Å¢Å¢Å¢Å¢Å¢Å¢Å¢Å¢Å¢Å¢Å¢Å¢Å¢Å¢Å¢Å¢Å¢Å¢Å¢Å¢Å¢Å¢Å¢Å¢Å¢Å¢Å¢Å¢Å¢Å¢Å¢Å¢Å¢Å¢Å¢Å¢Å¢Å¢Å¢Å¢Å¢Å¢Å¢Å¢Å¢Å¢Å¢Å¢Å¢Å¢Å¢Å¢Å¢Å¢Å¢Å¢Å¢Å¢Å¢Å¢Å¢Å¢Å¢Å¢Å¢Å¢Å¢Å¢Å¢Å¢Å¢Å¢Å¢Å¢Å¢Å¢Å¢Å¢Å¢Å¢Å¢Å¢Å¢Å¢Å¢Å¢Å¢Å¢Å¢Å¢Å¢Å¢Å¢Å¢Å¢Å¢Å¢Å¢Å¢Å¢Å¢Å¢Å¢Å¢Å¢Å¢Å¢Å¢Å¢Å¢Å¢Å¢Å¢Å¢Å¢Å¢Å¢Å¢Å¢Å¢Å¢Å¢Å¢Å¢Å¢Å¢Å¢Å¢Å¢Å¢Å¢Å¢Å¢Å¢Å¢Å¢Å¢Å¢Å¢Å¢Å¢Å¢Å¢Å¢Å¢Å¢Å¢Å¢Å¢Å¢Å¢Å¢Å¢Å¢Å¢Å¢Å¢Å¢Å¢Å¢Å¢Å¢Å¢Å¢Å¢Å¢Å¢Å¢Å¢Å¢Å¢Å¢Å¢Å¢Å¢Å¢Å¢Å¢Å¢Å¢Å¢Å¢Å¢Å¢Å¢Å¢Å¢Å¢Å¢Å¢Å¢Å¢Å¢Å¢Å¢Å¢Å¢Å¢Å¢Å¢Å¢Å¢Å¢Å¢Å¢Å¢Å¢Å¢Å¢Å¢Å¢Å¢Å¢Å¢Å¢Å¢Å¢Å¢Å¢Å¢Å¢Å¢Å¢Å¢Å¢Å¢Å¢Å¢Å¢Å¢Å¢Å¢Å¢Å¢Å¢Å¢Å¢Å¢Å¢Å¢Å¢Å¢Å¢Å¢Å¢Å¢Å¢Å¢Å¢Å¢Å¢Å¢Å¢Å¢Å¢Å¢Å¢Å¢Å¢Å¢Å¢Å¢Å¢Å¢Å¢Å¢Å¢Å¢Å¢Å¢Å¢Å¢Å¢Å¢Å¢Å¢Å¢Å¢Å¢Å¢Å¢Å¢Å¢Å¢Å¢Å¢Å¢Å¢Å¢Å¢Å¢Å¢Å¢Å¢Å¢Å¢Å¢Å¢Å¢Å¢Å¢Å¢Å¢Å¢Å¢Å¢Å¢Å¢Å¢Å¢Å¢Å¢Å¢Å¢Å¢Å¢Å¢Å¢Å¢Å¢Å¢Å¢Å¢Å¢Å¢Å¢Å¢Å¢Å¢Å¢Å¢Å¢Å¢Å¢Å¢Å¢Å¢Å¢Å¢Å¢Å¢Å¢Å¢Å¢Å¢Å¢Å¢Å¢Å¢Å¢Å¢Å¢Å¢Å¢Å¢Å¢Å¢Å¢Å¢Å¢Å¢Å¢Å¢Å¢Å¢Å¢Å¢Å¢Å¢Å¢Å¢Å¢Å¢Å¢Å¢Å¢Å¢Å¢Å¢Å¢Å¢Å¢Å¢Å¢Å¢Å¢Å¢Å¢Å¢Å¢Å¢Å¢Å¢Å¢Å¢Å¢Å¢Å¢Å¢Å¢Å¢Å¢Å¢Å¢Å¢Å¢Å¢Å¢Å¢Å¢Å¢Å¢Å¢Å¢Å¢Å¢Å¢Å¢Å¢Å¢Å¢Å¢Å¢Å¢Å¢Å¢Å¢Å¢Å¢Å¢Å¢Å¢Å¢Å¢Å¢Å¢Å¢Å¢Å¢Å¢Å¢Å¢Å¢Å¢Å¢Å¢Å¢Å¢Å¢Å¢Å¢Å¢Å¢Å¢Å¢Å¢Å¢Å¢Å¢Å¢Å¢Å¢Å¢Å¢Å¢Å¢Å¢Å¢Å¢Å¢Å¢Å¢Å¢Å¢Å¢Å¢Å¢Å¢Å¢Å¢Å¢Å¢Å¢Å¢Å¢Å¢Å¢Å¢Å¢Å¢Å¢Å¢Å¢Å¢Å¢Å¢Å¢Å¢Å¢Å¢Å¢Å¢Å¢Å¢Å¢Å¢Å¢Å¢Å¢Å¢Å¢Å¢Å¢Å¢Å¢Å¢Å¢Å¢Å¢Å¢Å¢Å¢Å¢Å¢Å¢Å¢Å¢Å¢Å¢Å¢Å¢Å¢Å¢Å¢Å¢Å¢Å¢Å¢Å¢Å¢Å¢Å¢Å¢Å¢Å¢Å¢Å¢Å¢Å¢Å¢Å¢Å¢Å¢Å¢Å¢Å¢Å¢Å¢Å¢Å¢Å¢Å¢Å¢Å¢Å¢Å¢Å¢Å¢Å¢Å¢Å¢Å¢Å¢Å¢Å¢Å¢Å¢Å¢Å¢Å¢Å¢Å¢Å¢Å¢Å¢Å¢Å¢Å¢Å¢Å¢Å¢Å¢Å¢Å¢Å¢Å¢Å¢Å¢Å¢Å¢Å¢Å¢Å¢Å¢Å¢Å¢Å¢Å¢Å¢Å¢Å¢Å¢Å¢Å¢Å¢Å¢Å¢Å¢Å¢Å¢Å¢Å¢Å¢Å¢Å¢Å¢Å¢Å¢Å¢Å¢Å¢Å¢Å¢Å¢Å¢Å¢Å¢Å¢Å¢Å¢Å¢Å¢Å¢Å¢Å¢Å¢Å¢Å¢Å¢Å¢Å¢Å¢Å¢Å¢Å¢Å¢Å¢Å¢Å¢Å¢Å¢Å¢Å¢Å¢Å¢Å¢Å¢Å¢Å¢Å¢Å¢Å¢Å¢Å¢Å¢Å¢Å¢Å¢Å¢Å¢Å¢Å¢Å¢Å¢Å¢Å¢Å¢Å¢Å¢Å¢Å¢Å¢Å¢Å¢Å¢Å¢Å¢Å¢Å¢Å¢Å¢Å¢Å¢Å¢Å¢Å¢Å¢Å¢Å¢Å¢Å¢Å¢Å¢Å¢Å¢Å¢Å¢Å¢Å¢Å¢Å¢Å¢Å¢Å¢Å¢Å¢Å¢Å¢Å¢Å¢Å¢Å¢Å¢Å¢Å¢Å¢Å¢Å¢Å¢Å¢Å¢Å¢Å¢Å¢Å¢Å¢Å¢Å¢Å¢Å¢Å¢Å¢Å¢Å¢Å¢Å¢Å¢Å¢Å¢Å¢Å¢Å¢Å¢Å¢Å¢Å¢Å¢Å¢Å¢Å¢Å¢Å¢Å¢Å¢Å¢Å¢Å¢Å¢Å¢Å¢Å¢Å¢Å¢Å¢Å¢Å¢Å¢Å¢Å¢Å¢Å¢Å¢Å¢Å¢Å¢Å¢Å¢Å¢Å¢Å¢Å¢Å¢Å¢Å¢Å¢Å¢Å¢Å¢Å¢Å¢Å¢Å¢Å¢Å¢Å¢Å¢Å¢Å¢Å¢Å¢Å¢Å¢Å¢Å¢Å¢Å¢Å¢Å¢Å¢Å¢Å¢Å¢Å¢Å¢Å¢Å¢Å¢Å¢Å¢Å¢Å¢Å¢Å¢Å¢Å¢Å¢Å¢Å¢Å¢Å¢Å¢Å¢Å¢Å¢Å¢Å¢Å¢Å¢Å¢Å¢Å¢Å¢Å¢Å¢Å¢Å¢Å¢Å¢Å¢Å¢Å¢Å¢Å¢Å¢Å¢Å¢Å¢Å¢Å¢Å¢Å¢Å¢Å¢Å¢Å¢Å¢Å¢Å¢Å¢Å¢Å¢Å¢Å¢Å¢Å¢Å¢Å¢Å¢Å¢Å¢Å¢Å¢Å¢Å¢Å¢Å¢Å¢Å¢Å¢Å¢Å¢Å¢Å¢Å¢Å¢Å¢Å¢Å¢Å¢Å¢Å¢Å¢Å¢Å¢Å¢Å¢Å¢Å¢Å¢Å¢Å¢Å¢Å¢Å¢Å¢Å¢Å¢Å¢Å¢Å¢Å¢Å¢Å¢Å¢Å¢Å¢Å¢Å¢Å¢Å¢Å¢Å¢Å¢Å¢Å¢Å¢Å¢Å¢Å¢Å¢Å¢Å¢Å¢Å¢Å¢Å¢Å¢Å¢Å¢Å¢Å¢Å¢Å¢Å¢Å¢Å¢Å¢Å¢Å¢Å¢Å¢Å¢Å¢Å¢Å¢Å¢Å¢Å¢Å¢Å¢Å¢Å¢Å¢Å¢Å¢Å¢Å¢Å¢Å¢Å¢Å¢Å¢Å¢Å¢Å¢Å¢Å¢Å¢Å¢Å¢Å¢Å¢Å¢Å¢Å¢Å¢Å¢Å¢Å¢Å¢Å¢Å¢Å¢Å¢Å¢Å¢Å¢Å¢Å¢Å¢Å¢Å¢Å¢Å¢Å¢Å¢Å¢Å¢Å¢Å¢Å¢Å¢Å¢Å¢Å¢Å¢Å¢Å¢Å¢Å¢Å¢Å¢Å¢Å¢Å¢Å¢Å¢Å¢Å¢Å¢Å¢Å¢Å¢Å¢Å¢Å¢Å¢Å¢Å¢Å¢Å¢Å¢Å¢Å¢Å¢Å¢Å¢Å¢Å¢Å¢": 1992,
      "Å¢Å¢Å¢Å¢Å¢Å¢Å¢Å¢Å¢Å¢Å¢Å¢Å¢Å¢Å¢Å¢Å¢Å¢Å¢Å¢Å¢Å¢Å¢Å¢Å¢Å¢Å£Å¡Å£": 1993,
      "Å¢Å¢Å¢Å¢Å¢Å¢Å¢Å¢Å¢Å¢Å¢Å¢Å¢Å¢Å¢Å¢Å¢Å¢Å¢Å¢Å¢Å¢Å¢Å¢Å¢Å¢Å¢Å¢Å¢Å¢Å¢Å¢Å¢Å¢Å¢Å¢Å¢Å¢Å¢Å¢Å¢Å¢Å¢Å¢Å¢Å¢Å¢Å¢Å¢Å¢Å¢Å¢Å¢Å¢Å¢Å¢Å¢Å¢Å¢Å¢Å¢Å¢Å¢Å¢Å¢Å¢Å¢Å¢Å¢Å¢Å¢Å¢Å¢Å¢Å¢Å¢Å¢Å¢Å¢Å¢Å¢Å¢Å¢Å¢Å¢Å¢Å¢Å¢Å¢Å¢Å¢Å¢Å¢Å¢Å¢Å¢Å¢Å¢Å¢Å¢Å¢Å¢Å¢Å¢Å¢Å¢Å¢Å¢Å¢Å¢Å¢Å¢Å¢Å¢Å¢Å¢Å¢Å¢Å¢Å¢Å¢Å¢Å¢Å¢Å¢Å¢Å¢Å¢Å¢Å¢Å¢Å¢Å¢Å¢Å¢Å¢Å¢Å¢Å¢Å¢Å¢Å¢Å¢Å¢Å¢Å¢Å¢Å¢Å¢Å¢Å¢Å¢Å¢Å¢Å¢Å¢Å¢Å¢Å¢Å¢Å¢Å¢Å¢Å¢Å¢Å¢Å¢Å¢Å¢Å¢Å¢Å¢Å¢Å¢Å¢Å¢Å¢Å¢Å¢Å¢Å¢Å¢Å¢Å¢Å¢Å¢Å¢Å¢Å¢Å¢Å¢Å¢Å¢Å¢Å¢Å¢Å¢Å¢Å¢Å¢Å¢Å¢Å¢Å¢Å¢Å¢Å¢Å¢Å¢Å¢Å¢Å¢Å¢Å¢Å¢Å¢Å¢Å¢Å¢Å¢Å¢Å¢Å¢Å¢Å¢Å¢Å¢Å¢Å¢Å¢Å¢Å¢Å¢Å¢Å¢Å¢Å¢Å¢Å¢Å¢Å¢Å¢Å¢Å¢Å¢Å¢Å¢Å¢Å¢Å¢Å¢Å¢Å¢Å¢Å¢Å¢Å¢Å¢Å¢Å¢Å¢Å¢Å¢Å¢Å¢Å¢Å¢Å¢Å¢Å¢Å¢Å¢Å¢Å¢Å¢Å¢Å¢Å¢Å¢Å¢Å¢Å¢Å¢Å¢Å¢Å¢Å¢Å¢Å¢Å¢Å¢Å¢Å¢Å¢Å¢Å¢Å¢Å¢Å¢Å¢Å¢Å¢Å¢Å¢Å¢Å¢Å¢Å¢Å¢Å¢Å¢Å¢Å¢Å¢Å¢Å¢Å¢Å¢Å¢Å¢Å¢Å¢Å¢Å¢Å¢Å¢Å¢Å¢Å¢Å¢Å¢Å¢Å¢Å¢Å¢Å¢Å¢Å¢Å¢Å¢Å¢Å¢Å¢Å¢Å¢Å¢Å¢Å¢Å¢Å¢Å¢Å¢Å¢Å¢Å¢Å¢Å¢Å¢Å¢Å¢Å¢Å¢Å¢Å¢Å¢Å¢Å¢Å¢Å¢Å¢Å¢Å¢Å¢Å¢Å¢Å¢Å¢Å¢Å¢Å¢Å¢Å¢Å¢Å¢Å¢Å¢Å¢Å¢Å¢Å¢Å¢Å¢Å¢Å¢Å¢Å¢Å¢Å¢Å¢Å¢Å¢Å¢Å¢Å¢Å¢Å¢Å¢Å¢Å¢Å¢Å¢Å¢Å¢Å¢Å¢Å¢Å¢Å¢Å¢Å¢Å¢Å¢Å¢Å¢Å¢Å¢Å¢Å¢Å¢Å¢Å¢Å¢Å¢Å¢Å¢Å¢Å¢Å¢Å¢Å¢Å¢Å¢Å¢Å¢Å¢Å¢Å¢Å¢Å¢Å¢Å¢Å¢Å¢Å¢Å¢Å¢Å¢Å¢Å¢Å¢Å¢Å¢Å¢Å¢Å¢Å¢Å¢Å¢Å¢Å¢Å¢Å¢Å¢Å¢Å¢Å¢Å¢Å¢Å¢Å¢Å¢Å¢Å¢Å¢Å¢Å¢Å¢Å¢Å¢Å¢Å¢Å¢Å¢Å¢Å¢Å¢Å¢Å¢Å¢Å¢Å¢Å¢Å¢Å¢Å¢Å¢Å¢Å¢Å¢Å¢Å¢Å¢Å¢Å¢Å¢Å¢Å¢Å¢Å¢Å¢Å¢Å¢Å¢Å¢Å¢Å¢Å¢Å¢Å¢Å¢Å¢Å¢Å¢Å¢Å¢Å¢Å¢Å¢Å¢Å¢Å¢Å¢Å¢Å¢Å¢Å¢Å¢Å¢Å¢Å¢Å¢Å¢Å¢Å¢Å¢Å¢Å¢Å¢Å¢Å¢Å¢Å¢Å¢Å¢Å¢Å¢Å¢Å¢Å¢Å¢Å¢Å¢Å¢Å¢Å¢Å¢Å¢Å¢Å¢Å¢Å¢Å¢Å¢Å¢Å¢Å¢Å¢Å¢Å¢Å¢Å¢Å¢Å¢Å¢Å¢Å¢Å¢Å¢Å¢Å¢Å¢Å¢Å¢Å¢Å¢Å¢Å¢Å¢Å¢Å¢Å¢Å¢Å¢Å¢Å¢Å¢Å¢Å¢Å¢Å¢Å¢Å¢Å¢Å¢Å¢Å¢Å¢Å¢Å¢Å¢Å¢Å¢Å¢Å¢Å¢Å¢Å¢Å¢Å¢Å¢Å¢Å¢Å¢Å¢Å¢Å¢Å¢Å¢Å¢Å¢Å¢Å¢Å¢Å¢Å¢Å¢Å¢Å¢Å¢Å¢Å¢Å¢Å¢Å¢Å¢Å¢Å¢Å¢Å¢Å¢Å¢Å¢Å¢Å¢Å¢Å¢Å¢Å¢Å¢Å¢Å¢Å¢Å¢Å¢Å¢Å¢Å¢Å¢Å¢Å¢Å¢Å¢Å¢Å¢Å¢Å¢Å¢Å¢Å¢Å¢Å¢Å¢Å¢Å¢Å¢Å¢Å¢Å¢Å¢Å¢Å¢Å¢Å¢Å¢Å¢Å¢Å¢Å¢Å¢Å¢Å¢Å¢Å¢Å¢Å¢Å¢Å¢Å¢Å¢Å¢Å¢Å¢Å¢Å¢Å¢Å¢Å¢Å¢Å¢Å¢Å¢Å¢Å¢Å¢Å¢Å¢Å¢Å¢Å¢Å¢Å¢Å¢Å¢Å¢Å¢Å¢Å¢Å¢Å¢Å¢Å¢Å¢Å¢Å¢Å¢Å¢Å¢Å¢Å¢Å¢Å¢Å¢Å¢Å¢Å¢Å¢Å¢Å¢Å¢Å¢Å¢Å¢Å¢Å¢Å¢Å¢Å¢Å¢Å¢Å¢Å¢Å¢Å¢Å¢Å¢Å¢Å¢Å¢Å¢Å¢Å¢Å¢Å¢Å¢Å¢Å¢Å¢Å¢Å¢Å¢Å¢Å¢Å¢Å¢Å¢Å¢Å¢Å¢Å¢Å¢Å¢Å¢Å¢Å¢Å¢Å¢Å¢Å¢Å¢Å¢Å¢Å¢Å¢Å¢Å¢Å¢Å¢Å¢Å¢Å¢Å¢Å¢Å¢Å¢Å¢Å¢Å¢Å¢Å¢Å¢Å¢Å¢Å¢Å¢Å¢Å¢Å¢Å¢Å¢Å¢Å¢Å¢Å¢Å¢Å¢Å¢Å¢Å¢Å¢Å¢Å¢Å¢Å¢Å¢Å¢Å¢Å¢Å¢Å¢Å¢Å¢Å¢Å¢Å¢Å¢Å¢Å¢Å¢Å¢Å¢Å¢Å¢Å¢Å¢Å¢Å¢Å¢Å¢Å¢Å¢Å¢Å¢Å¢Å¢Å¢Å¢Å¢Å¢Å¢Å¢Å¢Å¢Å¢Å¢Å¢Å¢Å¢Å¢Å¢Å¢Å¢Å¢Å¢Å¢Å¢Å¢Å¢Å¢Å¢Å¢Å¢Å¢Å¢Å¢Å¢Å¢Å¢Å¢Å¢Å¢Å¢Å¢Å¢Å¢Å¢Å¢Å¢Å¢Å¢Å¢Å¢Å¢Å¢Å¢Å¢Å¢Å¢Å¢Å¢Å¢Å¢Å¢Å¢Å¢Å¢Å¢Å¢Å¢Å¢Å¢Å¢Å¢Å¢Å¢Å¢Å¢Å¢Å¢Å¢Å¢Å¢Å¢Å¢Å¢Å¢Å¢Å¢Å¢Å¢Å¢Å¢Å¢Å¢Å¢Å¢Å¢Å¢Å¢Å¢Å¢Å¢Å¢Å¢Å¢Å¢Å¢Å¢Å¢Å¢Å¢Å¢Å¢Å¢Å¢Å¢Å¢Å¢Å¢Å¢Å¢Å¢Å¢Å¢Å¢Å¢Å¢Å¢Å¢Å¢Å¢Å¢Å¢Å¢Å¢Å¢Å¢Å¢Å¢Å¢Å¢Å¢Å¢Å¢Å¢Å¢Å¢Å¢Å¢Å¢Å¢Å¢Å¢Å¢Å¢Å¢Å¢Å¢Å¢Å¢Å¢Å¢Å¢Å¢Å¢Å¢Å¢Å¢Å¢Å¢Å¢Å¢Å¢Å¢Å¢Å¢Å¢Å¢Å¢Å¢Å¢Å¢Å¢Å¢Å¢Å¢Å¢Å¢Å¢Å¢Å¢Å¢Å¢Å¢Å¢Å¢Å¢Å¢Å¢Å¢Å¢Å¢Å¢Å¢Å¢Å¢Å¢Å¢Å¢Å¢Å¢Å¢Å¢Å¢Å¢Å¢Å¢Å¢Å¢Å¢Å¢Å¢Å¢Å¢Å¢Å¢Å¢Å¢Å¢Å¢Å¢Å¢Å¢Å¢Å¢Å¢Å¢Å¢Å¢Å¢Å¢Å¢Å¢Å¢Å¢Å¢Å¢Å¢Å¢Å¢Å¢Å¢Å¢Å¢Å¢Å¢Å¢Å¢Å¢Å¢Å¢Å¢Å¢Å¢Å¢Å¢Å¢Å¢Å¢Å¢Å¢Å¢Å¢Å¢Å¢Å¢Å¢Å¢Å¢Å¢Å¢Å¢Å¢Å¢Å¢Å¢Å¢Å¢Å¢Å¢Å¢Å¢Å¢Å¢Å¢Å¢Å¢Å¢Å¢Å¢Å¢Å¢Å¢Å¢Å¢Å¢Å¢Å¢Å¢Å¢Å¢Å¢Å¢Å¢Å¢Å¢Å¢Å¢Å¢Å¢Å¢Å¢Å¢Å¢Å¢Å¢Å¢Å¢Å¢Å¢Å¢Å¢Å¢Å¢Å¢Å¢Å¢Å¢Å¢Å¢Å¢Å¢Å¢Å¢Å¢Å¢Å¢Å¢Å¢Å¢Å¢Å¢Å¢Å¢Å¢Å¢Å¢Å¢Å¢Å¢Å¢Å¢Å¢Å¢Å¢Å¢Å¢Å¢Å¢Å¢Å¢Å¢Å¢Å¢Å¢Å¢Å¢Å¢Å¢Å¢Å¢Å¢Å¢Å¢Å¢Å¢Å¢Å¢Å¢Å¢Å¢Å¢Å¢Å¢Å¢Å¢Å¢Å¢Å¢Å¢Å¢Å¢Å¢Å¢Å¢Å¢Å¢Å¢Å¢Å¢Å¢Å¢Å¢Å¢Å¢Å¢Å¢Å¢Å¢Å¢Å¢Å¢Å¢Å¢Å¢Å¢Å¢Å¢Å¢Å¢Å¢Å¢Å¢Å¢Å¢Å¢Å¢Å¢Å¢Å¢Å¢Å¢Å¢Å¢Å¢Å¢Å¢Å¢Å¢Å¢Å¢Å¢Å¢Å¢Å¢Å¢Å¢Å¢Å¢Å¢Å¢Å¢Å¢Å¢Å¢Å¢Å¢Å¢Å¢Å¢Å¢Å¢Å¢Å¢Å¢Å¢Å¢Å¢Å¢Å¢Å¢Å¢Å¢Å¢Å¢Å¢Å¢Å¢Å¢Å¢Å¢Å¢Å¢Å¢Å¢Å¢Å¢Å¢Å¢Å¢Å¢Å¢Å¢Å¢Å¢Å¢Å¢Å¢Å¢Å¢Å¢Å¢Å¢Å¢Å¢Å¢Å¢Å¢Å¢Å¢Å¢Å¢Å¢Å¢Å¢Å¢Å¢Å¢Å¢Å¢Å¢Å¢Å¢Å¢Å¢Å¢Å¢Å¢Å¢Å¢Å¢Å¢Å¢Å¢Å¢Å¢Å¢Å¢Å¢Å¢Å¢Å¢Å¢Å¢Å¢Å¢Å¢Å¢Å¢Å¢Å¢Å¢Å¢Å¢Å¢Å¢Å¢Å¢Å¢Å¢Å¢Å¢Å¢Å¢Å¢Å¢Å¢Å¢Å¢Å¢Å¢Å¢Å¢Å¢Å¢Å¢Å¢Å¢Å¢Å¢Å¢Å¢Å¢Å¢Å¢Å¢Å¢Å¢Å¢Å¢Å¢Å¢Å¢Å¢Å¢Å¢Å¢Å¢Å¢Å¢Å¢Å¢Å¢Å¢Å¢Å¢Å¢Å¢Å¢Å¢Å¢Å¢Å¢Å¢Å¢Å¢Å¢Å¢Å¢Å¢Å¢Å¢Å¢Å¢Å¢Å¢Å¢Å¢Å¢Å¢Å¢Å¢Å¢Å¢Å¢Å¢Å¢Å¢Å¢Å¢Å¢Å¢Å¢Å¢Å¢Å¢Å¢Å¢Å¢Å¢Å¢Å¢Å¢Å¢Å¢Å¢Å¢Å¢Å¢Å¢Å¢Å¢Å¢Å¢Å¢Å¢Å¢Å¢Å¢Å¢Å¢Å¢Å¢Å¢Å¢Å¢Å¢Å¢Å¢Å¢Å¢Å¢Å¢Å¢": 1994,
      "Å¢Å¢Å¢Å¢Å¢Å¢Å¢Å¢Å¢Å¢Å¢Å¢Å¢Å¢Å¢Å¡Å£": 1995,
      "Å¢Å¢Å¢Å¢Å¢Å¢Å¢Å¢Å¢Å¢Å¢Å¢Å¢Å¢Å¢Å¢Å¢Å¢Å¢Å¢Å¢Å¢Å¢Å¢Å¢Å¢Å¢Å£Å¢Å¢Å£": 1996,
      "Å¢Å¢Å¢Å¢Å¢Å¢Å¢Å¢Å¢Å¢Å¢Å¢Å¢Å¢Å¢Å¢Å¢Å¢Å¢Å¢Å¢Å¢Å¢Å¢Å¢Å¢Å¢Å¢Å¢Å¢Å¢Å¢Å¢Å¢Å¢Å¢Å¢Å¢Å¢Å¢Å¢Å¢Å¢Å¢Å¢Å¢Å¢Å¢Å¢Å¢Å¢Å¢Å¢Å¢Å¢Å¢Å¢Å¢Å¢Å¢Å¢Å¢Å¢Å¢Å¢Å¢Å¢Å¢Å¢Å¢Å¢Å¢Å¢Å¢Å¢Å¢Å¢Å¢Å¢Å¢Å¢Å¢Å¢Å¢Å¢Å¢Å¢Å¢Å¢Å¢Å¢Å¢Å¢Å¢Å¢Å¢Å¢Å¢Å¢Å¢Å¢Å¢Å¢Å¢Å¢Å¢Å¢Å¢Å¢Å¢Å¢Å¢Å¢Å¢Å¢Å¢Å¢Å¢Å¢Å¢Å¢Å¢Å¢Å¢Å¢Å¢Å¢Å¢Å¢Å¢Å¢Å¢Å¢Å¢Å¢Å¢Å¢Å¢Å¢Å¢Å¢Å¢Å¢Å¢Å¢Å¢Å¢Å¢Å¢Å¢Å¢Å¢Å¢Å¢Å¢Å¢Å¢Å¢Å¢Å¢Å¢Å¢Å¢Å¢Å¢Å¢Å¢Å¢Å¢Å¢Å¢Å¢Å¢Å¢Å¢Å¢Å¢Å¢Å¢Å¢Å¢Å¢Å¢Å¢Å¢Å¢Å¢Å¢Å¢Å¢Å¢Å¢Å¢Å¢Å¢Å¢Å¢Å¢Å¢Å¢Å¢Å¢Å¢Å¢Å¢Å¢Å¢Å¢Å¢Å¢Å¢Å¢Å¢Å¢Å¢Å¢Å¢Å¢Å¢Å¢Å¢Å¢Å¢Å¢Å¢Å¢Å¢Å¢Å¢Å¢Å¢Å¢Å¢Å¢Å¢Å¢Å¢Å¢Å¢Å¢Å¢Å¢Å¢Å¢Å¢Å¢Å¢Å¢Å¢Å¢Å¢Å¢Å¢Å¢Å¢Å¢Å¢Å¢Å¢Å¢Å¢Å¢Å¢Å¢Å¢Å¢Å¢Å¢Å¢Å¢Å¢Å¢Å¢Å¢Å¢Å¢Å¢Å¢Å¢Å¢Å¢Å¢Å¢Å¢Å¢Å¢Å¢Å¢Å¢Å¢Å¢Å¢Å¢Å¢Å¢Å¢Å¢Å¢Å¢Å¢Å¢Å¢Å¢Å¢Å¢Å¢Å¢Å¢Å¢Å¢Å¢Å¢Å¢Å¢Å¢Å¢Å¢Å¢Å¢Å¢Å¢Å¢Å¢Å¢Å¢Å¢Å¢Å¢Å¢Å¢Å¢Å¢Å¢Å¢Å¢Å¢Å¢Å¢Å¢Å¢Å¢Å¢Å¢Å¢Å¢Å¢Å¢Å¢Å¢Å¢Å¢Å¢Å¢Å¢Å¢Å¢Å¢Å¢Å¢Å¢Å¢Å¢Å¢Å¢Å¢Å¢Å¢Å¢Å¢Å¢Å¢Å¢Å¢Å¢Å¢Å¢Å¢Å¢Å¢Å¢Å¢Å¢Å¢Å¢Å¢Å¢Å¢Å¢Å¢Å¢Å¢Å¢Å¢Å¢Å¢Å¢Å¢Å¢Å¢Å¢Å¢Å¢Å¢Å¢Å¢Å¢Å¢Å¢Å¢Å¢Å¢Å¢Å¢Å¢Å¢Å¢Å¢Å¢Å¢Å¢Å¢Å¢Å¢Å¢Å¢Å¢Å¢Å¢Å¢Å¢Å¢Å¢Å¢Å¢Å¢Å¢Å¢Å¢Å¢Å¢Å¢Å¢Å¢Å¢Å¢Å¢Å¢Å¢Å¢Å¢Å¢Å¢Å¢Å¢Å¢Å¢Å¢Å¢Å¢Å¢Å¢Å¢Å¢Å¢Å¢Å¢Å¢Å¢Å¢Å¢Å¢Å¢Å¢Å¢Å¢Å¢Å¢Å¢Å¢Å¢Å¢Å¢Å¢Å¢Å¢Å¢Å¢Å¢Å¢Å¢Å¢Å¢Å¢Å¢Å¢Å¢Å¢Å¢Å¢Å¢Å¢Å¢Å¢Å¢Å¢Å¢Å¢Å¢Å¢Å¢Å¢Å¢Å¢Å¢Å¢Å¢Å¢Å¢Å¢Å¢Å¢Å¢Å¢Å¢Å¢Å¢Å¢Å¢Å¢Å¢Å¢Å¢Å¢Å¢Å¢Å¢Å¢Å¢Å¢Å¢Å¢Å¢Å¢Å¢Å¢Å¢Å¢Å¢Å¢Å¢Å¢Å¢Å¢Å¢Å¢Å¢Å¢Å¢Å¢Å¢Å¢Å¢Å¢Å¢Å¢Å¢Å¢Å¢Å¢Å¢Å¢Å¢Å¢Å¢Å¢Å¢Å¢Å¢Å¢Å¢Å¢Å¢Å¢Å¢Å¢Å¢Å¢Å¢Å¢Å¢Å¢Å¢Å¢Å¢Å¢Å¢Å¢Å¢Å¢Å¢Å¢Å¢Å¢Å¢Å¢Å¢Å¢Å¢Å¢Å¢Å¢Å¢Å¢Å¢Å¢Å¢Å¢Å¢Å¢Å¢Å¢Å¢Å¢Å¢Å¢Å¢Å¢Å¢Å¢Å¢Å¢Å¢Å¢Å¢Å¢Å¢Å¢Å¢Å¢Å¢Å¢Å¢Å¢Å¢Å¢Å¢Å¢Å¢Å¢Å¢Å¢Å¢Å¢Å¢Å¢Å¢Å¢Å¢Å¢Å¢Å¢Å¢Å¢Å¢Å¢Å¢Å¢Å¢Å¢Å¢Å¢Å¢Å¢Å¢Å¢Å¢Å¢Å¢Å¢Å¢Å¢Å¢Å¢Å¢Å¢Å¢Å¢Å¢Å¢Å¢Å¢Å¢Å¢Å¢Å¢Å¢Å¢Å¢Å¢Å¢Å¢Å¢Å¢Å¢Å¢Å¢Å¢Å¢Å¢Å¢Å¢Å¢Å¢Å¢Å¢Å¢Å¢Å¢Å¢Å¢Å¢Å¢Å¢Å¢Å¢Å¢Å¢Å¢Å¢Å¢Å¢Å¢Å¢Å¢Å¢Å¢Å¢Å¢Å¢Å¢Å¢Å¢Å¢Å¢Å¢Å¢Å¢Å¢Å¢Å¢Å¢Å¢Å¢Å¢Å¢Å¢Å¢Å¢Å¢Å¢Å¢Å¢Å¢Å¢Å¢Å¢Å¢Å¢Å¢Å¢Å¢Å¢Å¢Å¢Å¢Å¢Å¢Å¢Å¢Å¢Å¢Å¢Å¢Å¢Å¢Å¢Å¢Å¢Å¢Å¢Å¢Å¢Å¢Å¢Å¢Å¢Å¢Å¢Å¢Å¢Å¢Å¢Å¢Å¢Å¢Å¢Å¢Å¢Å¢Å¢Å¢Å¢Å¢Å¢Å¢Å¢Å¢Å¢Å¢Å¢Å¢Å¢Å¢Å¢Å¢Å¢Å¢Å¢Å¢Å¢Å¢Å¢Å¢Å¢Å¢Å¢Å¢Å¢Å¢Å¢Å¢Å¢Å¢Å¢Å¢Å¢Å¢Å¢Å¢Å¢Å¢Å¢Å¢Å¢Å¢Å¢Å¢Å¢Å¢Å¢Å¢Å¢Å¢Å¢Å¢Å¢Å¢Å¢Å¢Å¢Å¢Å¢Å¢Å¢Å¢Å¢Å¢Å¢Å¢Å¢Å¢Å¢Å¢Å¢Å¢Å¢Å¢Å¢Å¢Å¢Å¢Å¢Å¢Å¢Å¢Å¢Å¢Å¢Å¢Å¢Å¢Å¢Å¢Å¢Å¢Å¢Å¢Å¢Å¢Å¢Å¢Å¢Å¢Å¢Å¢Å¢Å¢Å¢Å¢Å¢Å¢Å¢Å¢Å¢Å¢Å¢Å¢Å¢Å¢Å¢Å¢Å¢Å¢Å¢Å¢Å¢Å¢Å¢Å¢Å¢Å¢Å¢Å¢Å¢Å¢Å¢Å¢Å¢Å¢Å¢Å¢Å¢Å¢Å¢Å¢Å¢Å¢Å¢Å¢Å¢Å¢Å¢Å¢Å¢Å¢Å¢Å¢Å¢Å¢Å¢Å¢Å¢Å¢Å¢Å¢Å¢Å¢Å¢Å¢Å¢Å¢Å¢Å¢Å¢Å¢Å¢Å¢Å¢Å¢Å¢Å¢Å¢Å¢Å¢Å¢Å¢Å¢Å¢Å¢Å¢Å¢Å¢Å¢Å¢Å¢Å¢Å¢Å¢Å¢Å¢Å¢Å¢Å¢Å¢Å¢Å¢Å¢Å¢Å¢Å¢Å¢Å¢Å¢Å¢Å¢Å¢Å¢Å¢Å¢Å¢Å¢Å¢Å¢Å¢Å¢Å¢Å¢Å¢Å¢Å¢Å¢Å¢Å¢Å¢Å¢Å¢Å¢Å¢Å¢Å¢Å¢Å¢Å¢Å¢Å¢Å¢Å¢Å¢Å¢Å¢Å¢Å¢Å¢Å¢Å¢Å¢Å¢Å¢Å¢Å¢Å¢Å¢Å¢Å¢Å¢Å¢Å¢Å¢Å¢Å¢Å¢Å¢Å¢Å¢Å¢Å¢Å¢Å¢Å¢Å¢Å¢Å¢Å¢Å¢Å¢Å¢Å¢Å¢Å¢Å¢Å¢Å¢Å¢Å¢Å¢Å¢Å¢Å¢Å¢Å¢Å¢Å¢Å¢Å¢Å¢Å¢Å¢Å¢Å¢Å¢Å¢Å¢Å¢Å¢Å¢Å¢Å¢Å¢Å¢Å¢Å¢Å¢Å¢Å¢Å¢Å¢Å¢Å¢Å¢Å¢Å¢Å¢Å¢Å¢Å¢Å¢Å¢Å¢Å¢Å¢Å¢Å¢Å¢Å¢Å¢Å¢Å¢Å¢Å¢Å¢Å¢Å¢Å¢Å¢Å¢Å¢Å¢Å¢Å¢Å¢Å¢Å¢Å¢Å¢Å¢Å¢Å¢Å¢Å¢Å¢Å¢Å¢Å¢Å¢Å¢Å¢Å¢Å¢Å¢Å¢Å¢Å¢Å¢Å¢Å¢Å¢Å¢Å¢Å¢Å¢Å¢Å¢Å¢Å¢Å¢Å¢Å¢Å¢Å¢Å¢Å¢Å¢Å¢Å¢Å¢Å¢Å¢Å¢Å¢Å¢Å¢Å¢Å¢Å¢Å¢Å¢Å¢Å¢Å¢Å¢Å¢Å¢Å¢Å¢Å¢Å¢Å¢Å¢Å¢Å¢Å¢Å¢Å¢Å¢Å¢Å¢Å¢Å¢Å¢Å¢Å¢Å¢Å¢Å¢Å¢Å¢Å¢Å¢Å¢Å¢Å¢Å¢Å¢Å¢Å¢Å¢Å¢Å¢Å¢Å¢Å¢Å¢Å¢Å¢Å¢Å¢Å¢Å¢Å¢Å¢Å¢Å¢Å¢Å¢Å¢Å¢Å¢Å¢Å¢Å¢Å¢Å¢Å¢Å¢Å¢Å¢Å¢Å¢Å¢Å¢Å¢Å¢Å¢Å¢Å¢Å¢Å¢Å¢Å¢Å¢Å¢Å¢Å¢Å¢Å¢Å¢Å¢Å¢Å¢Å¢Å¢Å¢Å¢Å¢Å¢Å¢Å¢Å¢Å¢Å¢Å¢Å¢Å¢Å¢Å¢Å¢Å¢Å¢Å¢Å¢Å¢Å¢Å¢Å¢Å¢Å¢Å¢Å¢Å¢Å¢Å¢Å¢Å¢Å¢Å¢Å¢Å¢Å¢Å¢Å¢Å¢Å¢Å¢Å¢Å¢Å¢Å¢Å¢Å¢Å¢Å¢Å¢Å¢Å¢Å¢Å¢Å¢Å¢Å¢Å¢Å¢Å¢Å¢Å¢Å¢Å¢Å¢Å¢Å¢Å¢Å¢Å¢Å¢Å¢Å¢Å¢Å¢Å¢Å¢Å¢Å¢Å¢Å¢Å¢Å¢Å¢Å¢Å¢Å¢Å¢Å¢Å¢Å¢Å¢Å¢Å¢Å¢Å¢Å¢Å¢Å¢Å¢Å¢Å¢Å¢Å¢Å¢Å¢Å¢Å¢Å¢Å¢Å¢Å¢Å¢Å¢Å¢Å¢Å¢Å¢Å¢Å¢Å¢Å¢Å¢Å¢Å¢Å¢Å¢Å¢Å¢Å¢Å¢Å¢Å¢Å¢Å¢Å¢Å¢Å¢Å¢Å¢Å¢Å¢Å¢Å¢Å¢Å¢Å¢Å¢Å¢Å¢Å¢Å¢Å¢Å¢Å¢Å¢Å¢Å¢Å¢Å¢Å¢Å¢Å¢Å¢Å¢Å¢Å¢Å¢Å¢Å¢Å¢Å¢Å¢Å¢Å¢Å¢Å¢Å¢Å¢Å¢Å¢Å¢Å¢Å¢Å¢Å¢Å¢Å¢Å¢Å¢Å¢Å¢Å¢Å¢Å¢Å¢Å¢Å¢Å¢Å¢Å¢Å¢Å¢Å¢Å¢Å¢Å¢Å¢Å¢Å¢Å¢Å¢Å¢Å¢Å¢Å¢Å¢Å¢Å¢Å¢Å¢Å¢Å¢Å¢Å¢Å¢Å¢Å¢Å¢Å¢Å¢Å¢Å¢Å¢Å¢Å¢Å¢Å¢Å¢Å¢Å¢Å¢Å¢Å¢Å¢Å¢Å¢Å¢Å¢Å¢Å¢Å¢Å¢Å¢Å¢Å¢Å¢Å¢": 1997,
      "Å¢Å¢Å¢Å¢Å¢Å¢Å¢Å¢Å¢Å¢Å¢Å¢Å¢Å¢Å¢Å¢Å¢Å¢Å¢Å¢Å¢Å¢Å¢Å¢Å¢Å¢Å¡Å¢Å¢Å¢Å¡": 1998,
      "Å¢Å¢Å¢Å¢Å¢Å¢Å¢Å¢Å¢Å¢Å¢Å¢Å¢Å¢Å¢Å¢Å¢Å¢Å¢Å¢Å¢Å¢Å¢Å£Å£Å£": 1999,
      "Å¢Å¢Å¢Å¢Å¢Å¢Å¢Å¢Å¢Å¢Å¢Å¢Å¢Å¢Å¢Å¢Å¢Å¢Å¢Å¢Å¢Å¢Å¢Å¢Å¢Å¢Å¢Å¢Å¢Å¢Å£Å¡Å¢Å¢Å¢Å¢Å¢Å¢Å¢Å¢Å¢Å¢Å¢Å¢Å¢Å¢Å¢Å¢Å¢Å¢Å¢Å¢Å¢Å¢Å¢Å¢Å¢Å¢Å¢Å¢Å¢Å¢Å£Å¡": 2000,
      "Å¡Å§": 2001,
      "Å¢Å¢ÅĻ": 2002,
      "Å¢Å¢Å¢Å¢Å¢Å¢Å¢Å¢Å¢Å¢Å¢Å¢Å¢Å¢Å¢Å¢Å¢Å¢Å¢Å¢Å¢Å¢Å¢Å¢Å¢Å¢Å¢Å¢Å¡Å£Å¢Å£": 2003,
      "Å¢Å¢Å¢Å¢Å¢Å¢Å¢Å¢Å¢Å¢Å¢Å¢Å¢Å¢Å¢Å¢Å¢Å¢Å¢Å¢Å¢Å¢Å¢Å¢Å¢Å¢Å¢Å¢Å¢Å¢Å¢Å¢Å¢Å¢Å¢Å¢Å¢Å¢Å¢Å¢Å¢Å¢Å¢Å¢Å¢Å¢Å¢Å¢Å¢Å¢Å¢Å¢Å¢Å¢Å¢Å¢Å¢Å¢Å¢Å¢Å¢Å£Å¢Å¡": 2004,
      "Å¢Å¢Å¢Å¢Å¢Å¢Å¢Å¢Å¢Å¢Å¢Å¢Å¢Å¢Å¢Å¢Å¢Å¢Å¢Å¢Å¢Å¢Å¢Å¢Å¢Å¢Å¢Å¢Å¢Å¢Å¢Å¢Å¢Å¢Å¢Å¢Å¢Å¢Å¢Å¢Å¢Å¢Å¢Å¢Å¢Å¢Å¢Å¢Å¢Å¢Å¢Å¢Å¢Å¢Å¢Å¢Å¢Å¢Å¢Å¢Å¢Å¢Å¡Å¡": 2005,
      "Å¨Å«": 2006,
      "Å¢Å¢Å¢Å¢Å¢Å¢Å¢Å¢Å¢Å¢Å¢Å¢Å¢Å¢Å¢Å¢Å¤": 2007,
      "Å¡Å£Å£Å¢Å¡": 2008,
      "Å¢Å¢Å¢Å¤Åł": 2009,
      "Å¢Å¢Å¢Å¢Å¢Å¢Å¢Å¢Å¡Å£": 2010,
      "Å¢Å¢Å¡Å¢Åł": 2011,
      "Ãı": 2012,
      "Å¢Å¢Å£Å¢Å¤": 2013,
      "Å¢Å¢Å¢Å¢Å¢Å¢Å¢Å¢Å¢Å¢Å¢Å¢Å¢Å¢Å¢Å¢Å¢Å¢Å¢Å¢Å¢Å¢Å¢Å¢Å¢Å¢Å¢Å¢Å¢Å£Å¢Å¢Å¢Å¢Å¢Å¢Å¢Å¢Å¢Å¢Å¢Å¢Å¢Å¢Å¢Å¢Å¢Å¢Å¢Å¢Å¢Å¢Å¢Å¢Å¢Å¢Å¢Å¢Å¢Å¢Å¢Å¢Å¢Å¡": 2014,
      "Ç»": 2015,
      "ÅŁÅļ": 2016,
      "ÅĸÅŀ": 2017,
      "Å¢Å¢Å¢Å¢Å¢Å¢Å¢Å¢Å¢Å¢Å¢Å¢Å¢Å¢Å¢Å¢Å¢Å¢Å¢Å¢Å¢Å¢Å¢Å¢Å¢Å¢Å¢Å¢Å¢Å¡Å¢Å¢Å¢Å¢Å¢Å¢Å¢Å¢Å¢Å¢Å¢Å¢Å¢Å¢Å¢Å¢Å¢Å¢Å¢Å¢Å¢Å¢Å¢Å¢Å¢Å¢Å¢Å¢Å¢Å¢Å¢Å¢Å¢Å£": 2018,
      "Å¢Å¢Å«": 2019,
      "Å¢Å¢Å¢Å¢Å¢Å¢Å¢Å¢Å¢Å¢Å¢Å¢Å¢Å¢Å¢Å¢Å¢Å¢Å¢Å¢Å¢Å¢Å¢Å¢Å¡Å¢Å¢Å¢Å¢Å¡": 2020,
      "Å¦ÅĻ": 2021,
      "Å¢Å¢Å¢Å¢Å¢Å¢Å¥": 2022,
      "Å¢Å¡Å¢Å¡Å¢Å£": 2023,
      "Å¢Å¢Å¢Å¢Å¢Å¢Å¢Å¢Å¢Å¢Å¢Å¢Å¢Å¢Å¢Å¢Å¢Å¢Å¢Å¢Å¢Å¢Å¢Å¢Å¢Å¢Å¢Å¢Å¢Å¢Å¢Å¡Å¢Å¢Å¢Å¢Å¢Å¢Å¢Å¢Å¢Å¢Å¢Å¢Å¢Å¢Å¢Å¢Å¢Å¢Å¢Å¢Å¢Å¢Å¢Å¢Å¢Å¢Å¢Å¢Å¢Å¢Å¢Å£Å¢Å¢Å¢Å¢Å¢Å¢Å¢Å¢Å¢Å¢Å¢Å¢Å¢Å¢Å¢Å¢Å¢Å¢Å¢Å¢Å¢Å¢Å¢Å¢Å¢Å¢Å¢Å¢Å¢Å¢Å¢Å£": 2024,
      "Å¢Å¢Å¢Å¢Å¢Å¢Å¢Å¢Å¢Å¢Å¢Å¢Å¢Å¢Å¢Å¢Å¢Å¢Å¢Å¢Å¢Å¢Å¢Å£Å¢Å¢Å¢Å¢Å¢Å¢Å¢Å£": 2025,
      "Å¢Å¢Å¢Å¢Å¢Å¢Å¢Å¢Å¢Å¢Å¢Å¢Å¢Å¢Å¢Å¢Å¢Å¢Å¢Å¢Å¢Å¢Å¢Å¢Å¢Å¢Å¢Å¢Å£Å¡Å¢Å£": 2026,
      "Å¢Å¢Å¢Å¢Å¢Å¢Å¢Å¢Å¢Å¢Å¢Å¢Å¢Å¢Å¢Å¢Å¢Å¢Å¨": 2027,
      "Å¢Å¢Å¢Å¢Å¢Å¢Å¢Å¢Å¢Å¢Å¢Å¢Å¢Å¢Å¢Å¢Å¢Å¢Åľ": 2028,
      "Å¢Å¢Å¢Å¢Å¢Å¢Å¢Å¢Å¢Å¢Å¢Å¢Å¢Å¢Å¢Å¢Å¢Å¢Å¢Å¢Å¢Å¢Å¤Å£": 2029,
      "ÅĹÅ©": 2030,
      "Å¢Å¢Å¢Å¢Å¢Å¢Å¢Å¢Å¢Å¢Å¢Å¢Å¢Å¢Å¢Å¢Å¢Å¢Å¢Å¢Å¢Å¢Å¢Å¢Å¢Å¢Å¢Å¢Å¢Å¢Å¢Å¢Å¢Å¢Å¢Å¢Å¢Å¢Å¢Å¢Å¢Å¢Å¢Å¢Å¢Å¢Å¢Å¢Å¢Å¢Å¢Å¢Å¢Å¢Å¢Å¢Å¢Å¢Å¢Å¢Å¢Å¢Å¢Å¢Å¢Å¢Å¢Å¢Å¢Å¢Å¢Å¢Å¢Å¢Å¢Å¢Å¢Å¢Å¢Å¢Å¢Å¢Å¢Å¢Å¢Å¢Å¢Å¢Å¢Å¢Å¢Å¢Å¢Å¢Å¢Å¢Å¢Å¢Å¢Å¢Å¢Å¢Å¢Å¢Å¢Å¢Å¢Å¢Å¢Å¢Å¢Å¢Å¢Å¢Å¢Å¢Å¢Å¢Å¢Å¢Å¢Å¢Å¢Å¢Å¢Å¢Å¢Å¢Å¢Å¢Å¢Å¢Å¢Å¢Å¢Å¢Å¢Å¢Å¢Å¢Å¢Å¢Å¢Å¢Å¢Å¢Å¢Å¢Å¢Å¢Å¢Å¢Å¢Å¢Å¢Å¢Å¢Å¢Å¢Å¢Å¢Å¢Å¢Å¢Å¢Å¢Å¢Å¢Å¢Å¢Å¢Å¢Å¢Å¢Å¢Å¢Å¢Å¢Å¢Å¢Å¢Å¢Å¢Å¢Å¢Å¢Å¢Å¢Å¢Å¢Å¢Å¢Å¢Å¢Å¢Å¢Å¢Å¢Å¢Å¢Å¢Å¢Å¢Å¢Å¢Å¢Å¢Å¢Å¢Å¢Å¢Å¢Å¢Å¢Å¢Å¢Å¢Å¢Å¢Å¢Å¢Å¢Å¢Å¢Å¢Å¢Å¢Å¢Å¢Å¢Å¢Å¢Å¢Å¢Å¢Å¢Å¢Å¢Å¢Å¢Å¢Å¢Å¢Å¢Å¢Å¢Å¢Å¢Å¢Å¢Å¢Å¢Å¢Å¢Å¢Å¢Å¢Å¢Å¢Å¢Å¢Å¢Å¢Å¢Å¢Å¢Å¢Å¢Å¢Å¢Å¢Å¢Å¢Å¢Å¢Å¢Å¢Å¢Å¢Å¢Å¢Å¢Å¢Å¢Å¢Å¢Å¢Å¢Å¢Å¢Å¢Å¢Å¢Å¢Å¢Å¢Å¢Å¢Å¢Å¢Å¢Å¢Å¢Å¢Å¢Å¢Å¢Å¢Å¢Å¢Å¢Å¢Å¢Å¢Å¢Å¢Å¢Å¢Å¢Å¢Å¢Å¢Å¢Å¢Å¢Å¢Å¢Å¢Å¢Å¢Å¢Å¢Å¢Å¢Å¢Å¢Å¢Å¢Å¢Å¢Å¢Å¢Å¢Å¢Å¢Å¢Å¢Å¢Å¢Å¢Å¢Å¢Å¢Å¢Å¢Å¢Å¢Å¢Å¢Å¢Å¢Å¢Å¢Å¢Å¢Å¢Å¢Å¢Å¢Å¢Å¢Å¢Å¢Å¢Å¢Å¢Å¢Å¢Å¢Å¢Å¢Å¢Å¢Å¢Å¢Å¢Å¢Å¢Å¢Å¢Å¢Å¢Å¢Å¢Å¢Å¢Å¢Å¢Å¢Å¢Å¢Å¢Å¢Å¢Å¢Å¢Å¢Å¢Å¢Å¢Å¢Å¢Å¢Å¢Å¢Å¢Å¢Å¢Å¢Å¢Å¢Å¢Å¢Å¢Å¢Å¢Å¢Å¢Å¢Å¢Å¢Å¢Å¢Å¢Å¢Å¢Å¢Å¢Å¢Å¢Å¢Å¢Å¢Å¢Å¢Å¢Å¢Å¢Å¢Å¢Å¢Å¢Å¢Å¢Å¢Å¢Å¢Å¢Å¢Å¢Å¢Å¢Å¢Å¢Å¢Å¢Å¢Å¢Å¢Å¢Å¢Å¢Å¢Å¢Å¢Å¢Å¢Å¢Å¢Å¢Å¢Å¢Å¢Å¢Å¢Å¢Å¢Å¢Å¢Å¢Å¢Å¢Å¢Å¢Å¢Å¢Å¢Å¢Å¢Å¢Å¢Å¢Å¢Å¢Å¢Å¢Å¢Å¢Å¢Å¢Å¢Å¢Å¢Å¢Å¢Å¢Å¢Å¢Å¢Å¢Å¢Å¢Å¢Å¢Å¢Å¢Å¢Å¢Å¢Å¢Å¢Å¢Å¢Å¢Å¢Å¢Å¢Å¢Å¢Å¢Å¢Å¢Å¢Å¢Å¢Å¢Å¢Å¢Å¢Å¢Å¢Å¢Å¢Å¢Å¢Å¢Å¢Å¢Å¢Å¢Å¢Å¢Å¢Å¢Å¢Å¢Å¢Å¢Å¢Å¢Å¢Å¢Å¢Å¢Å¢Å¢Å¢Å¢Å¢Å¢Å¢Å¢Å¢Å¢Å¢Å¢Å¢Å¢Å¢Å¢Å¢Å¢Å¢Å¢Å¢Å¢Å¢Å¢Å¢Å¢Å¢Å¢Å¢Å¢Å¢Å¢Å¢Å¢Å¢Å¢Å¢Å¢Å¢Å¢Å¢Å¢Å¢Å¢Å¢Å¢Å¢Å¢Å¢Å¢Å¢Å¢Å¢Å¢Å¢Å¢Å¢Å¢Å¢Å¢Å¢Å¢Å¢Å¢Å¢Å¢Å¢Å¢Å¢Å¢Å¢Å¢Å¢Å¢Å¢Å¢Å¢Å¢Å¢Å¢Å¢Å¢Å¢Å¢Å¢Å¢Å¢Å¢Å¢Å¢Å¢Å¢Å¢Å¢Å¢Å¢Å¢Å¢Å¢Å¢Å¢Å¢Å¢Å¢Å¢Å¢Å¢Å¢Å¢Å¢Å¢Å¢Å¢Å¢Å¢Å¢Å¢Å¢Å¢Å¢Å¢Å¢Å¢Å¢Å¢Å¢Å¢Å¢Å¢Å¢Å¢Å¢Å¢Å¢Å¢Å¢Å¢Å¢Å¢Å¢Å¢Å¢Å¢Å¢Å¢Å¢Å¢Å¢Å¢Å¢Å¢Å¢Å¢Å¢Å¢Å¢Å¢Å¢Å¢Å¢Å¢Å¢Å¢Å¢Å¢Å¢Å¢Å¢Å¢Å¢Å¢Å¢Å¢Å¢Å¢Å¢Å¢Å¢Å¢Å¢Å¢Å¢Å¢Å¢Å¢Å¢Å¢Å¢Å¢Å¢Å¢Å¢Å¢Å¢Å¢Å¢Å¢Å¢Å¢Å¢Å¢Å¢Å¢Å¢Å¢Å¢Å¢Å¢Å¢Å¢Å¢Å¢Å¢Å¢Å¢Å¢Å¢Å¢Å¢Å¢Å¢Å¢Å¢Å¢Å¢Å¢Å¢Å¢Å¢Å¢Å¢Å¢Å¢Å¢Å¢Å¢Å¢Å¢Å¢Å¢Å¢Å¢Å¢Å¢Å¢Å¢Å¢Å¢Å¢Å¢Å¢Å¢Å¢Å¢Å¢Å¢Å¢Å¢Å¢Å¢Å¢Å¢Å¢Å¢Å¢Å¢Å¢Å¢Å¢Å¢Å¢Å¢Å¢Å¢Å¢Å¢Å¢Å¢Å¢Å¢Å¢Å¢Å¢Å¢Å¢Å¢Å¢Å¢Å¢Å¢Å¢Å¢Å¢Å¢Å¢Å¢Å¢Å¢Å¢Å¢Å¢Å¢Å¢Å¢Å¢Å¢Å¢Å¢Å¢Å¢Å¢Å¢Å¢Å¢Å¢Å¢Å¢Å¢Å¢Å¢Å¢Å¢Å¢Å¢Å¢Å¢Å¢Å¢Å¢Å¢Å¢Å¢Å¢Å¢Å¢Å¢Å¢Å¢Å¢Å¢Å¢Å¢Å¢Å¢Å¢Å¢Å¢Å¢Å¢Å¢Å¢Å¢Å¢Å¢Å¢Å¢Å¢Å¢Å¢Å¢Å¢Å¢Å¢Å¢Å¢Å¢Å¢Å¢Å¢Å¢Å¢Å¢Å¢Å¢Å¢Å¢Å¢Å¢Å¢Å¢Å¢Å¢Å¢Å¢Å¢Å¢Å¢Å¢Å¢Å¢Å¢Å¢Å¢Å¢Å¢Å¢Å¢Å¢Å¢Å¢Å¢Å¢Å¢Å¢Å¢Å¢Å¢Å¢Å¢Å¢Å¢Å¢Å¢Å¢Å¢Å¢Å¢Å¢Å¢Å¢Å¢Å¢Å¢Å¢Å¢Å¢Å¢Å¢Å¢Å¢Å¢Å¢Å¢Å¢Å¢Å¢Å¢Å¢Å¢Å¢Å¢Å¢Å¢Å¢Å¢Å¢Å¢Å¢Å¢Å¢Å¢Å¢Å¢Å¢Å¢Å¢Å¢Å¢Å¢Å¢Å¢Å¢Å¢Å¢Å¢Å¢Å¢Å¢Å¢Å¢Å¢Å¢Å¢Å¢Å¢Å¢Å¢Å¢Å¢Å¢Å¢Å¢Å¢Å¢Å¢Å¢Å¢Å¢Å¢Å¢Å¢Å¢Å¢Å¢Å¢Å¢Å¢Å¢Å¢Å¢Å¢Å¢Å¢Å¢Å¢Å¢Å¢Å¢Å¢Å¢Å¢Å¢Å¢Å¢Å¢Å¢Å¢Å¢Å¢Å¢Å¢Å¢Å¢Å¢Å¢Å¢Å¢Å¢Å¢Å¢Å¢Å¢Å¢Å¢Å¢Å¢Å¢Å¢Å¢Å¢Å¢Å¢Å¢Å¢Å¢Å¢Å¢Å¢Å¢Å¢Å¢Å¢Å¢Å¢Å¢Å¢Å¢Å¢Å¢Å¢Å¢Å¢Å¢Å¢Å¢Å¢Å¢Å¢Å¢Å¢Å¢Å¢Å¢Å¢Å¢Å¢Å¢Å¢Å¢Å¢Å¢Å¢Å¢Å¢Å¢Å¢Å¢Å¢Å¢Å¢Å¢Å¢Å¢Å¢Å¢Å¢Å¢Å¢Å¢Å¢Å¢Å¢Å¢Å¢Å¢Å¢Å¢Å¢Å¢Å¢Å¢Å¢Å¢Å¢Å¢Å¢Å¢Å¢Å¢Å¢Å¢Å¢Å¢Å¢Å¢Å¢Å¢Å¢Å¢Å¢Å¢Å¢Å¢Å¢Å¢Å¢Å¢Å¢Å¢Å¢Å¢Å¢Å¢Å¢Å¢Å¢Å¢Å¢Å¢Å¢Å¢Å¢Å¢Å¢Å¢Å¢Å¢Å¢Å¢Å¢Å¢Å¢Å¢Å¢Å¢Å¢Å¢Å¢Å¢Å¢Å¢Å¢Å¢Å¢Å¢Å¢Å¢Å¢Å¢Å¢Å¢Å¢Å¢Å¢Å¢Å¢Å¢Å¢Å¢Å¢Å¢Å¢Å¢Å¢Å¢Å¢Å¢Å¢Å¢Å¢": 2031,
      "Å¡Å£Å¡Å¢Å£": 2032,
      "Å¢Å¢Å¢Å¢Å¢Å¢Å¢Å¢Å¢Å¢Å¢Å¢Å¢Å¢Å¢Å¢Å¢Å¢Å¢Å¢Å¢Å¢Å¢Å¢Å¢Å¢Å¢Å¢Å¢Å¢Å¢Å¢Å¢Å¢Å¢Å¢Å¢Å¢Å¢Å¢Å¢Å¢Å¢Å¢Å¢Å¢Å¢Å¢Å¢Å¢Å¢Å¢Å¢Å¢Å¢Å¢Å¢Å¢Å¢Å¢Å¢Å¢Å¢Å¢Å¢Å¢Å¢Å¢Å¢Å¢Å¢Å¢Å¢Å¢Å¢Å¢Å¢Å¢Å¢Å¢Å¢Å¢Å¢Å¢Å¢Å¢Å¢Å¢Å¢Å¢Å¢Å¢Å¢Å¢Å¢Å¢Å¢Å¢Å¢Å¢Å¢Å¢Å¢Å¢Å¢Å¢Å¢Å¢Å¢Å¢Å¢Å¢Å¢Å¢Å¢Å¢Å¢Å¢Å¢Å¢Å¢Å¢Å¢Å¢Å¢Å¢Å¢Å¢Å¢Å¢Å¢Å¢Å¢Å¢Å¢Å¢Å¢Å¢Å¢Å¢Å¢Å¢Å¢Å¢Å¢Å¢Å¢Å¢Å¢Å¢Å¢Å¢Å¢Å¢Å¢Å¢Å¢Å¢Å¢Å¢Å¢Å¢Å¢Å¢Å¢Å¢Å¢Å¢Å¢Å¢Å¢Å¢Å¢Å¢Å¢Å¢Å¢Å¢Å¢Å¢Å¢Å¢Å¢Å¢Å¢Å¢Å¢Å¢Å¢Å¢Å¢Å¢Å¢Å¢Å¢Å¢Å¢Å¢Å¢Å¢Å¢Å¢Å¢Å¢Å¢Å¢Å¢Å¢Å¢Å¢Å¢Å¢Å¢Å¢Å¢Å¢Å¢Å¢Å¢Å¢Å¢Å¢Å¢Å¢Å¢Å¢Å¢Å¢Å¢Å¢Å¢Å¢Å¢Å¢Å¢Å¢Å¢Å¢Å¢Å¢Å¢Å¢Å¢Å¢Å¢Å¢Å¢Å¢Å¢Å¢Å¢Å¢Å¢Å¢Å¢Å¢Å¢Å¢Å¢Å¢Å¢Å¢Å¢Å¢Å¢Å¢Å¢Å¢Å¢Å¢Å¢Å¢Å¢Å¢Å¢Å¢Å¢Å¢Å¢Å¢Å¢Å¢Å¢Å¢Å¢Å¢Å¢Å¢Å¢Å¢Å¢Å¢Å¢Å¢Å¢Å¢Å¢Å¢Å¢Å¢Å¢Å¢Å¢Å¢Å¢Å¢Å¢Å¢Å¢Å¢Å¢Å¢Å¢Å¢Å¢Å¢Å¢Å¢Å¢Å¢Å¢Å¢Å¢Å¢Å¢Å¢Å¢Å¢Å¢Å¢Å¢Å¢Å¢Å¢Å¢Å¢Å¢Å¢Å¢Å¢Å¢Å¢Å¢Å¢Å¢Å¢Å¢Å¢Å¢Å¢Å¢Å¢Å¢Å¢Å¢Å¢Å¢Å¢Å¢Å¢Å¢Å¢Å¢Å¢Å¢Å¢Å¢Å¢Å¢Å¢Å¢Å¢Å¢Å¢Å¢Å¢Å¢Å¢Å¢Å¢Å¢Å¢Å¢Å¢Å¢Å¢Å¢Å¢Å¢Å¢Å¢Å¢Å¢Å¢Å¢Å¢Å¢Å¢Å¢Å¢Å¢Å¢Å¢Å¢Å¢Å¢Å¢Å¢Å¢Å¢Å¢Å¢Å¢Å¢Å¢Å¢Å¢Å¢Å¢Å¢Å¢Å¢Å¢Å¢Å¢Å¢Å¢Å¢Å¢Å¢Å¢Å¢Å¢Å¢Å¢Å¢Å¢Å¢Å¢Å¢Å¢Å¢Å¢Å¢Å¢Å¢Å¢Å¢Å¢Å¢Å¢Å¢Å¢Å¢Å¢Å¢Å¢Å¢Å¢Å¢Å¢Å¢Å¢Å¢Å¢Å¢Å¢Å¢Å¢Å¢Å¢Å¢Å¢Å¢Å¢Å¢Å¢Å¢Å¢Å¢Å¢Å¢Å¢Å¢Å¢Å¢Å¢Å¢Å¢Å¢Å¢Å¢Å¢Å¢Å¢Å¢Å¢Å¢Å¢Å¢Å¢Å¢Å¢Å¢Å¢Å¢Å¢Å¢Å¢Å¢Å¢Å¢Å¢Å¢Å¢Å¢Å¢Å¢Å¢Å¢Å¢Å¢Å¢Å¢Å¢Å¢Å¢Å¢Å¢Å¢Å¢Å¢Å¢Å¢Å¢Å¢Å¢Å¢Å¢Å¢Å¢Å¢Å¢Å¢Å¢Å¢Å¢Å¢Å¢Å¢Å¢Å¢Å¢Å¢Å¢Å¢Å¢Å¢Å¢Å¢Å¢Å¢Å¢Å¢Å¢Å¢Å¢Å¢Å¢Å¢Å¢Å¢Å¢Å¢Å¢Å¢Å¢Å¢Å¢Å¢Å¢Å¢Å¢Å¢Å¢Å¢Å¢Å¢Å¢Å¢Å¢Å¢Å¢Å¢Å¢Å¢Å¢Å¢Å¢Å¢Å¢Å¢Å¢Å¢Å¢Å¢Å¢Å¢Å¢Å¢Å¢Å¢Å¢Å¢Å¢Å¢Å¢Å¢Å¢Å¢Å¢Å¢Å¢Å¢Å¢Å¢Å¢Å¢Å¢Å¢Å¢Å¢Å¢Å¢Å¢Å¢Å¢Å¢Å¢Å¢Å¢Å¢Å¢Å¢Å¢Å¢Å¢Å¢Å¢Å¢Å¢Å¢Å¢Å¢Å¢Å¢Å¢Å¢Å¢Å¢Å¢Å¢Å¢Å¢Å¢Å¢Å¢Å¢Å¢Å¢Å¢Å¢Å¢Å¢Å¢Å¢Å¢Å¢Å¢Å¢Å¢Å¢Å¢Å¢Å¢Å¢Å¢Å¢Å¢Å¢Å¢Å¢Å¢Å¢Å¢Å¢Å¢Å¢Å¢Å¢Å¢Å¢Å¢Å¢Å¢Å¢Å¢Å¢Å¢Å¢Å¢Å¢Å¢Å¢Å¢Å¢Å¢Å¢Å¢Å¢Å¢Å¢Å¢Å¢Å¢Å¢Å¢Å¢Å¢Å¢Å¢Å¢Å¢Å¢Å¢Å¢Å¢Å¢Å¢Å¢Å¢Å¢Å¢Å¢Å¢Å¢Å¢Å¢Å¢Å¢Å¢Å¢Å¢Å¢Å¢Å¢Å¢Å¢Å¢Å¢Å¢Å¢Å¢Å¢Å¢Å¢Å¢Å¢Å¢Å¢Å¢Å¢Å¢Å¢Å¢Å¢Å¢Å¢Å¢Å¢Å¢Å¢Å¢Å¢Å¢Å¢Å¢Å¢Å¢Å¢Å¢Å¢Å¢Å¢Å¢Å¢Å¢Å¢Å¢Å¢Å¢Å¢Å¢Å¢Å¢Å¢Å¢Å¢Å¢Å¢Å¢Å¢Å¢Å¢Å¢Å¢Å¢Å¢Å¢Å¢Å¢Å¢Å¢Å¢Å¢Å¢Å¢Å¢Å¢Å¢Å¢Å¢Å¢Å¢Å¢Å¢Å¢Å¢Å¢Å¢Å¢Å¢Å¢Å¢Å¢Å¢Å¢Å¢Å¢Å¢Å¢Å¢Å¢Å¢Å¢Å¢Å¢Å¢Å¢Å¢Å¢Å¢Å¢Å¢Å¢Å¢Å¢Å¢Å¢Å¢Å¢Å¢Å¢Å¢Å¢Å¢Å¢Å¢Å¢Å¢Å¢Å¢Å¢Å¢Å¢Å¢Å¢Å¢Å¢Å¢Å¢Å¢Å¢Å¢Å¢Å¢Å¢Å¢Å¢Å¢Å¢Å¢Å¢Å¢Å¢Å¢Å¢Å¢Å¢Å¢Å¢Å¢Å¢Å¢Å¢Å¢Å¢Å¢Å¢Å¢Å¢Å¢Å¢Å¢Å¢Å¢Å¢Å¢Å¢Å¢Å¢Å¢Å¢Å¢Å¢Å¢Å¢Å¢Å¢Å¢Å¢Å¢Å¢Å¢Å¢Å¢Å¢Å¢Å¢Å¢Å¢Å¢Å¢Å¢Å¢Å¢Å¢Å¢Å¢Å¢Å¢Å¢Å¢Å¢Å¢Å¢Å¢Å¢Å¢Å¢Å¢Å¢Å¢Å¢Å¢Å¢Å¢Å¢Å¢Å¢Å¢Å¢Å¢Å¢Å¢Å¢Å¢Å¢Å¢Å¢Å¢Å¢Å¢Å¢Å¢Å¢Å¢Å¢Å¢Å¢Å¢Å¢Å¢Å¢Å¢Å¢Å¢Å¢Å¢Å¢Å¢Å¢Å¢Å¢Å¢Å¢Å¢Å¢Å¢Å¢Å¢Å¢Å¢Å¢Å¢Å¢Å¢Å¢Å¢Å¢Å¢Å¢Å¢Å¢Å¢Å¢Å¢Å¢Å¢Å¢Å¢Å¢Å¢Å¢Å¢Å¢Å¢Å¢Å¢Å¢Å¢Å¢Å¢Å¢Å¢Å¢Å¢Å¢Å¢Å¢Å¢Å¢Å¢Å¢Å¢Å¢Å¢Å¢Å¢Å¢Å¢Å¢Å¢Å¢Å¢Å¢Å¢Å¢Å¢Å¢Å¢Å¢Å¢Å¢Å¢Å¢Å¢Å¢Å¢Å¢Å¢Å¢Å¢Å¢Å¢Å¢Å¢Å¢Å¢Å¢Å¢Å¢Å¢Å¢Å¢Å¢Å¢Å¢Å¢Å¢Å¢Å¢Å¢Å¢Å¢Å¢Å¢Å¢Å¢Å¢Å¢Å¢Å¢Å¢Å¢Å¢Å¢Å¢Å¢Å¢Å¢Å¢Å¢Å¢Å¢Å¢Å¢Å¢Å¢Å¢Å¢Å¢Å¢Å¢Å¢Å¢Å¢Å¢Å¢Å¢Å¢Å¢Å¢Å¢Å¢Å¢Å¢Å¢Å¢Å¢Å¢Å¢Å¢Å¢Å¢Å¢Å¢Å¢Å¢Å¢Å¢Å¢Å¢Å¢Å¢Å¢Å¢": 2033,
      "Å¢Å¤ÅĿ": 2034,
      "Å¥Å£ÅŁ": 2035,
      "ÅłÅłÅ¥": 2036,
      "Å¢ÅłÅ§": 2037,
      "Å¢Å¢Å¢Å¢Å¢Å¢Å¢Å¢Å¢Å¢Å¢Å¢Å¢Å¢Å¢Å¢Å¢Å¢Å¢Å¢Å¢Å¢Å¤Å¡": 2038,
      "Å¢Å¢Å¢Å¢Å¢Å¢Å¢Å¢Å¢Å¢Å¢Å¢Å¢Å¢Å¢Å¢Å¢Å¢Å¢Å¢Å¢Å¢ÅłÅ£": 2039,
      "Å¢Å¢Å¢Å¢Å¢Å¢Å¢Å¢Å¢Å¢Å¢Å¢Å¢Å¢Å¢Å¢Å¢Å¢Å¢Å¢Å¢Å¢Å¢Å¢Å¢Å¢Å£Å¤": 2040,
      "Å£Å£Å¡Å£": 2041,
      "Å¢Å¢Å¢Å¢Å¢Å¢Å¢Å¢Å¢Å¢Å¢Å¢Å¢Å¢Å¢Å¢Å¢Å¢Å¢Å¢Å¢Å¢Å¢Å¢Å¢Å¢Å¨": 2042,
      "ÅĹÅ¬": 2043,
      "Å¢Å¢Å¢Å¢Å¢Å¢ÅŁ": 2044,
      "Å¢Å¢Å¢Å¢Å¢Å¢Å¢Å¢Å¢Å¢Å¢Å¢Å¢Å¢Å¢Å¢Å¢Å¢Å¢Å¢Å¥": 2045,
      "Å¢Å¢Å¢Å¢Å¢Å¢Å¢Å¢Å¢Å¢Å¢Å¢Å¢Å¢Å¢Å£Å£": 2046,
      "Å¢Å¢Å¢Å¢Å¢Å¢Å¢Å¢Å¢Å¢Å¢Å¢Å¢Å¢Å¢Å¢Å¢Å¢Å¢Å¢Å¢Å¢Å¢Å¢Å¢Å¢Å¢Å¢Å¢Å¢Å¢Å¢Å¢Å¢Å¢Å¢Å¢Å¢Å¢Å¢Å¢Å¢Å¢Å¢Å¢Å¢Å¢Å¢Å¢Å¢Å¢Å¢Å¢Å¢Å¢Å¢Å¢Å¢Å¢Å¢Å¢Å¡Å¢Å£": 2047
    },
    "merges": [
      "Å ¢",
      "Å¢ Å¢",
      "Å¢Å¢ Å¢Å¢",
      "Å¢Å¢Å¢Å¢ Å¢Å¢Å¢Å¢",
      "Å¢Å¢Å¢Å¢Å¢Å¢Å¢Å¢ Å¢Å¢Å¢Å¢Å¢Å¢Å¢Å¢",
      "Å¢Å¢Å¢Å¢Å¢Å¢Å¢Å¢Å¢Å¢Å¢Å¢Å¢Å¢Å¢Å¢ Å¢Å¢Å¢Å¢Å¢Å¢Å¢Å¢Å¢Å¢Å¢Å¢Å¢Å¢Å¢Å¢",
      "Å¢Å¢Å¢Å¢Å¢Å¢Å¢Å¢Å¢Å¢Å¢Å¢Å¢Å¢Å¢Å¢Å¢Å¢Å¢Å¢Å¢Å¢Å¢Å¢Å¢Å¢Å¢Å¢Å¢Å¢Å¢Å¢ Å¢Å¢Å¢Å¢Å¢Å¢Å¢Å¢Å¢Å¢Å¢Å¢Å¢Å¢Å¢Å¢Å¢Å¢Å¢Å¢Å¢Å¢Å¢Å¢Å¢Å¢Å¢Å¢Å¢Å¢Å¢Å¢",
      "Å¢ Å",
      "Å¢Å¢Å¢Å¢Å¢Å¢Å¢Å¢Å¢Å¢Å¢Å¢Å¢Å¢Å¢Å¢Å¢Å¢Å¢Å¢Å¢Å¢Å¢Å¢Å¢Å¢Å¢Å¢Å¢Å¢Å¢Å¢Å¢Å¢Å¢Å¢Å¢Å¢Å¢Å¢Å¢Å¢Å¢Å¢Å¢Å¢Å¢Å¢Å¢Å¢Å¢Å¢Å¢Å¢Å¢Å¢Å¢Å¢Å¢Å¢Å¢Å¢Å¢Å¢ Å¢Å¢Å¢Å¢Å¢Å¢Å¢Å¢Å¢Å¢Å¢Å¢Å¢Å¢Å¢Å¢Å¢Å¢Å¢Å¢Å¢Å¢Å¢Å¢Å¢Å¢Å¢Å¢Å¢Å¢Å¢Å¢Å¢Å¢Å¢Å¢Å¢Å¢Å¢Å¢Å¢Å¢Å¢Å¢Å¢Å¢Å¢Å¢Å¢Å¢Å¢Å¢Å¢Å¢Å¢Å¢Å¢Å¢Å¢Å¢Å¢Å¢Å¢Å¢",
      "Å £",
      "Å ¡",
      "Å¢Å¢Å¢Å¢Å¢Å¢Å¢Å¢Å¢Å¢Å¢Å¢Å¢Å¢Å¢Å¢ Å¢Å¢Å¢Å¢Å¢Å¢Å¢Å¢",
      "Å¢Å¢ Å¢Å",
      "Å¢Å¢Å¢Å¢Å¢Å¢Å¢Å¢Å¢Å¢Å¢Å¢Å¢Å¢Å¢Å¢Å¢Å¢Å¢Å¢Å¢Å¢Å¢Å¢ Å¢Å¢Å¢Å¢",
      "Å¢Å¢Å¢Å¢Å¢Å¢Å¢Å¢Å¢Å¢Å¢Å¢Å¢Å¢Å¢Å¢Å¢Å¢Å¢Å¢Å¢Å¢Å¢Å¢Å¢Å¢Å¢Å¢Å¢Å¢Å¢Å¢Å¢Å¢Å¢Å¢Å¢Å¢Å¢Å¢Å¢Å¢Å¢Å¢Å¢Å¢Å¢Å¢Å¢Å¢Å¢Å¢Å¢Å¢Å¢Å¢Å¢Å¢Å¢Å¢Å¢Å¢Å¢Å¢Å¢Å¢Å¢Å¢Å¢Å¢Å¢Å¢Å¢Å¢Å¢Å¢Å¢Å¢Å¢Å¢Å¢Å¢Å¢Å¢Å¢Å¢Å¢Å¢Å¢Å¢Å¢Å¢Å¢Å¢Å¢Å¢Å¢Å¢Å¢Å¢Å¢Å¢Å¢Å¢Å¢Å¢Å¢Å¢Å¢Å¢Å¢Å¢Å¢Å¢Å¢Å¢Å¢Å¢Å¢Å¢Å¢Å¢Å¢Å¢Å¢Å¢Å¢Å¢ Å¢Å¢Å¢Å¢Å¢Å¢Å¢Å¢Å¢Å¢Å¢Å¢Å¢Å¢Å¢Å¢Å¢Å¢Å¢Å¢Å¢Å¢Å¢Å¢Å¢Å¢Å¢Å¢Å¢Å¢Å¢Å¢Å¢Å¢Å¢Å¢Å¢Å¢Å¢Å¢Å¢Å¢Å¢Å¢Å¢Å¢Å¢Å¢Å¢Å¢Å¢Å¢Å¢Å¢Å¢Å¢Å¢Å¢Å¢Å¢Å¢Å¢Å¢Å¢Å¢Å¢Å¢Å¢Å¢Å¢Å¢Å¢Å¢Å¢Å¢Å¢Å¢Å¢Å¢Å¢Å¢Å¢Å¢Å¢Å¢Å¢Å¢Å¢Å¢Å¢Å¢Å¢Å¢Å¢Å¢Å¢Å¢Å¢Å¢Å¢Å¢Å¢Å¢Å¢Å¢Å¢Å¢Å¢Å¢Å¢Å¢Å¢Å¢Å¢Å¢Å¢Å¢Å¢Å¢Å¢Å¢Å¢Å¢Å¢Å¢Å¢Å¢Å¢",
      "Å ¤",
      "Å ł",
      "Å¢Å £",
      "Å¢Å ¡",
      "Å¢Å¢Å¢Å¢Å¢Å¢Å¢Å¢Å¢Å¢Å¢Å¢Å¢Å¢Å¢Å¢Å¢Å¢Å¢Å¢Å¢Å¢Å¢Å¢Å¢Å¢Å¢Å¢ Å¢Å¢Å¢Å",
      "Å¢Å¢Å¢Å¢Å¢Å¢Å¢Å¢Å¢Å¢Å¢Å¢Å¢Å¢Å¢Å¢ Å¢Å¢Å¢Å¢",
      "Å ¥",
      "Å¢Å¢ Å£",
      "Å¢Å¢ Å¡",
      "Å Ł",
      "Å¢Å¢Å¢Å¢Å¢Å¢Å¢Å¢Å¢Å¢Å¢Å¢Å¢Å¢Å¢Å¢Å¢Å¢Å¢Å¢Å¢Å¢Å¢Å¢Å¢Å¢Å¢Å¢Å¢Å¢Å¢Å¢Å¢Å¢Å¢Å¢Å¢Å¢Å¢Å¢Å¢Å¢Å¢Å¢Å¢Å¢Å¢Å¢Å¢Å¢Å¢Å¢Å¢Å¢Å¢Å¢Å¢Å¢Å¢Å¢Å¢Å¢Å¢Å¢Å¢Å¢Å¢Å¢Å¢Å¢Å¢Å¢Å¢Å¢Å¢Å¢Å¢Å¢Å¢Å¢Å¢Å¢Å¢Å¢Å¢Å¢Å¢Å¢Å¢Å¢Å¢Å¢Å¢Å¢Å¢Å¢Å¢Å¢Å¢Å¢Å¢Å¢Å¢Å¢Å¢Å¢Å¢Å¢Å¢Å¢Å¢Å¢Å¢Å¢Å¢Å¢Å¢Å¢Å¢Å¢Å¢Å¢Å¢Å¢Å¢Å¢Å¢Å¢Å¢Å¢Å¢Å¢Å¢Å¢Å¢Å¢Å¢Å¢Å¢Å¢Å¢Å¢Å¢Å¢Å¢Å¢Å¢Å¢Å¢Å¢Å¢Å¢Å¢Å¢Å¢Å¢Å¢Å¢Å¢Å¢Å¢Å¢Å¢Å¢Å¢Å¢Å¢Å¢Å¢Å¢Å¢Å¢Å¢Å¢Å¢Å¢Å¢Å¢Å¢Å¢Å¢Å¢Å¢Å¢Å¢Å¢Å¢Å¢Å¢Å¢Å¢Å¢Å¢Å¢Å¢Å¢Å¢Å¢Å¢Å¢Å¢Å¢Å¢Å¢Å¢Å¢Å¢Å¢Å¢Å¢Å¢Å¢Å¢Å¢Å¢Å¢Å¢Å¢Å¢Å¢Å¢Å¢Å¢Å¢Å¢Å¢Å¢Å¢Å¢Å¢Å¢Å¢Å¢Å¢Å¢Å¢Å¢Å¢Å¢Å¢Å¢Å¢Å¢Å¢Å¢Å¢Å¢Å¢Å¢Å¢Å¢Å¢Å¢Å¢Å¢Å¢ Å¢Å¢Å¢Å¢Å¢Å¢Å¢Å¢Å¢Å¢Å¢Å¢Å¢Å¢Å¢Å¢Å¢Å¢Å¢Å¢Å¢Å¢Å¢Å¢Å¢Å¢Å¢Å¢Å¢Å¢Å¢Å¢Å¢Å¢Å¢Å¢Å¢Å¢Å¢Å¢Å¢Å¢Å¢Å¢Å¢Å¢Å¢Å¢Å¢Å¢Å¢Å¢Å¢Å¢Å¢Å¢Å¢Å¢Å¢Å¢Å¢Å¢Å¢Å¢Å¢Å¢Å¢Å¢Å¢Å¢Å¢Å¢Å¢Å¢Å¢Å¢Å¢Å¢Å¢Å¢Å¢Å¢Å¢Å¢Å¢Å¢Å¢Å¢Å¢Å¢Å¢Å¢Å¢Å¢Å¢Å¢Å¢Å¢Å¢Å¢Å¢Å¢Å¢Å¢Å¢Å¢Å¢Å¢Å¢Å¢Å¢Å¢Å¢Å¢Å¢Å¢Å¢Å¢Å¢Å¢Å¢Å¢Å¢Å¢Å¢Å¢Å¢Å¢Å¢Å¢Å¢Å¢Å¢Å¢Å¢Å¢Å¢Å¢Å¢Å¢Å¢Å¢Å¢Å¢Å¢Å¢Å¢Å¢Å¢Å¢Å¢Å¢Å¢Å¢Å¢Å¢Å¢Å¢Å¢Å¢Å¢Å¢Å¢Å¢Å¢Å¢Å¢Å¢Å¢Å¢Å¢Å¢Å¢Å¢Å¢Å¢Å¢Å¢Å¢Å¢Å¢Å¢Å¢Å¢Å¢Å¢Å¢Å¢Å¢Å¢Å¢Å¢Å¢Å¢Å¢Å¢Å¢Å¢Å¢Å¢Å¢Å¢Å¢Å¢Å¢Å¢Å¢Å¢Å¢Å¢Å¢Å¢Å¢Å¢Å¢Å¢Å¢Å¢Å¢Å¢Å¢Å¢Å¢Å¢Å¢Å¢Å¢Å¢Å¢Å¢Å¢Å¢Å¢Å¢Å¢Å¢Å¢Å¢Å¢Å¢Å¢Å¢Å¢Å¢Å¢Å¢Å¢Å¢Å¢Å¢Å¢Å¢Å¢Å¢Å¢Å¢",
      "Å ¦",
      "Å ŀ",
      "Å¢Å¢Å¢Å¢Å¢Å¢Å¢Å¢Å¢Å¢Å¢Å¢Å¢Å¢Å¢Å¢Å¢Å¢Å¢Å¢Å¢Å¢Å¢Å¢Å¢Å¢Å¢Å¢Å¢Å¢Å¢Å £",
      "Å¢Å¢Å¢Å¢Å¢Å¢Å¢Å¢Å¢Å¢Å¢Å¢Å¢Å¢Å¢Å¢Å¢Å¢Å¢Å¢Å¢Å¢Å¢Å¢Å¢Å¢Å¢Å¢Å¢Å¢Å¢Å ¡",
      "Å¢Å¢Å¢Å £",
      "Å¢Å¢Å¢Å ¡",
      "Å¢Å¢Å¢Å¢Å¢Å¢Å¢Å¢ Å¢Å¢Å¢Å¢",
      "Å §",
      "Å¡ Å£",
      "Å Ŀ",
      "Å¢Å ¤",
      "Å¢Å ł",
      "Å ¨",
      "Å ľ",
      "Å£ Å£",
      "Å¡ Å¡",
      "Å ©",
      "Å Ľ",
      "Å ļ",
      "Å£ Å¡",
      "Å ª",
      "Å «",
      "Å Ļ",
      "Å¢Å¢Å¢Å¢Å¢Å¢Å¢Å¢Å¢Å¢Å¢Å¢Å¢Å¢Å¢Å¢Å¢Å¢Å¢Å¢ Å¢Å¢",
      "Å¢Å¢Å¢Å¢Å¢Å¢Å¢Å¢Å¢Å¢Å¢Å¢Å¢Å¢Å¢Å¢Å¢Å¢Å¢Å¢Å¢Å¢Å¢Å¢Å¢Å¢Å¢Å¢Å¢Å¢Å¢Å¢Å¢Å¢Å¢Å¢Å¢Å¢Å¢Å¢Å¢Å¢Å¢Å¢Å¢Å¢Å¢Å¢Å¢Å¢Å¢Å¢Å¢Å¢Å¢Å¢Å¢Å¢Å¢Å¢Å¢Å¢Å¢Å¢Å¢Å¢Å¢Å¢Å¢Å¢Å¢Å¢Å¢Å¢Å¢Å¢Å¢Å¢Å¢Å¢Å¢Å¢Å¢Å¢Å¢Å¢Å¢Å¢Å¢Å¢Å¢Å¢Å¢Å¢Å¢Å¢Å¢Å¢Å¢Å¢Å¢Å¢Å¢Å¢Å¢Å¢Å¢Å¢Å¢Å¢Å¢Å¢Å¢Å¢Å¢Å¢Å¢Å¢Å¢Å¢Å¢Å¢Å¢Å¢Å¢Å¢Å¢Å¢Å¢Å¢Å¢Å¢Å¢Å¢Å¢Å¢Å¢Å¢Å¢Å¢Å¢Å¢Å¢Å¢Å¢Å¢Å¢Å¢Å¢Å¢Å¢Å¢Å¢Å¢Å¢Å¢Å¢Å¢Å¢Å¢Å¢Å¢Å¢Å¢Å¢Å¢Å¢Å¢Å¢Å¢Å¢Å¢Å¢Å¢Å¢Å¢Å¢Å¢Å¢Å¢Å¢Å¢Å¢Å¢Å¢Å¢Å¢Å¢Å¢Å¢Å¢Å¢Å¢Å¢Å¢Å¢Å¢Å¢Å¢Å¢Å¢Å¢Å¢Å¢Å¢Å¢Å¢Å¢Å¢Å¢Å¢Å¢Å¢Å¢Å¢Å¢Å¢Å¢Å¢Å¢Å¢Å¢Å¢Å¢Å¢Å¢Å¢Å¢Å¢Å¢Å¢Å¢Å¢Å¢Å¢Å¢Å¢Å¢Å¢Å¢Å¢Å¢Å¢Å¢Å¢Å¢Å¢Å¢Å¢Å¢Å¢Å¢Å¢Å¢Å¢Å¢Å¢Å¢Å¢Å¢Å¢Å¢Å¢Å¢Å¢Å¢Å¢Å¢Å¢Å¢Å¢Å¢Å¢Å¢Å¢Å¢Å¢Å¢Å¢Å¢Å¢Å¢Å¢Å¢Å¢Å¢Å¢Å¢Å¢Å¢Å¢Å¢Å¢Å¢Å¢Å¢Å¢Å¢Å¢Å¢Å¢Å¢Å¢Å¢Å¢Å¢Å¢Å¢Å¢Å¢Å¢Å¢Å¢Å¢Å¢Å¢Å¢Å¢Å¢Å¢Å¢Å¢Å¢Å¢Å¢Å¢Å¢Å¢Å¢Å¢Å¢Å¢Å¢Å¢Å¢Å¢Å¢Å¢Å¢Å¢Å¢Å¢Å¢Å¢Å¢Å¢Å¢Å¢Å¢Å¢Å¢Å¢Å¢Å¢Å¢Å¢Å¢Å¢Å¢Å¢Å¢Å¢Å¢Å¢Å¢Å¢Å¢Å¢Å¢Å¢Å¢Å¢Å¢Å¢Å¢Å¢Å¢Å¢Å¢Å¢Å¢Å¢Å¢Å¢Å¢Å¢Å¢Å¢Å¢Å¢Å¢Å¢Å¢Å¢Å¢Å¢Å¢Å¢Å¢Å¢Å¢Å¢Å¢Å¢Å¢Å¢Å¢Å¢Å¢Å¢Å¢Å¢Å¢Å¢Å¢Å¢Å¢Å¢Å¢Å¢Å¢Å¢Å¢Å¢Å¢Å¢Å¢Å¢Å¢Å¢Å¢Å¢Å¢Å¢Å¢Å¢Å¢Å¢Å¢Å¢Å¢Å¢Å¢Å¢Å¢Å¢Å¢Å¢Å¢Å¢Å¢Å¢Å¢Å¢Å¢Å¢Å¢Å¢Å¢Å¢Å¢Å¢Å¢Å¢Å¢Å¢Å¢Å¢Å¢Å¢Å¢Å¢Å¢Å¢Å¢Å¢Å¢Å¢Å¢Å¢Å¢Å¢Å¢Å¢Å¢Å¢Å¢Å¢Å¢Å¢Å¢Å¢Å¢Å¢Å¢Å¢Å¢Å¢Å¢Å¢Å¢Å¢Å¢Å¢Å¢Å¢Å¢Å¢Å¢Å¢Å¢Å¢ Å¢Å¢Å¢Å¢Å¢Å¢Å¢Å¢Å¢Å¢Å¢Å¢Å¢Å¢Å¢Å¢Å¢Å¢Å¢Å¢Å¢Å¢Å¢Å¢Å¢Å¢Å¢Å¢Å¢Å¢Å¢Å¢Å¢Å¢Å¢Å¢Å¢Å¢Å¢Å¢Å¢Å¢Å¢Å¢Å¢Å¢Å¢Å¢Å¢Å¢Å¢Å¢Å¢Å¢Å¢Å¢Å¢Å¢Å¢Å¢Å¢Å¢Å¢Å¢Å¢Å¢Å¢Å¢Å¢Å¢Å¢Å¢Å¢Å¢Å¢Å¢Å¢Å¢Å¢Å¢Å¢Å¢Å¢Å¢Å¢Å¢Å¢Å¢Å¢Å¢Å¢Å¢Å¢Å¢Å¢Å¢Å¢Å¢Å¢Å¢Å¢Å¢Å¢Å¢Å¢Å¢Å¢Å¢Å¢Å¢Å¢Å¢Å¢Å¢Å¢Å¢Å¢Å¢Å¢Å¢Å¢Å¢Å¢Å¢Å¢Å¢Å¢Å¢Å¢Å¢Å¢Å¢Å¢Å¢Å¢Å¢Å¢Å¢Å¢Å¢Å¢Å¢Å¢Å¢Å¢Å¢Å¢Å¢Å¢Å¢Å¢Å¢Å¢Å¢Å¢Å¢Å¢Å¢Å¢Å¢Å¢Å¢Å¢Å¢Å¢Å¢Å¢Å¢Å¢Å¢Å¢Å¢Å¢Å¢Å¢Å¢Å¢Å¢Å¢Å¢Å¢Å¢Å¢Å¢Å¢Å¢Å¢Å¢Å¢Å¢Å¢Å¢Å¢Å¢Å¢Å¢Å¢Å¢Å¢Å¢Å¢Å¢Å¢Å¢Å¢Å¢Å¢Å¢Å¢Å¢Å¢Å¢Å¢Å¢Å¢Å¢Å¢Å¢Å¢Å¢Å¢Å¢Å¢Å¢Å¢Å¢Å¢Å¢Å¢Å¢Å¢Å¢Å¢Å¢Å¢Å¢Å¢Å¢Å¢Å¢Å¢Å¢Å¢Å¢Å¢Å¢Å¢Å¢Å¢Å¢Å¢Å¢Å¢Å¢Å¢Å¢Å¢Å¢Å¢Å¢Å¢Å¢Å¢Å¢Å¢Å¢Å¢Å¢Å¢Å¢Å¢Å¢Å¢Å¢Å¢Å¢Å¢Å¢Å¢Å¢Å¢Å¢Å¢Å¢Å¢Å¢Å¢Å¢Å¢Å¢Å¢Å¢Å¢Å¢Å¢Å¢Å¢Å¢Å¢Å¢Å¢Å¢Å¢Å¢Å¢Å¢Å¢Å¢Å¢Å¢Å¢Å¢Å¢Å¢Å¢Å¢Å¢Å¢Å¢Å¢Å¢Å¢Å¢Å¢Å¢Å¢Å¢Å¢Å¢Å¢Å¢Å¢Å¢Å¢Å¢Å¢Å¢Å¢Å¢Å¢Å¢Å¢Å¢Å¢Å¢Å¢Å¢Å¢Å¢Å¢Å¢Å¢Å¢Å¢Å¢Å¢Å¢Å¢Å¢Å¢Å¢Å¢Å¢Å¢Å¢Å¢Å¢Å¢Å¢Å¢Å¢Å¢Å¢Å¢Å¢Å¢Å¢Å¢Å¢Å¢Å¢Å¢Å¢Å¢Å¢Å¢Å¢Å¢Å¢Å¢Å¢Å¢Å¢Å¢Å¢Å¢Å¢Å¢Å¢Å¢Å¢Å¢Å¢Å¢Å¢Å¢Å¢Å¢Å¢Å¢Å¢Å¢Å¢Å¢Å¢Å¢Å¢Å¢Å¢Å¢Å¢Å¢Å¢Å¢Å¢Å¢Å¢Å¢Å¢Å¢Å¢Å¢Å¢Å¢Å¢Å¢Å¢Å¢Å¢Å¢Å¢Å¢Å¢Å¢Å¢Å¢Å¢Å¢Å¢Å¢Å¢Å¢Å¢Å¢Å¢Å¢Å¢Å¢Å¢Å¢Å¢Å¢Å¢Å¢Å¢Å¢Å¢Å¢Å¢Å¢Å¢Å¢Å¢Å¢Å¢Å¢Å¢Å¢Å¢Å¢Å¢Å¢Å¢Å¢Å¢Å¢Å¢Å¢Å¢Å¢Å¢Å¢Å¢Å¢Å¢Å¢Å¢Å¢Å¢Å¢Å¢Å¢Å¢Å¢Å¢Å¢Å¢Å¢Å¢Å¢Å¢Å¢",
      "Å¢Å¢Å¢Å¢Å¢Å¢Å¢Å¢Å¢Å¢Å¢Å¢Å¢Å¢Å¢Å¢Å¢Å¢Å¢Å¢Å¢Å¢Å¢Å¢ Å¢Å¢",
      "Å ¬",
      "Å ĺ",
      "Å¢Å ¥",
      "Å¢Å Ł",
      "Å¢Å¢Å¢Å¢Å¢Å¢Å¢Å¢Å¢Å¢Å¢Å¢Å¢Å¢Å¢Å¢Å¢Å¢Å¢Å¢Å¢Å¢Å¢Å¢Å¢Å¢Å¢Å¢Å¢Å¢Å¢Å¢Å¢Å¢Å¢Å¢Å¢Å¢Å¢Å¢Å¢Å¢Å¢Å¢Å¢Å¢Å¢Å¢Å¢Å¢Å¢Å¢Å¢Å¢Å¢Å¢Å¢Å¢Å¢Å¢Å¢Å¢Å¢Å¢ Å¢Å¢Å¢Å¢Å¢Å¢Å¢Å¢Å¢Å¢Å¢Å¢Å¢Å¢Å¢Å¢Å¢Å¢Å¢Å¢Å¢Å¢Å¢Å¢Å¢Å¢Å¢Å¢Å¢Å¢Å¢Å¢",
      "Å¢Å¡ Å£",
      "Å Ń",
      "Å¢Å¢Å¢Å¢Å¢Å¢Å¢Å¢Å¢Å¢Å¢Å¢Å¢Å¢Å¢Å¢ Å¢Å¢",
      "Å¢Å£ Å¡",
      "Å Ĺ",
      "Å¢Å¢Å¢Å¢Å¢Å¢Å¢Å¢Å¢Å¢Å¢Å¢Å¢Å¢Å¢Å¢Å¢Å¢Å¢Å¢Å¢Å¢Å¢Å¢ Å¢Å¢Å¡",
      "Å ®",
      "Å¢Å¢Å¢Å¢Å¢Å¢Å¢Å¢Å¢Å¢Å¢Å¢Å¢Å¢Å¢Å¢Å¢Å¢Å¢Å¢Å¢Å¢Å¢Å¢ Å¢Å¢Å£",
      "Å ĸ",
      "Å ķ",
      "Å¢Å¢Å¢Å¢Å¢Å¢Å¢Å¢Å¢Å¢Å¢Å¢Å¢Å¢Å¢Å¢Å¢Å¢Å¢Å¢Å¢Å¢Å¢Å¢ Å¢Å£",
      "Åł Å£",
      "Å¢Å¢Å¢Å¢Å¢Å¢Å¢Å¢Å¢Å¢Å¢Å¢Å¢Å¢Å¢Å¢Å¢Å¢Å¢Å¢Å¢Å¢Å¢Å¢ Å¢Å¡",
      "Å¤ Å£",
      "Å¤ Å¡",
      "Å ¯",
      "Å¢Å¢Å¢Å¢Å¢Å¢Å¢Å¢Å¢Å¢Å¢Å¢Å¢Å¢Å¢Å¢Å¢Å¢Å¢Å¢Å¢Å¢Å¢Å¢Å¢Å¢Å¢Å¢ Å¢Å¢Å¡",
      "Å¢Å¢Å¢Å¢Å¢Å¢Å¢Å¢Å¢Å¢Å¢Å¢Å¢Å¢Å¢Å¢Å¢Å¢Å¢Å¢Å¢Å¢Å¢Å¢Å¢Å¢Å¢Å¢ Å¢Å¢Å£",
      "Å¢Å¢Å¢Å¢Å¢Å¢Å¢Å¢Å¢Å¢Å¢Å¢Å¢Å¢Å¢Å¢Å¢Å¢Å¢Å¢Å¢Å¢Å¢Å¢Å¢Å¢Å¢Å¢ Å¢Å£",
      "Å¢Å¢Å¢Å¢Å¢Å¢Å¢Å¢Å¢Å¢Å¢Å¢Å¢Å¢Å¢Å¢Å¢Å¢Å¢Å¢Å¢Å¢Å¢Å¢Å¢Å¢Å¢Å¢ Å¢Å¡",
      "Åł Å¡",
      "Å °",
      "Å Ķ",
      "Å¢Å¢Å¢Å¢Å¢Å¢Å¢Å¢Å¢Å¢Å¢Å¢Å¢Å¢Å¢Å¢Å¢Å¢Å¢Å¢Å¢Å¢Å¢Å¢ Å¢Å",
      "Å¢Å¢Å¢Å¢Å¢Å¢Å¢Å¢Å¢Å¢Å¢Å¢Å¢Å¢Å¢Å¢Å¢Å¢Å¢Å¢Å¢Å¢Å¢Å¢Å¢Å¢Å¢Å¢Å¢Å¢Å¢Å¢ Å¢Å¢Å¢Å¢Å¢Å¢Å¢Å¢Å¢Å¢Å¢Å¢Å¢Å¢Å¢Å¢Å¢Å¢Å¢Å¢Å¢Å¢Å¢Å¢Å¢Å¢Å¢Å¢Å¢Å¢Å¢Å¡",
      "Å¢Å¢Å¢Å¢Å¢Å¢Å¢Å¢Å¢Å¢Å¢Å¢Å¢Å¢Å¢Å¢Å¢Å¢Å¢Å¢Å¢Å¢Å¢Å¢Å¢Å¢Å¢Å¢Å¢Å¢Å¢Å¢ Å¢Å¢Å¢Å¢Å¢Å¢Å¢Å¢Å¢Å¢Å¢Å¢Å¢Å¢Å¢Å¢Å¢Å¢Å¢Å¢Å¢Å¢Å¢Å¢Å¢Å¢Å¢Å¢Å¢Å¢Å¢Å£",
      "Å ±",
      "Å¢Å£ Å£",
      "Å ĵ",
      "Å¢Å¢Å¢Å¢Å¢Å¢Å¢Å¢Å¢Å¢Å¢Å¢Å¢Å¢Å¢Å¢Å¢Å¢Å¢Å¢Å¢Å¢Å¢Å¢ Å¢Å¢Å¢Å£",
      "Å¢Å¢Å¢Å¢Å¢Å¢Å¢Å¢Å¢Å¢Å¢Å¢Å¢Å¢Å¢Å¢Å¢Å¢Å¢Å¢Å¢Å¢Å¢Å¢ Å¢Å¢Å¢Å¡",
      "Å ²",
      "Å¢Å¡ Å¡",
      "Å¢Å¢Å¢Å¢Å¢Å¢Å¢Å¢Å¢Å¢Å¢Å¢Å¢Å¢Å¢Å¢Å¢Å¢Å¢Å¢ Å¢Å¢Å¡",
      "Å¢Å¢Å¢Å¢Å¢Å¢Å¢Å¢Å¢Å¢Å¢Å¢Å¢Å¢Å¢Å¢Å¢Å¢Å¢Å¢ Å¢Å¢Å£",
      "Å Ĵ",
      "Å¢Å¢Å¢Å¢Å¢Å¢Å¢Å¢Å¢Å¢Å¢Å¢Å¢Å¢Å¢Å¢Å¢Å¢Å¢Å¢ Å¢Å¢Å¢Å¡",
      "Å¢Å¢Å¢Å¢Å¢Å¢Å¢Å¢Å¢Å¢Å¢Å¢Å¢Å¢Å¢Å¢Å¢Å¢Å¢Å¢ Å¢Å¢Å¢Å£",
      "Å ³",
      "Å¢Å¢Å¢Å¢Å¢Å¢Å¢Å¢Å¢Å¢Å¢Å¢Å¢Å¢Å¢Å¢ Å¢Å¢Å¢Å",
      "Å¢Å¢ Å¤",
      "Åł Å¤",
      "Å¢Å¢Å¢Å¢ Å£",
      "Å¢Å ¦",
      "Å ´",
      "Å¢Å ŀ",
      "Å ĳ",
      "Å¢Å¢Å¢Å¢ Å¡",
      "Å¢Å¢Å¢Å¢Å¢Å¢Å¢Å¢Å¢Å¢Å¢Å¢Å¢Å¢Å¢Å¢Å¢Å¢Å¢Å¢Å¢Å¢Å¢Å¢Å¢Å¢Å¢Å¢Å¢Å¢Å¢Å£ Å¢Å¢Å¢Å¢Å¢Å¢Å¢Å¢Å¢Å¢Å¢Å¢Å¢Å¢Å¢Å¢Å¢Å¢Å¢Å¢Å¢Å¢Å¢Å¢Å¢Å¢Å¢Å¢Å¢Å¢Å¢Å£",
      "Å¢Å¢ Åł",
      "Å µ",
      "Å Ĳ",
      "Å¢Å¢Å¢Å¢Å¢Å¢Å¢Å¢Å¢Å¢Å¢Å¢Å¢Å¢Å¢Å¢Å¢Å¢Å¢Å¢Å¢Å¢Å¢Å¢ Å£",
      "Å¢Å¢Å¢Å¢Å¢Å¢Å¢Å¢Å¢Å¢Å¢Å¢Å¢Å¢Å¢Å¢Å¢Å¢Å¢Å¢Å¢Å¢Å¢Å¢Å¢Å¢Å¢Å¢Å¢Å¢Å¢Å¡ Å¢Å¢Å¢Å¢Å¢Å¢Å¢Å¢Å¢Å¢Å¢Å¢Å¢Å¢Å¢Å¢Å¢Å¢Å¢Å¢Å¢Å¢Å¢Å¢Å¢Å¢Å¢Å¢Å¢Å¢Å¢Å¡",
      "Å¢Å¢Å¢Å¢Å¢Å¢Å¢Å¢Å¢Å¢Å¢Å¢Å¢Å¢Å¢Å¢Å¢Å¢Å¢Å¢Å¢Å¢Å¢Å¢ Å¡",
      "Å¢Å¢Å¢Å¢Å¢Å¢Å¢Å¢Å¢Å¢Å¢Å¢Å¢Å¢Å¢Å¢Å¢Å¢Å¢Å¢ Å¢Å¢Å¢Å",
      "Å ¶",
      "Å ı",
      "Å ·",
      "Å ¸",
      "Å İ",
      "Å¢Å¢Å¢Å¢Å¢Å¢Å¢Å¢Å¢Å¢Å¢Å¢Å¢Å¢Å¢Å¢Å¢Å¢Å¢Å¢Å¢Å¢Å¢Å¢Å¢Å¢Å¢Å¢Å¢Å¢Å¢Å¢Å¢Å¢Å¢Å¢Å¢Å¢Å¢Å¢Å¢Å¢Å¢Å¢Å¢Å¢Å¢Å¢Å¢Å¢Å¢Å¢Å¢Å¢Å¢Å¢Å¢Å¢Å¢Å¢Å¢Å¢Å¢Å¢Å¢Å¢Å¢Å¢Å¢Å¢Å¢Å¢Å¢Å¢Å¢Å¢Å¢Å¢Å¢Å¢Å¢Å¢Å¢Å¢Å¢Å¢Å¢Å¢Å¢Å¢Å¢Å¢Å¢Å¢Å¢Å¢Å¢Å¢Å¢Å¢Å¢Å¢Å¢Å¢Å¢Å¢Å¢Å¢Å¢Å¢Å¢Å¢Å¢Å¢Å¢Å¢Å¢Å¢Å¢Å¢Å¢Å¢Å¢Å¢Å¢Å¢Å¢Å¢Å¢Å¢Å¢Å¢Å¢Å¢Å¢Å¢Å¢Å¢Å¢Å¢Å¢Å¢Å¢Å¢Å¢Å¢Å¢Å¢Å¢Å¢Å¢Å¢Å¢Å¢Å¢Å¢Å¢Å¢Å¢Å¢Å¢Å¢Å¢Å¢Å¢Å¢Å¢Å¢Å¢Å¢Å¢Å¢Å¢Å¢Å¢Å¢Å¢Å¢Å¢Å¢Å¢Å¢Å¢Å¢Å¢Å¢Å¢Å¢Å¢Å¢Å¢Å¢Å¢Å¢Å¢Å¢Å¢Å¢Å¢Å¢Å¢Å¢Å¢Å¢Å¢Å¢Å¢Å¢Å¢Å¢Å¢Å¢Å¢Å¢Å¢Å¢Å¢Å¢Å¢Å¢Å¢Å¢Å¢Å¢Å¢Å¢Å¢Å¢Å¢Å¢Å¢Å¢Å¢Å¢Å¢Å¢Å¢Å¢Å¢Å¢Å¢Å¢Å¢Å¢Å¢Å¢Å¢Å¢Å¢Å¢Å¢Å¢Å¢Å¢Å¢Å¢ Å¢Å¢Å¢Å¢Å¢Å¢Å¢Å¢Å¢Å¢Å¢Å¢Å¢Å¢Å¢Å¢Å¢Å¢Å¢Å¢Å¢Å¢Å¢Å¢Å¢Å¢Å¢Å¢Å¢Å¢Å¢Å¢Å¢Å¢Å¢Å¢Å¢Å¢Å¢Å¢Å¢Å¢Å¢Å¢Å¢Å¢Å¢Å¢Å¢Å¢Å¢Å¢Å¢Å¢Å¢Å¢Å¢Å¢Å¢Å¢Å¢Å¢Å¢Å¢Å¢Å¢Å¢Å¢Å¢Å¢Å¢Å¢Å¢Å¢Å¢Å¢Å¢Å¢Å¢Å¢Å¢Å¢Å¢Å¢Å¢Å¢Å¢Å¢Å¢Å¢Å¢Å¢Å¢Å¢Å¢Å¢Å¢Å¢Å¢Å¢Å¢Å¢Å¢Å¢Å¢Å¢Å¢Å¢Å¢Å¢Å¢Å¢Å¢Å¢Å¢Å¢Å¢Å¢Å¢Å¢Å¢Å¢Å¢Å¢Å¢Å¢Å¢Å¢",
      "Å¤ Åł",
      "Å »",
      "Å º",
      "Å ¹",
[...]
